{"[UNK]":0,"[CLS]":1,"[SEP]":2,"[PAD]":3,"[MASK]":4,"!":5,"\"":6,"#":7,"$":8,"%":9,"&":10,"'":11,"(":12,")":13,"*":14,"+":15,",":16,"-":17,".":18,"/":19,"0":20,"1":21,"2":22,"3":23,"4":24,"5":25,"6":26,"7":27,"8":28,"9":29,":":30,";":31,"<":32,"=":33,">":34,"?":35,"@":36,"A":37,"B":38,"C":39,"D":40,"E":41,"F":42,"G":43,"H":44,"I":45,"J":46,"K":47,"L":48,"M":49,"N":50,"O":51,"P":52,"Q":53,"R":54,"S":55,"T":56,"U":57,"V":58,"W":59,"X":60,"Y":61,"Z":62,"[":63,"\\":64,"]":65,"^":66,"_":67,"`":68,"a":69,"b":70,"c":71,"d":72,"e":73,"f":74,"g":75,"h":76,"i":77,"j":78,"k":79,"l":80,"m":81,"n":82,"o":83,"p":84,"q":85,"r":86,"s":87,"t":88,"u":89,"v":90,"w":91,"x":92,"y":93,"z":94,"{":95,"|":96,"}":97,"~":98,"¡":99,"¢":100,"£":101,"¤":102,"¥":103,"¦":104,"§":105,"¨":106,"©":107,"ª":108,"«":109,"¬":110,"®":111,"¯":112,"°":113,"±":114,"²":115,"³":116,"´":117,"µ":118,"¶":119,"·":120,"¸":121,"¹":122,"º":123,"»":124,"¼":125,"½":126,"¾":127,"¿":128,"À":129,"Á":130,"Â":131,"Ã":132,"Ä":133,"Å":134,"Æ":135,"Ç":136,"È":137,"É":138,"Ê":139,"Ë":140,"Ì":141,"Í":142,"Î":143,"Ï":144,"Ð":145,"Ñ":146,"Ò":147,"Ó":148,"Ô":149,"Õ":150,"Ö":151,"×":152,"Ø":153,"Ù":154,"Ú":155,"Û":156,"Ü":157,"Ý":158,"Þ":159,"ß":160,"à":161,"á":162,"â":163,"ã":164,"ä":165,"å":166,"æ":167,"ç":168,"è":169,"é":170,"ê":171,"ë":172,"ì":173,"í":174,"î":175,"ï":176,"ð":177,"ñ":178,"ò":179,"ó":180,"ô":181,"õ":182,"ö":183,"÷":184,"ø":185,"ù":186,"ú":187,"û":188,"ü":189,"ý":190,"þ":191,"ÿ":192,"Ā":193,"ā":194,"Ă":195,"ă":196,"Ą":197,"ą":198,"Ć":199,"ć":200,"Ĉ":201,"ĉ":202,"Ċ":203,"ċ":204,"Č":205,"č":206,"Ď":207,"ď":208,"Đ":209,"đ":210,"Ē":211,"ē":212,"Ĕ":213,"ĕ":214,"Ė":215,"ė":216,"Ę":217,"ę":218,"Ě":219,"ě":220,"Ĝ":221,"ĝ":222,"Ğ":223,"ğ":224,"Ġ":225,"ġ":226,"Ģ":227,"ģ":228,"Ĥ":229,"ĥ":230,"Ħ":231,"ħ":232,"Ĩ":233,"ĩ":234,"Ī":235,"ī":236,"Ĭ":237,"ĭ":238,"Į":239,"į":240,"İ":241,"ı":242,"Ĳ":243,"ĳ":244,"Ĵ":245,"ĵ":246,"Ķ":247,"ķ":248,"ĸ":249,"Ĺ":250,"ĺ":251,"Ļ":252,"ļ":253,"Ľ":254,"ľ":255,"Ŀ":256,"ŀ":257,"Ł":258,"ł":259,"Ń":260,"Ġt":261,"he":262,"Ġa":263,"in":264,"Ġthe":265,"er":266,"on":267,"Ġ,":268,"re":269,"Ġs":270,"ed":271,"Ġw":272,"Ġo":273,"nd":274,"at":275,"Ġ.":276,"or":277,"en":278,"Ġc":279,"it":280,"Ġf":281,"is":282,"es":283,"ar":284,"Ġb":285,"Ġof":286,"an":287,"Ġin":288,"al":289,"ing":290,"Ġp":291,"as":292,"Ġand":293,"Ġto":294,"ic":295,"ro":296,"Ġm":297,"Ġd":298,"Ġh":299,"ion":300,"le":301,"ou":302,"ĠT":303,"Ġre":304,"Ġ=":305,"ĠS":306,"il":307,"ĠA":308,"ent":309,"Ġ\"":310,"Ġ1":311,"Ġth":312,"st":313,"el":314,"ĠC":315,"Ġl":316,"Ġ@":317,"om":318,"Ġe":319,"ĠĊ":320,"am":321,"Ġn":322,"ad":323,"ac":324,"Ġwas":325,"ĠM":326,"ĠB":327,"ec":328,"Ġon":329,"ĠThe":330,"ly":331,"ur":332,"Ġ'":333,"et":334,"id":335,"ol":336,"Ġg":337,"im":338,"ĠI":339,"-@":340,"Ġ@-@":341,"Ġfor":342,"ir":343,"ig":344,"iv":345,"ot":346,"ter":347,"ĠH":348,"ut":349,"Ġas":350,"us":351,"ow":352,"ith":353,"ay":354,"Ġ2":355,"ĠP":356,"Ġst":357,"Ġhe":358,"ver":359,"ation":360,"Ġwith":361,"Ġbe":362,"ĠR":363,"Ġthat":364,"ĠD":365,"ce":366,"un":367,"em":368,"ĠW":369,"Ġwh":370,"ĠF":371,"ch":372,"Ġby":373,"th":374,"Ġal":375,"Ġ)":376,"Ġ(":377,"ĠL":378,"ul":379,"ĠG":380,"Ġis":381,"Ġcon":382,"ers":383,"Ġat":384,"ct":385,"ĠN":386,"ra":387,"os":388,"Ġ19":389,"Ġan":390,"Ġit":391,"her":392,"rom":393,"and":394,"um":395,"ĠJ":396,"est":397,"00":398,"Ġhis":399,"ĠE":400,"ag":401,"av":402,"ain":403,"ri":404,"od":405,"Ġfrom":406,"ĠO":407,"ist":408,"Ġcom":409,"Ġv":410,"Ġpro":411,"op":412,"ill":413,"ore":414,"if":415,"ld":416,"up":417,"Ġr":418,"ew":419,"ere":420,"res":421,"igh":422,"ĠIn":423,"ies":424,"Ġde":425,"ber":426,"art":427,"ard":428,"ort":429,"Ġse":430,"ich":431,"Ġwere":432,"ate":433,"all":434,"ak":435,"ant":436,"oc":437,"ud":438,"ap":439,"qu":440,"Ġex":441,"ong":442,"ab":443,"Ġch":444,"Ġor":445,"ĠK":446,"gh":447,"ear":448,"ess":449,"ated":450,"Ġpl":451,"Ġsh":452,"ity":453,"ip":454,"ive":455,"ame":456,"ĠU":457,"Ġâ":458,"Ġhad":459,"ect":460,"ack":461,"ĠSt":462,"ĠâĢ":463,"Ġsu":464,"ast":465,"se":466,"red":467,"Ġk":468,"ge":469,"Ġwhich":470,"our":471,"ment":472,"Ġle":473,"und":474,"Ġare":475,"ian":476,"ov":477,"ial":478,"Ġnot":479,"ell":480,"Ġsp":481,"ost":482,"Ġy":483,"ight":484,"ia":485,"ord":486,"ust":487,"ary":488,"ine":489,"ther":490,"pt":491,"rit":492,"Ġ3":493,"oun":494,"pp":495,"ical":496,"ĠCh":497,"ave":498,"Ġun":499,"Ġ200":500,"cc":501,"Ġinc":502,"fter":503,"ould":504,"ĠV":505,"Ġbut":506,"irst":507,"ish":508,"ous":509,"te":510,"ff":511,"ions":512,"so":513,"Ġcomp":514,"Ġ20":515,"ide":516,"Ġro":517,"ure":518,"Ġwhe":519,"Ġar":520,"ub":521,"Ġcont":522,"ie":523,"Ġ;":524,"og":525,"ign":526,"Ġfirst":527,"Ġcl":528,"wo":529,"Ġher":530,"ry":531,"ue":532,"Ġits":533,"ass":534,"Ġtheir":535,"orm":536,"ĠâĢĵ":537,"ok":538,"ork":539,"Ġint":540,"Ġres":541,"ĠHe":542,"Ġ:":543,"ater":544,"Ġalso":545,"Ġab":546,"ond":547,"Ġad":548,"ome":549,"out":550,"ran":551,"mer":552,"ire":553,"hed":554,"ru":555,"Ġus":556,"age":557,"du":558,"Ġ4":559,"ime":560,"low":561,"Ġper":562,"per":563,"Ġwho":564,"Ġ5":565,"ĠTh":566,"Ġone":567,"Ġhave":568,"Ġsc":569,"pl":570,"ally":571,"own":572,"ile":573,"Ġrec":574,"ted":575,"Ġ18":576,".@":577,"Ġ@.@":578,"Ġtwo":579,"ition":580,"ugh":581,"iz":582,"ree":583,"ence":584,"uring":585,"ts":586,"port":587,"Ġbeen":588,"Ġpart":589,"Ġbec":590,"ice":591,"Ġhas":592,"Ġag":593,"ĠAl":594,"Ġapp":595,"Ġ201":596,",@":597,"Ġ@,@":598,"ough":599,"Ġj":600,"Ġen":601,"Ġdis":602,"lud":603,"ke":604,"Ġover":605,"Ġser":606,"Ġthis":607,"ory":608,"ely":609,"Ġyear":610,"ations":611,"ember":612,"ren":613,"ction":614,"ound":615,"ach":616,"Ġoff":617,"Ġafter":618,"ric":619,"Ġup":620,"land":621,"Ġdes":622,"ace":623,"Ġplay":624,"ĠIt":625,"ark":626,"over":627,"ance":628,"Ġout":629,"Ġthey":630,"Ġman":631,"ade":632,"Ġte":633,"act":634,"Ġother":635,"ib":636,"man":637,"ult":638,"Ġim":639,"ĠY":640,"ph":641,"ress":642,"Ġinclud":643,"ced":644,"ens":645,"urn":646,"wn":647,"Ġwould":648,"ind":649,"Ġtime":650,"one":651,"Ġinto":652,"Ġpre":653,"vel":654,"ĠOn":655,"ĠUn":656,"ward":657,"we":658,"Ġwe":659,"Ġhim":660,"ite":661,"oin":662,"ates":663,"Ġ6":664,"Ġshe":665,"les":666,"Ġev":667,"Ġatt":668,"ilm":669,"ased":670,"Ġne":671,"ited":672,"able":673,"end":674,"ied":675,"ase":676,"amp":677,"Ġcomm":678,"ors":679,"Ġinter":680,"are":681,"rough":682,"oy":683,"ons":684,"ount":685,"ep":686,"form":687,"Ġall":688,"ose":689,"ood":690,"ang":691,"Ġmore":692,"ces":693,"Ġwork":694,"Ġ7":695,"ail":696,"old":697,"aw":698,"ered":699,"ings":700,"ve":701,"ĠAn":702,"ild":703,"Ġnew":704,"Ġsec":705,"Ġbet":706,"Ġwhen":707,"inal":708,"Ġfe":709,"Ġfilm":710,"ick":711,"vi":712,"ents":713,"ĠSe":714,"att":715,"way":716,"ft":717,"iss":718,"aus":719,"Ġ8":720,"fer":721,"gan":722,"ĠMar":723,"reat":724,"Ġcons":725,"rib":726,"ĠAr":727,"round":728,"ake":729,"Ġrem":730,"ved":731,"Ġtr":732,"Ġdec":733,"ason":734,"ans":735,"Ġduring":736,"orth":737,"Ġund":738,"Ġ9":739,"ubl":740,"hip":741,"Ġagain":742,"ĠAs":743,"Ġmost":744,"Ġgame":745,"oth":746,"Ġthem":747,"Ġ199":748,"Ġonly":749,"Ġpr":750,"ween":751,"ath":752,"ix":753,"Ġear":754,"ollow":755,"Ġthan":756,"ob":757,"rop":758,"Ġsup":759,"ational":760,"ĠNew":761,"fore":762,"Ġabout":763,"Ġprodu":764,"ug":765,"Ġcent":766,"tern":767,"Ġkn":768,"Ġret":769,"ey":770,"Ġchar":771,"Ġsong":772,"Ġcan":773,"outh":774,"Ġbetween":775,"Ġlater":776,"orn":777,"Ġrele":778,"Ġunder":779,"ict":780,"Ġthree":781,"ton":782,"hn":783,"ron":784,"Ġcol":785,"Ġact":786,"Ġ00":787,"als":788,"Ġqu":789,"Ġthrough":790,"ĠEn":791,"orld":792,"ook":793,"Ġnum":794,"Ġso":795,"Ġme":796,"Ġacc":797,"Ġrel":798,"Ġwhile":799,"Ġra":800,"Ġend":801,"meric":802,"ĠAmeric":803,"lect":804,"Ġfl":805,"ĠLe":806,"ters":807,"ock":808,"ral":809,"Ġpos":810,"Ġsub":811,"ever":812,"Ġass":813,"ular":814,"ating":815,"Ġwhere":816,"Ġver":817,"Ġday":818,"ck":819,"Ġreg":820,"Ġsecond":821,"ĠCom":822,"aid":823,"ener":824,"Ġbu":825,"ision":826,"Ġmade":827,"ames":828,"ived":829,"ĠRe":830,"Ġpe":831,"hes":832,"Ġrecord":833,"son":834,"Ġdef":835,"bum":836,"Ġfour":837,"Ġgro":838,"Ġfollow":839,"Ġseason":840,"Ġ000":841,"Ġep":842,"Ġform":843,"Ġsome":844,"Ġsuch":845,"Ġam":846,"ool":847,"ished":848,"Ġmov":849,"Ġbefore":850,"Ġtra":851,"ĠSp":852,"Ġmus":853,"Ġthere":854,"Ġwrit":855,"hen":856,"ics":857,"io":858,"ĠJo":859,"Ġspec":860,"iel":861,"Ġ10":862,"ike":863,"Ġsy":864,"Ġyears":865,"Ġteam":866,"ĠAt":867,"ode":868,"ual":869,"ĠThis":870,"Ġ/":871,"ident":872,"Ġlar":873,"ĠSh":874,"Ġalbum":875,"Ġind":876,"ros":877,"ily":878,"owever":879,"Ġent":880,"ning":881,"Ġused":882,"ank":883,"Ġcall":884,"Ġsur":885,"ific":886,"Ġac":887,"Ġhigh":888,"ury":889,"Ġpubl":890,"Ġbeing":891,"Ġepis":892,"ained":893,"Ġthen":894,"led":895,"ten":896,"aj":897,"velop":898,"Ġloc":899,"Ġdo":900,"Ġexp":901,"ife":902,"ris":903,"Ġagainst":904,"Ġ17":905,"Ġinv":906,"Ġ0":907,"Ġbl":908,"Ġpres":909,"Ġnumber":910,"other":911,"ĠAfter":912,"Ġshow":913,"Ġcharac":914,"ious":915,"Ġsever":916,"Ġadd":917,"Ġco":918,"ek":919,"Ġset":920,"ince":921,"ject":922,"ĠBrit":923,"ars":924,"Ġbecame":925,"Ġrece":926,"ause":927,"Ġperform":928,"Ġlead":929,"Ġincluding":930,"ines":931,"Ġno":932,"ĠâĢĶ":933,"Ġsing":934,"ather":935,"ins":936,"rans":937,"ĠUnited":938,"Ġfound":939,"air":940,"Ġwell":941,"Ġmon":942,"Ġrep":943,"ĠSc":944,"ale":945,"Ġpol":946,"Ġback":947,"Ġboth":948,"Ġcap":949,"ier":950,"Ġ198":951,"Ġ15":952,"Ġseries":953,"Ġ12":954,"ober":955,"ram":956,"ik":957,"Ġship":958,"ĠCon":959,"ower":960,"ement":961,"its":962,"ert":963,"ures":964,"ired":965,"ley":966,"ĠWh":967,"ĠShe":968,"ivers":969,"Ġmain":970,"Ġ194":971,"pen":972,"Ġmin":973,"iet":974,"der":975,"overn":976,"Ġdid":977,"ven":978,"olog":979,"Ġgo":980,"elf":981,"Ġcre":982,"Ġimp":983,"Ġdevelop":984,"az":985,"Ġmet":986,"ities":987,"iver":988,"ĠEng":989,"Ġlong":990,"any":991,"ll":992,"ised":993,"erm":994,"ting":995,"uch":996,"ared":997,"Ġem":998,"ann":999,"ane":1000,"Ġmill":1001,"ird":1002,"ful":1003,"ĠJohn":1004,"Ġmat":1005,"Ġair":1006,"Ġepisode":1007,"tend":1008,"irect":1009,"Ġsaid":1010,"Ġstud":1011,"Ġmany":1012,"ute":1013,"Ġbro":1014,"Ġdep":1015,"Ġcar":1016,"ative":1017,"ash":1018,"Ġcould":1019,"Ġ16":1020,"Ġwar":1021,"Ġorig":1022,"Ġcontin":1023,"ĠCl":1024,"Ġseveral":1025,"ĠAmerican":1026,"though":1027,"ĠInd":1028,"Ġdif":1029,"ield":1030,"ah":1031,"Ġpop":1032,"Ġinst":1033,"ouse":1034,"ise":1035,"emb":1036,"Ġknown":1037,"Ġ197":1038,"ĠAust":1039,"ty":1040,"ually":1041,"Ġ196":1042,"Ġ11":1043,"Ġconc":1044,"til":1045,"iam":1046,"ĠWar":1047,"view":1048,"erson":1049,"Ġob":1050,"ĠGer":1051,"ued":1052,"Ġsm":1053,"Ġreturn":1054,"Ġbegan":1055,"ĠZ":1056,"Ġany":1057,"Ġcomple":1058,"Ġdesign":1059,"ern":1060,"ĠDe":1061,"Ġdesc":1062,"Ġsign":1063,"ross":1064,"ople":1065,"chool":1066,"my":1067,"Ġest":1068,"ism":1069,"oot":1070,"Ġtrans":1071,"ccess":1072,"Ġprov":1073,"aking":1074,"Ġfeat":1075,"ĠBl":1076,"ided":1077,"Ġinf":1078,"anc":1079,"Ġrun":1080,"Ġearly":1081,"Ġart":1082,"ized":1083,"Ġdist":1084,"Ġnear":1085,"Ġmusic":1086,"Ġown":1087,"Ġreleased":1088,"Ġuntil":1089,"Ġcalled":1090,"ĠCol":1091,"Ġeff":1092,"ĠUS":1093,"imes":1094,"ists":1095,"rid":1096,"une":1097,"Ġresp":1098,"Ġbel":1099,"enn":1100,"Ġpass":1101,"ured":1102,"stem":1103,"Ġfin":1104,"ĠMay":1105,"ially":1106,"Ġdown":1107,"Ġph":1108,"ution":1109,"Ġdisc":1110,"ments":1111,"Ġcrit":1112,"xt":1113,"osed":1114,"Ġdirect":1115,"Ġgener":1116,"Ġalong":1117,"Ġins":1118,"ium":1119,"Ġmillion":1120,"ĠBritish":1121,"ger":1122,"ull":1123,"ax":1124,"ĠGerman":1125,"Ġgroup":1126,"Ġoffic":1127,"vent":1128,"Ġ13":1129,"Ġfam":1130,"eb":1131,"Ġthese":1132,"ajor":1133,"Ġmod":1134,"Ġmay":1135,"Ġ$":1136,"cept":1137,"Ġopen":1138,"ĠAd":1139,"Ġmil":1140,"ange":1141,"ĠBe":1142,"Ġpoin":1143,"uc":1144,"Ġland":1145,"gg":1146,"Ġhist":1147,"ĠAug":1148,"Ġgovern":1149,"Ġsim":1150,"ĠSept":1151,"Ã©":1152,"Ġsuccess":1153,"ĠSeptember":1154,"ĠAugust":1155,"ets":1156,"Ġoper":1157,"ĠWorld":1158,"erv":1159,"Ġattack":1160,"Ġgu":1161,"ible":1162,"ĠAp":1163,"ĠStates":1164,"ink":1165,"Ġcount":1166,"Ġuse":1167,"Ġsame":1168,"wards":1169,"ys":1170,"Ġdescrib":1171,"Ġpeople":1172,"aced":1173,"ĠFor":1174,"ĠIs":1175,"amed":1176,"yp":1177,"Ġcharacter":1178,"ĠAll":1179,"Ġbecause":1180,"els":1181,"Ġ14":1182,"Ġvi":1183,"Ġlike":1184,"Ġserv":1185,"ĠJu":1186,"ĠFran":1187,"Ġaround":1188,"ged":1189,"Ġstart":1190,"Ġthough":1191,"Ġed":1192,"Ġkm":1193,"ĠPl":1194,"Ġ195":1195,"ĠQ":1196,"ner":1197,"Ġwin":1198,"ĠAustral":1199,"Ġconst":1200,"ues":1201,"ring":1202,"Ġtook":1203,"ruct":1204,"Ġocc":1205,"Ġbatt":1206,"aving":1207,"ĠOct":1208,"Ġann":1209,"Ġsupport":1210,"ĠNov":1211,"ove":1212,"Ġnorth":1213,"Ġfollowing":1214,"Ġsix":1215,"Ġele":1216,"ĠCar":1217,"Ġ193":1218,"ĠHowever":1219,"Ġsystem":1220,"uss":1221,"Ġappear":1222,"Ġfinal":1223,"Ġclass":1224,"Ġreceived":1225,"Ġhead":1226,"ined":1227,"ĠOctober":1228,"ives":1229,"Ġprom":1230,"Ġconsid":1231,"ene":1232,"ants":1233,"rad":1234,"ling":1235,"ility":1236,"ically":1237,"ĠDec":1238,"ĠPro":1239,"Ġ191":1240,"Ġstate":1241,"Ġever":1242,"Ġbuild":1243,"Ġeach":1244,"ret":1245,"anu":1246,"Ġext":1247,"Ġfive":1248,"rist":1249,"Ġaut":1250,"rol":1251,"Ġcentury":1252,"ĠYork":1253,"ina":1254,"Ġbo":1255,"Ġarea":1256,"Ġvar":1257,"ĠThey":1258,"Ġsmall":1259,"ately":1260,"Ġwill":1261,"oss":1262,"ĠNorth":1263,"Ġpartic":1264,"get":1265,"Ġlife":1266,"iving":1267,"Ġreport":1268,"ril":1269,"ĠMe":1270,"Ġ]":1271,"Ġ[":1272,"tle":1273,"ored":1274,"ians":1275,"ĠJune":1276,"ĠBy":1277,"Ġcity":1278,"ording":1279,"ped":1280,"gin":1281,"Ġmar":1282,"Ġmajor":1283,"Ġpublic":1284,"Ġweek":1285,"ĠKing":1286,"ission":1287,"ĠJuly":1288,"Ġ%":1289,"Ġconf":1290,"ection":1291,"Ġband":1292,"ĠHar":1293,"Ġref":1294,"med":1295,"ĠNovember":1296,"urch":1297,"inc":1298,"ĠComm":1299,"Ġrest":1300,"ĠPh":1301,"ĠWill":1302,"Ġsince":1303,"Ġworld":1304,"Ġmed":1305,"esp":1306,"raft":1307,"Ġsingle":1308,"raph":1309,"por":1310,"ĠApril":1311,"ble":1312,"ains":1313,"ĠMc":1314,"ried":1315,"Ġdet":1316,"omet":1317,"lish":1318,"ĠMarch":1319,"Ġjust":1320,"ected":1321,"Ġlast":1322,"ĠEd":1323,"ural":1324,"ional":1325,"hest":1326,"aim":1327,"cl":1328,"Ġturn":1329,"ively":1330,"Ġpo":1331,"ilt":1332,"Ġhel":1333,"ient":1334,"Ġallow":1335,"Ġ30":1336,"ĠCan":1337,"vious":1338,"ĠGe":1339,"Ġleft":1340,"Ġlarge":1341,"ats":1342,"Ġline":1343,"ĠSouth":1344,"Ġdiffer":1345,"ales":1346,"Ġcare":1347,"Ġsouth":1348,"Ġadv":1349,"ified":1350,"ĠDuring":1351,"Ġstr":1352,"Ġdr":1353,"empt":1354,"Ġbook":1355,"Ġvers":1356,"Ġsl":1357,"Ġschool":1358,"avy":1359,"ĠDecember":1360,"Ġthird":1361,"ague":1362,"Ġincre":1363,"Ġ25":1364,"Ġmonth":1365,"Ġdue":1366,"Ġappro":1367,"Ġplayed":1368,"..":1369,"Ġmuch":1370,"Ġevent":1371,"row":1372,"Ġif":1373,"Ġanother":1374,"ĠJanu":1375,"rote":1376,"ĠJanuary":1377,"ĠPr":1378,"Ġincluded":1379,"Ġ192":1380,"Ġwhat":1381,"Ġplace":1382,"Ġbased":1383,"ne":1384,"Ġshort":1385,"ĠII":1386,"Ġgovernment":1387,"ony":1388,"ball":1389,"apan":1390,"Ġexpl":1391,"Ġperson":1392,"Ġwrote":1393,"Ġtrack":1394,"ĠWhen":1395,"Ġcamp":1396,"Ġtit":1397,"Ġold":1398,"alf":1399,"Ġport":1400,"Ġbre":1401,"ĠEu":1402,"Ġdeath":1403,"Ġname":1404,"ently":1405,"ĠJapan":1406,"Ġelect":1407,"ple":1408,"rent":1409,"Ġ...":1410,"Ġeng":1411,"Ġwon":1412,"by":1413,"ience":1414,"ĠOr":1415,"Ġprot":1416,"Ġchild":1417,"Ġlit":1418,"oad":1419,"Ġkill":1420,"Ġprog":1421,"ideo":1422,"Ġpower":1423,"ages":1424,"Ġstory":1425,"ĠTe":1426,"ĠBro":1427,"Ġreview":1428,"ital":1429,"ody":1430,"Ġvis":1431,"Ġhome":1432,"ott":1433,"Ġled":1434,"ps":1435,"Ġgun":1436,"Ġrequ":1437,"Ġdescribed":1438,"Ġprevious":1439,"eng":1440,"oman":1441,"Ġfamily":1442,"yl":1443,"rand":1444,"tain":1445,"Ġway":1446,"Ġnamed":1447,"Ġnow":1448,"Ġright":1449,"ĠMus":1450,"Ġdem":1451,"urther":1452,"iod":1453,"iven":1454,"Ġmen":1455,"Ġeven":1456,"embers":1457,"ilar":1458,"ĠGu":1459,"Ġorgan":1460,"Ġmake":1461,"reen":1462,"ont":1463,"ister":1464,"cy":1465,"iversity":1466,"Ġattempt":1467,"omin":1468,"ivision":1469,"itions":1470,"Ġbest":1471,"Ġcour":1472,"Ġ100":1473,"Ġrepl":1474,"rench":1475,"ĠÂ":1476,"Ġopp":1477,"Ġleg":1478,"ior":1479,"Ġgames":1480,"ached":1481,"Ġcommand":1482,"Ġterm":1483,"Ġhand":1484,"ĠAnd":1485,"ival":1486,"ĠFl":1487,"mp":1488,"Ġposs":1489,"Ġdam":1490,"Ġbelie":1491,"Ġvery":1492,"ox":1493,"ĠHis":1494,"Ġthose":1495,"ĠFeb":1496,"ĠEurop":1497,"Ġpar":1498,"ĠFebru":1499,"ĠFebruary":1500,"sh":1501,"Ġiss":1502,"Ġstill":1503,"Ġnext":1504,"Ġtop":1505,"Ġspecies":1506,"ĠChrist":1507,"Ġeffect":1508,"ched":1509,"riend":1510,"Ġview":1511,"ĠThere":1512,"ĠNational":1513,"oci":1514,"aken":1515,"Ġoriginal":1516,"Ġspe":1517,"ĠWe":1518,"ences":1519,"ature":1520,"lu":1521,"Ġwater":1522,"ness":1523,"Ġjoin":1524,"Ġaddition":1525,"ĠEurope":1526,"au":1527,"Ġlist":1528,"ĠBar":1529,"Ġwithin":1530,"Ġperiod":1531,"eter":1532,"alk":1533,"Ġmembers":1534,"Ġbuilt":1535,"ĠFrench":1536,"Ġmark":1537,"Ġheld":1538,"Ġdeb":1539,"ĠAm":1540,"Ġexper":1541,"hor":1542,"Ġ2010":1543,"af":1544,"Ġalthough":1545,"Ġmatch":1546,"Ġlate":1547,"Ġformer":1548,"Ġrelease":1549,"ĠPar":1550,"rew":1551,"Ġgreat":1552,"ridge":1553,"augh":1554,"Ġdest":1555,"Ġsold":1556,"Ġcur":1557,"ney":1558,"uted":1559,"tended":1560,"Ġvideo":1561,"Ġ21":1562,"ards":1563,"Ġcaus":1564,"Ġstorm":1565,"ropical":1566,"ĠWest":1567,"line":1568,"ves":1569,"Ġcover":1570,"ech":1571,"Ġtri":1572,"Ġinit":1573,"Ġrole":1574,"ĠX":1575,"ĠWilliam":1576,"self":1577,"Ġcame":1578,"Ġestab":1579,"Ġdays":1580,"hel":1581,"ances":1582,"ĠHer":1583,"Ġresult":1584,"Ġmid":1585,"oon":1586,"Ġpresent":1587,"na":1588,"lev":1589,"aged":1590,"Ġcontrol":1591,"ulation":1592,"ption":1593,"Ġpolit":1594,"Ġstand":1595,"Ġreal":1596,"Ġhowever":1597,"itary":1598,"ham":1599,"ĠMan":1600,"ĠMin":1601,"aster":1602,"Ġ2008":1603,"Ġprop":1604,"let":1605,"Ġwind":1606,"ense":1607,"ides":1608,"Ġfew":1609,"atic":1610,"Ġ2009":1611,"Ġ24":1612,"Ġtown":1613,"ĠGeor":1614,"omb":1615,"Ġside":1616,"Ġyou":1617,"ograph":1618,"Ġtw":1619,"Ġsk":1620,"Ġcontinued":1621,"Ġpost":1622,"Ġequ":1623,"Ġoften":1624,"ays":1625,"ĠEar":1626,"Ġlocal":1627,"Ġ2011":1628,"elt":1629,"ĠChar":1630,"ator":1631,"ĠAir":1632,"Ġamong":1633,"ruction":1634,"Ġsimilar":1635,"ches":1636,"ĠMich":1637,"ead":1638,"ract":1639,"ĠNo":1640,"Ġhum":1641,"Ġav":1642,"Ġclaim":1643,"estern":1644,"ung":1645,"omen":1646,"ese":1647,"ĠEngland":1648,"reet":1649,"Ġ&":1650,"read":1651,"ops":1652,"akes":1653,"ler":1654,"ology":1655,"side":1656,"Ġdifferent":1657,"Ġdel":1658,"Ġbeh":1659,"Ġmy":1660,"ĠRec":1661,"par":1662,"Ġfurther":1663,"Ġ22":1664,"Ġsent":1665,"Ġtyp":1666,"esc":1667,"ots":1668,"ested":1669,"urs":1670,"Ġlevel":1671,"Ġfre":1672,"ĠDav":1673,"ery":1674,"Ġconsidered":1675,"Ġtake":1676,"Ġlaw":1677,"tal":1678,"ĠEl":1679,"Ġ2007":1680,"Ġcareer":1681,"gy":1682,"ĠOne":1683,"Ġproduction":1684,"me":1685,"Ġhalf":1686,"arm":1687,"ĠPark":1688,"ĠCo":1689,"ices":1690,"ampions":1691,"ĠCity":1692,"Ġhaving":1693,"Ġant":1694,"bo":1695,"ĠAcc":1696,"ĠEnglish":1697,"Ġeast":1698,"Ġroad":1699,"Ġmag":1700,"Ġmoved":1701,"Ġdra":1702,"Ġwest":1703,"ering":1704,"Ġevery":1705,"Ġwithout":1706,"ĠAlthough":1707,"Ġcr":1708,"rodu":1709,"ĠCent":1710,"Ġposition":1711,"Ġ2012":1712,"Ġappe":1713,"Ġplan":1714,"Ġtro":1715,"ining":1716,"Ġplayer":1717,"ront":1718,"Ġarr":1719,"ĠAng":1720,"Ġhistory":1721,"Ġcor":1722,"Ġbecome":1723,"ones":1724,"vers":1725,"ĠCal":1726,"Ġversion":1727,"Ġarm":1728,"ĠCount":1729,"ford":1730,"ondon":1731,"Ġcast":1732,"Ġel":1733,"Ġinflu":1734,"Ġ23":1735,"ize":1736,"ĠLondon":1737,"ĠBatt":1738,"yle":1739,"Ġhouse":1740,"rig":1741,"Ġfore":1742,"Ġcommun":1743,"Ġsound":1744,"resent":1745,"irc":1746,"app":1747,"roy":1748,"aul":1749,"atter":1750,"Ġinvol":1751,"Ġstrong":1752,"Ġgr":1753,"Ġsugg":1754,"ai":1755,"Ġclub":1756,"Ġwritten":1757,"Ġ190":1758,"aining":1759,"Ġbas":1760,"ĠWith":1761,"Ġstat":1762,"rest":1763,"oung":1764,"Ġless":1765,"Ġannoun":1766,"ĠRiver":1767,"utes":1768,"Ġfoot":1769,"iqu":1770,"Ġorder":1771,"ald":1772,"iment":1773,"Ġrefer":1774,"iety":1775,"Ġtem":1776,"ges":1777,"craft":1778,"ae":1779,"Ġprof":1780,"ĠCanad":1781,"sequ":1782,"Ġaff":1783,"Ġpoint":1784,"Ġgiven":1785,"Ġrad":1786,"Ġlow":1787,"ĠGener":1788,"Ġtrad":1789,"Ġhig":1790,"ĠUniversity":1791,"Ġwant":1792,"ille":1793,"Ġgave":1794,"Ġke":1795,"Ġpat":1796,"isc":1797,"uck":1798,"Ġdefe":1799,"Ġimport":1800,"Ġnever":1801,"aff":1802,"ĠWhile":1803,"ĠPol":1804,"Ġchang":1805,"Ġreturned":1806,"ories":1807,"ration":1808,"Ġsoc":1809,"Ġtotal":1810,"Ġvict":1811,"ĠAb":1812,"ĠHigh":1813,"Ġfact":1814,"Ġfire":1815,"Ġgood":1816,"ention":1817,"Ġcomb":1818,"ĠTr":1819,"Ġcompany":1820,"Ġcountry":1821,"Ġwent":1822,"ailed":1823,"ison":1824,"sp":1825,"cess":1826,"ours":1827,"Ġfriend":1828,"Ġcapt":1829,"rick":1830,"ĠEx":1831,"aun":1832,"Ġpublished":1833,"Ġproduced":1834,"aying":1835,"Ġfind":1836,"levision":1837,"Ġreported":1838,"con":1839,"Ġorigin":1840,"Ġ2006":1841,"ĠSm":1842,"Ġlost":1843,"aign":1844,"Ġstated":1845,"Ġcommon":1846,"Ġprogram":1847,"Ġlight":1848,"ington":1849,"Ġord":1850,"yn":1851,"Ġparticular":1852,"ape":1853,"echn":1854,"Ġadm":1855,"Ġinclude":1856,"ests":1857,"ĠAccording":1858,"Ġlarg":1859,"ably":1860,"Ġer":1861,"urric":1862,"ĠSte":1863,"used":1864,"Ġcompet":1865,"Ġforces":1866,"Ġrecorded":1867,"ief":1868,"Ġbuilding":1869,"Ġpress":1870,"Ġneed":1871,"Ġbus":1872,"Ġproject":1873,"Ġnort":1874,"ĠNe":1875,"hing":1876,"ument":1877,"Ġships":1878,"Ġ27":1879,"Ġshould":1880,"Ġusing":1881,"Ġeight":1882,"Ġ50":1883,"osp":1884,"Ġ28":1885,"Ġperformance":1886,"iness":1887,"ploy":1888,"Ġservice":1889,"ĠThese":1890,"bs":1891,"ĠSw":1892,"Ġpopular":1893,"Ġide":1894,"Ġtimes":1895,"Ġmaking":1896,"Ġten":1897,"Ġaircraft":1898,"oyal":1899,"Ġmilitary":1900,"ĠAustralia":1901,"Ġhimself":1902,"Ġ2013":1903,"atch":1904,"Ġauthor":1905,"Ġfun":1906,"Ġfather":1907,"Ġbattle":1908,"ampionship":1909,"ĠSec":1910,"lear":1911,"ned":1912,"Ġanim":1913,"ĠJack":1914,"Ġsit":1915,"Ġlim":1916,"ĠAss":1917,"ĠAf":1918,"Ġsongs":1919,"Ġsomet":1920,"outher":1921,"Ġread":1922,"ensive":1923,"ither":1924,"Ġcritic":1925,"ords":1926,"Ġdevelopment":1927,"ĠGeneral":1928,"Ġsw":1929,"Ġ40":1930,"Ġhow":1931,"alth":1932,"Ġgl":1933,"quad":1934,"eder":1935,"eth":1936,"itive":1937,"ĠState":1938,"Ġ26":1939,"Ġsol":1940,"ases":1941,"ĠCor":1942,"oll":1943,"Ġcross":1944,"outhern":1945,"amb":1946,"ĠJames":1947,"cer":1948,"Ġ189":1949,"Ġground":1950,"Ġrepresent":1951,"ĠSy":1952,"Ġdestroy":1953,"Ġft":1954,"acy":1955,"Ġstar":1956,"Ġste":1957,"Ġremained":1958,"astern":1959,"ĠArmy":1960,"ks":1961,"rie":1962,"Ġnational":1963,"Ġcharacters":1964,"Ġget":1965,"ries":1966,"ĠPres":1967,"Ġsuff":1968,"work":1969,"Ġmonths":1970,"ĠBo":1971,"ĠComp":1972,"aur":1973,"Ġgen":1974,"Ġdied":1975,"Ġter":1976,"ublic":1977,"ĠGl":1978,"Ġdeveloped":1979,"Ġtitle":1980,"dom":1981,"Ġsum":1982,"Ġforce":1983,"ream":1984,"fic":1985,"Ġchart":1986,"Ġcampaign":1987,"urricane":1988,"ĠLeague":1989,"Ġchildren":1990,"lands":1991,"Ġintrodu":1992,"ency":1993,"Ġpra":1994,"Ġtour":1995,"Ġpromot":1996,"itted":1997,"isted":1998,"Ġsignific":1999,"Ġacross":2000,"ael":2001,"ression":2002,"Ġson":2003,"Ġred":2004,"hern":2005,"Ġaway":2006,"ĠDivision":2007,"Ġobs":2008,"Ġrelations":2009,"Ġhistor":2010,"Ġofficial":2011,"Ġfield":2012,"Ġfav":2013,"Ġfelt":2014,"ole":2015,"ĠAmerica":2016,"lege":2017,"Ġnight":2018,"Ġfac":2019,"Ġnoted":2020,"ĠSim":2021,"alt":2022,"Ġreached":2023,"ĠRuss":2024,"most":2025,"Ġannounced":2026,"ĠSup":2027,"Ġintern":2028,"ĠJapanese":2029,"ĠCounty":2030,"Ġareas":2031,"Ġcreated":2032,"ĠRep":2033,"com":2034,"Ġcoun":2035,"ĠMon":2036,"ĠRoad":2037,"Ġtelevision":2038,"Ġ2005":2039,"ressed":2040,"Ġsuccessful":2041,"Ġstation":2042,"ĠMad":2043,"hem":2044,"Ġrock":2045,"ĠReg":2046,"imately":2047,"Ġbar":2048,"Ġval":2049,"ĠStreet":2050,"ising":2051,"ĠGr":2052,"Ġvarious":2053,"ĠâĢĻ":2054,"Ġ29":2055,"Ġpolitical":2056,"Ġseen":2057,"Ġfollowed":2058,"field":2059,"Ġaver":2060,"Ġtoo":2061,"iber":2062,"ization":2063,"iting":2064,"Ġrank":2065,"ĠEast":2066,"cast":2067,"Ġserved":2068,"ett":2069,"Ġperformed":2070,"ope":2071,"ĠRober":2072,"Ġcult":2073,"reg":2074,"Ġplayers":2075,"Ġ2014":2076,"Ġcond":2077,"Ġprim":2078,"Ġrev":2079,"Ġfull":2080,"ination":2081,"Ġdecl":2082,"ĠGeorge":2083,"ality":2084,"Ġbegin":2085,"Ġfle":2086,"Ġblack":2087,"duct":2088,"Ġconv":2089,"elling":2090,"Ġput":2091,"Ġcirc":2092,"ĠSer":2093,"ĠPer":2094,"Ġearl":2095,"ĠPhil":2096,"ĠTo":2097,"olution":2098,"Ġcost":2099,"abor":2100,"ĠHen":2101,"Ġsee":2102,"Ġdiv":2103,"idence":2104,"Ġprocess":2105,"Ġnon":2106,"Ġstyle":2107,"ying":2108,"Ġlook":2109,"Ġkilled":2110,"Ġcy":2111,"Ġvol":2112,"Ġseven":2113,"Ġaud":2114,"ĠEm":2115,"rict":2116,"Ġtropical":2117,"Ġhelp":2118,"lished":2119,"Ġlet":2120,"play":2121,"Ġthroughout":2122,"Ġtaken":2123,"ĠBill":2124,"Ġfight":2125,"Ġable":2126,"ana":2127,"Ġdiscover":2128,"Ġagre":2129,"ecut":2130,"urg":2131,"Ġwid":2132,"Ġlittle":2133,"Ġsignificant":2134,"ertain":2135,"Ġbecom":2136,"Ġage":2137,"Ġhit":2138,"ĠSch":2139,"Ġfem":2140,"Ġident":2141,"Ġmeet":2142,"ways":2143,"ĠThom":2144,"ĠAustralian":2145,"Ġtechn":2146,"Ġspecial":2147,"irl":2148,"Ġstruct":2149,"oice":2150,"Ġfront":2151,"Ġwriting":2152,"Ġcop":2153,"Ġthought":2154,"Ġmm":2155,"Ġbroad":2156,"Ġestablished":2157,"enced":2158,"aval":2159,"ĠAct":2160,"ĠDavid":2161,"ius":2162,"ĠPart":2163,"Ġappeared":2164,"ĠMor":2165,"Ġentire":2166,"Ġcoll":2167,"Ġdoes":2168,"epend":2169,"Ġmiles":2170,"cil":2171,"Ġyoung":2172,"Ġ!":2173,"Ġcoast":2174,"ĠRich":2175,"Ġpoints":2176,"Ġbody":2177,"Ġaward":2178,"less":2179,"Ġroute":2180,"odes":2181,"Ġimpro":2182,"ought":2183,"Ġmember":2184,"ript":2185,"ground":2186,"ĠMed":2187,"ivil":2188,"Ġrange":2189,"Ġactiv":2190,"ask":2191,"iron":2192,"ster":2193,"Ġwomen":2194,"iers":2195,"ĠPe":2196,"Ġstarted":2197,"Ġcaused":2198,"ĠYou":2199,"Ġdecided":2200,"int":2201,"blem":2202,"lected":2203,"ĠAfric":2204,"Ġfeatures":2205,"Ġpain":2206,"day":2207,"Ġgeneral":2208,"ĠQu":2209,"ators":2210,"Ġeventually":2211,"iec":2212,"men":2213,"umb":2214,"oph":2215,"conom":2216,"ĠRoyal":2217,"Ġarch":2218,"ogn":2219,"uk":2220,"Ġrace":2221,"den":2222,"Ġvot":2223,"itar":2224,"here":2225,"Ġfeet":2226,"Ġgrow":2227,"Ġmanag":2228,"pped":2229,"ĠHist":2230,"ush":2231,"bert":2232,"Ġadded":2233,"rison":2234,"Ġtre":2235,"Ġhold":2236,"Ġcut":2237,"Ġtoget":2238,"Ġtogether":2239,"Ġ188":2240,"ĠHouse":2241,"Ġformed":2242,"ivid":2243,"Ġlocated":2244,"Ġonce":2245,"Ġwhite":2246,"Ġstri":2247,"reek":2248,"ament":2249,"ample":2250,"Ġnov":2251,"Ġarg":2252,"Ġmodern":2253,"urb":2254,"Ġconn":2255,"Ġenc":2256,"off":2257,"ĠBlack":2258,"dle":2259,"ĠPort":2260,"Ġinstead":2261,"head":2262,"Ġround":2263,"rought":2264,"Ġ31":2265,"aces":2266,"Ġesc":2267,"ara":2268,"emy":2269,"Ġball":2270,"ĠIntern":2271,"Ġmix":2272,"Ġimportant":2273,"Ġcrew":2274,"cing":2275,"Ġpri":2276,"Ġsaw":2277,"ee":2278,"Ġaction":2279,"Ġcompleted":2280,"ĠItal":2281,"Ġredu":2282,"ĠIndian":2283,"ids":2284,"ects":2285,"Ġplaying":2286,"rated":2287,"ĠOther":2288,"cent":2289,"oney":2290,"ells":2291,"Ġ2004":2292,"Ġbase":2293,"Ġpopulation":2294,"ata":2295,"Ġsurv":2296,"Ġinsp":2297,"Ġmater":2298,"Ġmot":2299,"ĠMy":2300,"Ġstage":2301,"ĠMichael":2302,"Ġvoc":2303,"Ġguns":2304,"Ġrather":2305,"Ġask":2306,"Ġoccur":2307,"Ġbehind":2308,"Ġopened":2309,"Ġothers":2310,"Ġ186":2311,"Ġfall":2312,"Ġren":2313,"ray":2314,"asing":2315,"ceed":2316,"Ġbrother":2317,"wood":2318,"igned":2319,"ements":2320,"Ġcomment":2321,"Ġlik":2322,"lin":2323,"stit":2324,"Ġborn":2325,"Ġsite":2326,"Ġ2015":2327,"Ġfif":2328,"Ġworks":2329,"Ġloss":2330,"Ġbomb":2331,"Ġlive":2332,"Ġheavy":2333,"ĠFrance":2334,"Ġworked":2335,"ficult":2336,"Ġmiss":2337,"Ã¡":2338,"Ġpred":2339,"Ġsubsequ":2340,"medi":2341,"Ġlack":2342,"ĠSchool":2343,"rap":2344,"nder":2345,"Ġclose":2346,"Ġproblem":2347,"Ġparty":2348,"Ġdifficult":2349,"lection":2350,"Ġconstruction":2351,"ĠSome":2352,"ĠWash":2353,"ĠSan":2354,"Ġknow":2355,"ĠNor":2356,"Ġhost":2357,"arch":2358,"Ġweeks":2359,"istic":2360,"Ġrelationship":2361,"Ġoriginally":2362,"Ġsepar":2363,"Ġassoci":2364,"Ġreb":2365,"co":2366,"Ġupon":2367,"Ġpract":2368,"Ġappoin":2369,"Ġleading":2370,"Ġpeak":2371,"Ġvill":2372,"Ġaccom":2373,"ĠHenry":2374,"Ġalmost":2375,"Ġdamage":2376,"orts":2377,"Ġmer":2378,"Ġinj":2379,"lic":2380,"ĠRobert":2381,"ĠAle":2382,"unk":2383,"Ġfourth":2384,"Ġ2000":2385,"osition":2386,"Ġscored":2387,"ĠBattle":2388,"Ġinform":2389,"aps":2390,"Ġreve":2391,"ĠStar":2392,"Ġprovided":2393,"Ġcase":2394,"ĠMusic":2395,"Ġmi":2396,"ĠBest":2397,"ming":2398,"Ġclos":2399,"board":2400,"Ġengine":2401,"Ġinvest":2402,"Ġgoal":2403,"Ġaccept":2404,"ĠVir":2405,"Ġcreat":2406,"ica":2407,"Ġscene":2408,"ĠRed":2409,"oring":2410,"ĠDesp":2411,"Ġhuman":2412,"ellow":2413,"ino":2414,"ĠRou":2415,"ule":2416,"ological":2417,"angu":2418,"Ġbrought":2419,"Ġ500":2420,"aut":2421,"Ġfree":2422,"Ġindivid":2423,"Ġ187":2424,"ĠPaul":2425,"Ġfeatured":2426,"ula":2427,"Ġleast":2428,"Ġking":2429,"Ġmother":2430,"Ġlaun":2431,"Ġallowed":2432,"Ġworking":2433,"ĠPresident":2434,"ama":2435,"Ġresul":2436,"ĠMil":2437,"Ġtowards":2438,"ĠCap":2439,"Ġaverage":2440,"Ġregion":2441,"Ġwanted":2442,"Ġmult":2443,"Ġtroops":2444,"Ġindust":2445,"Ġtradition":2446,"Ġbusiness":2447,"aves":2448,"ĠAg":2449,"ĠHol":2450,"ĠWashington":2451,"iding":2452,"Ġplaced":2453,"azine":2454,"ĠQue":2455,"Ġquick":2456,"Ġve":2457,"Ġce":2458,"Ġeither":2459,"ving":2460,"Ġrespect":2461,"Ġcritics":2462,"ĠBel":2463,"Ġoffice":2464,"Ġhon":2465,"Ġavail":2466,"ky":2467,"Ġreach":2468,"Ġruns":2469,"Ġexample":2470,"antic":2471,"Ġprofess":2472,"Ġmaterial":2473,"Ġrecogn":2474,"Ġeconom":2475,"ĠÃ":2476,"Ġfar":2477,"go":2478,"ened":2479,"Ġwife":2480,"Ġestim":2481,"to":2482,"Ġarmy":2483,"Ġneg":2484,"ze":2485,"earch":2486,"chie":2487,"ential":2488,"Ġfoc":2489,"ĠDespite":2490,"right":2491,"Ġ2003":2492,"ĠFollow":2493,"Ġsex":2494,"ĠCour":2495,"quadron":2496,"Ġinterest":2497,"Ġsour":2498,"ength":2499,"Ġjoined":2500,"Ġmass":2501,"Ġrail":2502,"Ġdou":2503,"Ġgenerally":2504,"ĠAngel":2505,"ĠHill":2506,"enes":2507,"ĠHam":2508,"Ġproper":2509,"Ġcurrent":2510,"uff":2511,"Ġdev":2512,"ĠHall":2513,"ourn":2514,"Ġevents":2515,"Ġbelieved":2516,"ĠGame":2517,"Ġparticip":2518,"ĠCup":2519,"Ġ35":2520,"of":2521,"itch":2522,"Ġfig":2523,"ĠFollowing":2524,"ĠKe":2525,"ville":2526,"ĠFirst":2527,"be":2528,"rey":2529,"Ġbill":2530,"ĠMary":2531,"Ġreplaced":2532,"ĠDr":2533,"Ġz":2534,"Ġmph":2535,"ĠGreat":2536,"Ġrul":2537,"Ġvictory":2538,"artment":2539,"Ġdesigned":2540,"ĠLou":2541,"Ġgrad":2542,"Ġisland":2543,"ĠJe":2544,"iction":2545,"sc":2546,"Ġsoon":2547,"Ġnomin":2548,"xic":2549,"itte":2550,"ĠLa":2551,"ĠGro":2552,"oor":2553,"ĠMal":2554,"Ġfund":2555,"Ġhours":2556,"erous":2557,"ĠTwo":2558,"Ġemploy":2559,"ification":2560,"Ġinvolved":2561,"ĠEuropean":2562,"Ġpresident":2563,"Ġroom":2564,"uel":2565,"aled":2566,"ĠChampionship":2567,"Ġsurf":2568,"Ġstru":2569,"aper":2570,"val":2571,"Ġfinished":2572,"inf":2573,"merc":2574,"asion":2575,"west":2576,"inist":2577,"iff":2578,"emor":2579,"ĠMart":2580,"Ġbreak":2581,"inn":2582,"ĠRoman":2583,"ĠPlay":2584,"Ġhor":2585,"Ġshot":2586,"Ġcourt":2587,"rain":2588,"Ġsaying":2589,"aren":2590,"Ġthreat":2591,"arn":2592,"Ġopening":2593,"ĠDan":2594,"Ġscore":2595,"ĠBer":2596,"Ġregular":2597,"ĠRoute":2598,"Ġdesp":2599,"ĠMet":2600,"Ġdirector":2601,"ades":2602,"Ġlength":2603,"BC":2604,"ĠDon":2605,"cher":2606,"leg":2607,"Ġindic":2608,"Ġhom":2609,"Ġlargest":2610,"ĠMac":2611,"ĠScott":2612,"Ġconduct":2613,"Ġill":2614,"oul":2615,"Ġhighway":2616,"Ġcontrib":2617,"antry":2618,"Ġpossible":2619,"Ġtravel":2620,"Ġsouthern":2621,"now":2622,"ecutive":2623,"Ġdro":2624,"ki":2625,"ude":2626,"ishing":2627,"Ġminutes":2628,"ipp":2629,"ĠCro":2630,"Ġremov":2631,"Ġhy":2632,"ĠVal":2633,"ĠFrom":2634,"Ġhighest":2635,"icle":2636,"Ġearlier":2637,"Ġtest":2638,"Ġ2001":2639,"Ġinitially":2640,"Ġly":2641,"Ġavailable":2642,"ago":2643,"ĠSing":2644,"anned":2645,"ĠAtl":2646,"Ġparticularly":2647,"Ġpercent":2648,"ander":2649,"Ġhard":2650,"Ġtraining":2651,"Ġsequ":2652,"ĠWil":2653,"ĠRepublic":2654,"Ġforced":2655,"ply":2656,"Ġexist":2657,"ĠMid":2658,"ĠNavy":2659,"Ġmust":2660,"hib":2661,"ĠCharles":2662,"ĠKingdom":2663,"ĠMag":2664,"ography":2665,"asy":2666,"ĠÂ°":2667,"rian":2668,"ĠMcC":2669,"Ġpark":2670,"ĠBut":2671,"Ġrespons":2672,"ĠOff":2673,"bor":2674,"ateg":2675,"Ġended":2676,"Ġwall":2677,"rac":2678,"Ġquar":2679,"Ġturned":2680,"Ġexc":2681,"ĠThomas":2682,"ĠInternational":2683,"ems":2684,"Ġstudio":2685,"uture":2686,"Ġsocial":2687,"ĠPal":2688,"ĠDep":2689,"rag":2690,"Ġchange":2691,"iforn":2692,"ĠChurch":2693,"ios":2694,"ĠRes":2695,"heast":2696,"Ġlangu":2697,"ĠWhite":2698,"Ġpraised":2699,"Ġpassed":2700,"Ġnorthern":2701,"Ġsuper":2702,"Ġpriv":2703,"Ġpiec":2704,"Ġincreased":2705,"atural":2706,"Ġobject":2707,"ĠVirgin":2708,"rup":2709,"Ġhurricane":2710,"Ġ2002":2711,"Ġregard":2712,"Ġeduc":2713,"ĠBrown":2714,"Ġcentral":2715,"Ġkeep":2716,"ights":2717,"Ġphys":2718,"itor":2719,"Ġunits":2720,"Ġrelig":2721,"Ġnovel":2722,"Ġappearance":2723,"Ġspeed":2724,"ĠCanada":2725,"sel":2726,"rem":2727,"ĠSl":2728,"Ġpast":2729,"ĠCaliforn":2730,"ĠMer":2731,"ership":2732,"ĠRock":2733,"ĠSen":2734,"Ġstop":2735,"key":2736,"ended":2737,"Ġimmedi":2738,"Ġcou":2739,"Ġchurch":2740,"ĠBay":2741,"Ġordered":2742,"ocr":2743,"Ġdisp":2744,"uter":2745,"Ġsym":2746,"ĠSmith":2747,"ston":2748,"ĠMo":2749,"Ġmeas":2750,"ique":2751,"aughter":2752,"Ġtreat":2753,"ference":2754,"Ġtaking":2755,"rying":2756,"ĠSam":2757,"ĠRichard":2758,"ittee":2759,"Ġmove":2760,"Ġindepend":2761,"Ġsigned":2762,"ĠAlex":2763,"Ġlove":2764,"ilities":2765,"Ġachie":2766,"ĠCalifornia":2767,"Ġbetter":2768,"etwork":2769,"Ġpers":2770,"ĠUnion":2771,"itz":2772,"ump":2773,"aker":2774,"Ġwinds":2775,"ĠGovern":2776,"Ġap":2777,"ecess":2778,"arily":2779,"ĠGod":2780,"Ġinn":2781,"nel":2782,"ĠIsland":2783,"Ġwat":2784,"Ġenough":2785,"Ġcommerc":2786,"Ġpositive":2787,"ĠCourt":2788,"ears":2789,"Ġhous":2790,"ume":2791,"Ġaccording":2792,"anks":2793,"elled":2794,"Ġspent":2795,"Ġabove":2796,"Ġslow":2797,"Ġgoing":2798,"Ġpot":2799,"Ġoutside":2800,"ĠVict":2801,"ĠBra":2802,"ĠTom":2803,"Ġfilms":2804,"ĠMill":2805,"ma":2806,"uation":2807,"apt":2808,"ĠAward":2809,"Ġtold":2810,"ĠUp":2811,"Ġfeel":2812,"berg":2813,"ĠCong":2814,"Ġfootball":2815,"Ġclear":2816,"Ġpreviously":2817,"quare":2818,"Ġstates":2819,"Ġ1990":2820,"ĠAc":2821,"Ġ60":2822,"Ġmean":2823,"anding":2824,"Ġnine":2825,"Ġquest":2826,"ĠCompany":2827,"Ġrecording":2828,"ĠAssoci":2829,"alion":2830,"Ġpur":2831,"Ġsubject":2832,"atin":2833,"het":2834,"usion":2835,"ĠArt":2836,"Ġfailed":2837,"reng":2838,"Ġassist":2839,"Ġey":2840,"Ġrequired":2841,"Ġcome":2842,"ows":2843,"osing":2844,"Ġ45":2845,"Ġprob":2846,"Ġelements":2847,"ĠGermany":2848,"van":2849,"ida":2850,"Ġcru":2851,"ĠStud":2852,"Ġlower":2853,"ĠMark":2854,"ĠIndia":2855,"Ġreviews":2856,"Ġinterview":2857,"edy":2858,"Ġparts":2859,"Ġphot":2860,"ĠGold":2861,"Ġitself":2862,"ĠPeter":2863,"ship":2864,"Ġnar":2865,"Ġthink":2866,"ĠChristian":2867,"nes":2868,"Ġsil":2869,"ranch":2870,"Ġdirected":2871,"ĠNY":2872,"Ġabs":2873,"isl":2874,"ibility":2875,"Ġdespite":2876,"Ġesp":2877,"Ġflow":2878,"Ġcred":2879,"Ġcontract":2880,"amer":2881,"Ġ185":2882,"oke":2883,"ĠThat":2884,"Ġdebut":2885,"ĠPat":2886,"ĠÂ£":2887,"Ġ?":2888,"ĠTimes":2889,"ready":2890,"erved":2891,"Ġaccess":2892,"Ġbeginning":2893,"leb":2894,"Ġgroups":2895,"onna":2896,"oid":2897,"ĠCollege":2898,"ĠCast":2899,"Ġsection":2900,"Ġbi":2901,"Ġviol":2902,"ability":2903,"ĠUK":2904,"hester":2905,"Ġwhose":2906,"ĠSov":2907,"ĠBr":2908,"asons":2909,"Ġclaimed":2910,"Ġlines":2911,"Ġtransfer":2912,"ĠWestern":2913,"Ġprevent":2914,"Ġinternational":2915,"Ġasked":2916,"Ġstreng":2917,"ĠDem":2918,"Ġscreen":2919,"mar":2920,"Ġche":2921,"airs":2922,"Ġgive":2923,"onse":2924,"rief":2925,"Ġbeg":2926,"Ġkey":2927,"ĠMexic":2928,"ĠSoviet":2929,"ĠDo":2930,"Ġunc":2931,"ĠSpan":2932,"Ġadditional":2933,"ĠFilm":2934,"Ġfuture":2935,"ĠFrank":2936,"Ġfort":2937,"Ġwhom":2938,"ĠGrand":2939,"Ġleague":2940,"Ġop":2941,"ĠBen":2942,"Ġpoor":2943,"Ġgold":2944,"ĠAwards":2945,"lying":2946,"Ġdon":2947,"onst":2948,"Ġintroduced":2949,"Ġprem":2950,"Ġsea":2951,"Ġevidence":2952,"ites":2953,"Ġquickly":2954,"Ġidea":2955,"ex":2956,"Ġcal":2957,"Ġcenter":2958,"Ġalready":2959,"Ġ32":2960,"ĠForce":2961,"Ġbridge":2962,"ĠSoc":2963,"atory":2964,"eck":2965,"Ġfrequ":2966,"usp":2967,"ĠMost":2968,"Ġemb":2969,"Ġoccup":2970,"Ġelection":2971,"Ġ1970":2972,"Ġproduct":2973,"Ġexcept":2974,"Ġcycl":2975,"eum":2976,"ĠCoun":2977,"back":2978,"eal":2979,"Ġpil":2980,"Ġdeal":2981,"Ġpen":2982,"Ġarrived":2983,"irth":2984,"Ġblock":2985,"ecially":2986,"Ġwestern":2987,"Ġ1980":2988,"Ġcivil":2989,"aring":2990,"ĠBritain":2991,"ĠRob":2992,"Ġusually":2993,"Ġradio":2994,"Ġmusical":2995,"unt":2996,"ĠOver":2997,"ully":2998,"ĠDay":2999,"liam":3000,"ergy":3001,"ĠIm":3002,"ĠPac":3003,"Ġsometimes":3004,"Ġfemale":3005,"Ġdecision":3006,"Ġresponse":3007,"Ġfood":3008,"Ġstudy":3009,"Ġmagazine":3010,"ĠLater":3011,"Ġmoney":3012,"ĠVictor":3013,"Ġespecially":3014,"ĠHot":3015,"Ġissue":3016,"ĠBur":3017,"asc":3018,"Ġlab":3019,"ĠTra":3020,"Ġflood":3021,"Ġ-":3022,"liament":3023,"Ġliter":3024,"Ġsurface":3025,"Ġenv":3026,"gen":3027,"Ġcarried":3028,"rack":3029,"Ġmight":3030,"Ġestimated":3031,"ĠRh":3032,"Ġguitar":3033,"Ġcommunity":3034,"ena":3035,"aint":3036,"Ġconstruct":3037,"ĠChic":3038,"iter":3039,"Ġshows":3040,"Ġremain":3041,"Ġdefeated":3042,"Ġarran":3043,"Ġeastern":3044,"igan":3045,"Ġ1999":3046,"Ġremaining":3047,"aries":3048,"Ġminor":3049,"ĠEarly":3050,"Ġdeterm":3051,"inent":3052,"ĠMount":3053,"Ġwood":3054,"ha":3055,"raw":3056,"Ġapprox":3057,"ession":3058,"Ġlarger":3059,"Ġrap":3060,"ulf":3061,"Ġbecoming":3062,"ĠVirginia":3063,"ĠInf":3064,"Ġcomplete":3065,"Ġpolice":3066,"Ġ36":3067,"rab":3068,"ror":3069,"porary":3070,"Ġshoot":3071,"Ġ80":3072,"Ġteams":3073,"Ġentered":3074,"Ġmedia":3075,"Ġsuggested":3076,"Ġpressure":3077,"rics":3078,"Ġlatter":3079,"NA":3080,"ĠLos":3081,"Ġcommercial":3082,"ĠJust":3083,"ands":3084,"erve":3085,"Ġanal":3086,"Ġinvestig":3087,"Ġsurround":3088,"Ġdoc":3089,"Ġlo":3090,"Ġconsider":3091,"Ġmarket":3092,"Ġbrief":3093,"Ġconcern":3094,"ises":3095,"ĠSecond":3096,"Ġstudents":3097,"Ġbur":3098,"Ġpersonal":3099,"inct":3100,"Ġprison":3101,"ederal":3102,"ĠIf":3103,"ĠTex":3104,"ĠFle":3105,"Ġacqu":3106,"Ġdiscuss":3107,"Ġcertain":3108,"Ġcomplet":3109,"alled":3110,"Ġappointed":3111,"Ġeffects":3112,"ĠJackson":3113,"Ġprior":3114,"Ġder":3115,"Ġsummer":3116,"Ġhop":3117,"Ġsat":3118,"change":3119,"ĠCont":3120,"incip":3121,"Ġepisodes":3122,"Ġtar":3123,"Ġriver":3124,"ĠFlor":3125,"Ġstaff":3126,"enth":3127,"Ġemer":3128,"Ġsize":3129,"lymp":3130,"Ġdestroyed":3131,"ĠLouis":3132,"Ġchanges":3133,"ores":3134,"ulated":3135,"Ġcommission":3136,"Ġrid":3137,"imate":3138,"Ġscenes":3139,"Ġwinning":3140,"Ġfleet":3141,"sy":3142,"Ġlimited":3143,"omm":3144,"iser":3145,"Ġleaving":3146,"ĠSpanish":3147,"Ġdeg":3148,"ĠOlymp":3149,"tt":3150,"ĠClub":3151,"Ġpay":3152,"II":3153,"Ġden":3154,"Ġ75":3155,"Ġdraw":3156,"ga":3157,"que":3158,"su":3159,"lo":3160,"rigade":3161,"Ġself":3162,"Ġprovide":3163,"idents":3164,"Ġrights":3165,"Ġpolic":3166,"Ġtrib":3167,"ties":3168,"ournal":3169,"Ġtype":3170,"ires":3171,"Ġdate":3172,"ension":3173,"rd":3174,"Ġwriter":3175,"Ġfail":3176,"sen":3177,"ĠDu":3178,"Ġterrit":3179,"ari":3180,"Ġkil":3181,"Ġtransport":3182,"Ġproposed":3183,"Ġinfluence":3184,"Ġoverall":3185,"Ġdivision":3186,"Ġgirl":3187,"oms":3188,"ĠKh":3189,"Ġstructure":3190,"ĠGreen":3191,"inese":3192,"ĠParty":3193,"Ġtax":3194,"Ġ1960":3195,"Ġequip":3196,"Ġcontro":3197,"Ġ184":3198,"Ġscript":3199,"iral":3200,"Ġ300":3201,"ĠTer":3202,"Ġbr":3203,"ÃŃ":3204,"Ġagreed":3205,"ĠAssociation":3206,"Ġintended":3207,"atives":3208,"Ġanti":3209,"AA":3210,"Ġjud":3211,"Ġrunning":3212,"ĠPri":3213,"ift":3214,"ending":3215,"ĠEdward":3216,"icles":3217,"ĠAdm":3218,"Ġdaughter":3219,"Ġdeep":3220,"Ġsupported":3221,"Ġwide":3222,"Ġbow":3223,"Ġpurch":3224,"Ġnearly":3225,"Ġbig":3226,"ĠChicago":3227,"Ġbroadcast":3228,"ĠMany":3229,"imum":3230,"ĠChinese":3231,"Ġestablish":3232,"ĠOper":3233,"Ġdi":3234,"Ġresearch":3235,"Ġhelped":3236,"Ġmovement":3237,"Ġ1998":3238,"ĠRo":3239,"Ġmarried":3240,"Ġawarded":3241,"ili":3242,"Ġintens":3243,"Ġmultip":3244,"ĠIr":3245,"ĠCouncil":3246,"ĠSong":3247,"iles":3248,"atively":3249,"acing":3250,"Ġfavor":3251,"Ġdiss":3252,"Ġcreate":3253,"irm":3254,"Ġdark":3255,"ĠSal":3256,"Ġsusp":3257,"ny":3258,"pris":3259,"teen":3260,"omer":3261,"ĠKore":3262,"Ġbird":3263,"ĠEnter":3264,"Ġstars":3265,"Ġlonger":3266,"Ã¶":3267,"Ġlanguage":3268,"che":3269,"Ġcat":3270,"Ġcaptured":3271,"Ġplanned":3272,"Ġhigher":3273,"uz":3274,"Ġincreasing":3275,"mon":3276,"Ġcompared":3277,"ĠEv":3278,"Ġfans":3279,"ĠServ":3280,"ĠEmp":3281,"Ġconclud":3282,"Ġcourse":3283,"ĠSuper":3284,"Ġchanged":3285,"Ġ33":3286,"Ġapproximately":3287,"Ġexperience":3288,"Ġfeature":3289,"selves":3290,"Ġliving":3291,"ĠJohnson":3292,"ounds":3293,"Ġrelated":3294,"Ġdone":3295,"Ġfifth":3296,"Ġthemselves":3297,"enty":3298,"Ġ70":3299,"ĠHistory":3300,"abit":3301,"Ġwithd":3302,"ĠPacific":3303,"tained":3304,"bers":3305,"arent":3306,"Ġproducer":3307,"Ġmostly":3308,"Ġtemper":3309,"Ġtracks":3310,"isions":3311,"ĠBack":3312,"ss":3313,"ĠInter":3314,"Ġspace":3315,"Ġoperations":3316,"anced":3317,"ij":3318,"can":3319,"Ġdead":3320,"uth":3321,"ĠBillboard":3322,"umn":3323,"ĠApp":3324,"Ġthus":3325,"olic":3326,"ĠNot":3327,"ĠBet":3328,"Ġwoman":3329,"Ġsyn":3330,"Ġimm":3331,"Ġremains":3332,"Ġbring":3333,"ĠMont":3334,"thing":3335,"Ġquarter":3336,"Ã¼":3337,"Ġsoldiers":3338,"imin":3339,"Ġult":3340,"Ġour":3341,"Ġnatural":3342,"oint":3343,"vin":3344,"Ġwhether":3345,"Ġweap":3346,"Ġprobably":3347,"Ġface":3348,"Ġdram":3349,"Ġconcept":3350,"anded":3351,"Ġran":3352,"ĠFinal":3353,"rast":3354,"ĠScot":3355,"bour":3356,"Ġbattles":3357,"Ġbuildings":3358,"Ġcopies":3359,"Ġcomplex":3360,"Ġreact":3361,"Ġ1997":3362,"ĠSun":3363,"ĠSince":3364,"Ġforward":3365,"Ġleader":3366,"Ġdepart":3367,"ĠKn":3368,"Ġlyrics":3369,"Ġextended":3370,"Ġboy":3371,"Ġvoice":3372,"iring":3373,"itt":3374,"Ġheav":3375,"Ġboard":3376,"Ġchall":3377,"ospital":3378,"Ġissued":3379,"ĠAtlantic":3380,"Ġ37":3381,"ging":3382,"vey":3383,"Ġsuffered":3384,"Ġreally":3385,"riage":3386,"Ġcountries":3387,"rate":3388,"ĠFort":3389,"ĠLake":3390,"ĠBig":3391,"urt":3392,"Ġcm":3393,"ĠSever":3394,"ĠCongress":3395,"ĠFranc":3396,"Ġincludes":3397,"Ġimmediately":3398,"ĠLove":3399,"ĠFlorida":3400,"ĠBoth":3401,"Ġmeth":3402,"Ġgoals":3403,"Ġattend":3404,"ĠJim":3405,"ĠJew":3406,"Ġcapital":3407,"hood":3408,"Ġprivate":3409,"Ġmixed":3410,"Ġmanager":3411,"Ġofficers":3412,"iant":3413,"Ġlikely":3414,"Ġcann":3415,"Ġbreed":3416,"ĠOld":3417,"Ġremoved":3418,"Ġmach":3419,"Ġplant":3420,"ien":3421,"ĠSea":3422,"venue":3423,"bury":3424,"hold":3425,"de":3426,"Ġdistrib":3427,"Ġceleb":3428,"ĠDist":3429,"Ġincrease":3430,"Ġsubsequently":3431,"ĠTexas":3432,"Ġinitial":3433,"ĠQueen":3434,"ĠChina":3435,"Ġmount":3436,"ĠTown":3437,"ĠPet":3438,"Ġhealth":3439,"ections":3440,"ria":3441,"Ġalways":3442,"Ġleave":3443,"Ġplans":3444,"Ġcompan":3445,"Ġstatus":3446,"order":3447,"Ġfocus":3448,"rial":3449,"ĠTor":3450,"Ġlocation":3451,"Ġvia":3452,"ĠAnother":3453,"ĠTrans":3454,"Ġservices":3455,"ĠLaw":3456,"Ġnetwork":3457,"Ġvisit":3458,"Ġcoin":3459,"ĠMr":3460,"ĠAnt":3461,"ams":3462,"ĠCamp":3463,"Ġmur":3464,"Ġproblems":3465,"iation":3466,"Ġoffered":3467,"Ġflag":3468,"Ġcolon":3469,"ĠHow":3470,"well":3471,"ĠLord":3472,"ĠEarth":3473,"Ġinstr":3474,"Ġterms":3475,"Ġapproach":3476,"aily":3477,"ĠOl":3478,"ously":3479,"etic":3480,"Ġnorm":3481,"ĠConst":3482,"Ġtons":3483,"ctor":3484,"Ġvillage":3485,"ounted":3486,"Ġmodel":3487,"Ġfell":3488,"Ġsomething":3489,"wer":3490,"ills":3491,"Ġadminist":3492,"ĠBoy":3493,"Ġtor":3494,"orning":3495,"ĠTur":3496,"Ġcounter":3497,"Ġmajority":3498,"Ġsch":3499,"ĠWood":3500,"ironment":3501,"Ġprofessional":3502,"Ġ183":3503,"ĠCanadian":3504,"burg":3505,"ĠIts":3506,"Ġinters":3507,"adium":3508,"ĠAfrica":3509,"ibr":3510,"Ġgot":3511,"ĠRail":3512,"Ġdamaged":3513,"Ġconsist":3514,"Ã³":3515,"aches":3516,"ĠMur":3517,"uries":3518,"Ġcause":3519,"Ġadop":3520,"Ġmeeting":3521,"Ġjob":3522,"Ġappears":3523,"Ġminute":3524,"ĠSquadron":3525,"ĠCenter":3526,"ĠGre":3527,"Ġranked":3528,"Ġlay":3529,"Ġindividual":3530,"olk":3531,"ĠRussian":3532,"ste":3533,"cean":3534,"Ġattacks":3535,"uf":3536,"Ġcomposed":3537,"oes":3538,"ify":3539,"ĠHighway":3540,"Ġ90":3541,"itect":3542,"ĠRad":3543,"Ġrevealed":3544,"Ġflight":3545,"Ġang":3546,"Ġplot":3547,"Ġdiscovered":3548,"reak":3549,"Ġraised":3550,"umed":3551,"ĠMel":3552,"lor":3553,"Ġfinanc":3554,"ĠKent":3555,"ĠCentral":3556,"Ġrespectively":3557,"Ġmakes":3558,"ĠCarol":3559,"pan":3560,"Ġassociated":3561,"ĠMartin":3562,"ĠSir":3563,"Ġ1995":3564,"Ġnumerous":3565,"Ġdomin":3566,"ĠIII":3567,"ault":3568,"Ġanc":3569,"ĠAngeles":3570,"Ġtakes":3571,"Ġaltern":3572,"gar":3573,"Ġneeded":3574,"Ġ34":3575,"Ġinspired":3576,"Ġlived":3577,"ĠBow":3578,"Ġcoach":3579,"Ġlaunched":3580,"oe":3581,"Ġyet":3582,"Ġamb":3583,"Ġgrand":3584,"ription":3585,"Ġattacked":3586,"Ġcand":3587,"Ġpow":3588,"Ġoccurred":3589,"Ġnature":3590,"Ġgra":3591,"Ġdig":3592,"Ġattempted":3593,"uments":3594,"Ġcontains":3595,"Ġveh":3596,"Ġshown":3597,"ĠDV":3598,"Ġbene":3599,"Ġhour":3600,"ĠMiss":3601,"Ġconditions":3602,"estival":3603,"down":3604,"Ġmoving":3605,"Ġupper":3606,"uals":3607,"ĠDes":3608,"imb":3609,"iest":3610,"Ġ38":3611,"ka":3612,"ken":3613,"ĠTV":3614,"ĠYear":3615,"ĠGroup":3616,"ective":3617,"Ġcollect":3618,"Ġsales":3619,"ĠTour":3620,"joy":3621,"orce":3622,"aught":3623,"ĠDel":3624,"urity":3625,"Ġ2016":3626,"Ġissues":3627,"Ġ1996":3628,"Ġyards":3629,"Ġ1950":3630,"Ġbirth":3631,"Ġexam":3632,"Ġslight":3633,"ĠRev":3634,"ĠEmpire":3635,"izing":3636,"Ġsal":3637,"Ġwhole":3638,"Ġcer":3639,"win":3640,"Ġi":3641,"Ġinformation":3642,"uing":3643,"Ġreferred":3644,"Ġfarm":3645,"Ġmom":3646,"oly":3647,"ĠOut":3648,"Ġbox":3649,"Ġcritical":3650,"vert":3651,"ĠUnder":3652,"Ġdefeat":3653,"Ġsen":3654,"Ġpit":3655,"Ġselected":3656,"Ġsmaller":3657,"Ġresulted":3658,"Ġnumbers":3659,"Ġfinally":3660,"reme":3661,"Ġbad":3662,"Ġincor":3663,"ĠPenn":3664,"Ġelected":3665,"ĠGar":3666,"Ġstay":3667,"Ġgrant":3668,"Ġqual":3669,"Ġscient":3670,"Ġactive":3671,"Ġsinger":3672,"onic":3673,"Ġprincip":3674,"ĠItalian":3675,"Ġsecret":3676,"kin":3677,"Ġmission":3678,"itation":3679,"uated":3680,"ĠJose":3681,"Ġ1994":3682,"Ġoperation":3683,"andon":3684,"Ġstandard":3685,"enant":3686,"Ġindustry":3687,"Ġens":3688,"Ġlargely":3689,"Ġassigned":3690,"Ġsem":3691,"Ġprec":3692,"Ġlink":3693,"use":3694,"ortun":3695,"Ġthr":3696,"oura":3697,"Ġlegisl":3698,"Ġsaf":3699,"Ġearned":3700,"Ġcommented":3701,"ĠCorps":3702,"Ġexpected":3703,"Ġmale":3704,"itude":3705,"iled":3706,"Ġaudience":3707,"ĠDVD":3708,"oud":3709,"Ġsuggest":3710,"ãĥ":3711,"Ġlisted":3712,"ĠArm":3713,"Ġroy":3714,"Ġcovered":3715,"ĠDis":3716,"Ġgre":3717,"ĠCrit":3718,"Ġunable":3719,"Ġpurp":3720,"irection":3721,"Ġsched":3722,"ĠMichigan":3723,"Ġtraditional":3724,"Ġheart":3725,"ĠCr":3726,"Ġtrade":3727,"Ġartist":3728,"Ġdouble":3729,"ĠViet":3730,"Ġrefused":3731,"Ġeducation":3732,"ya":3733,"Ġclosed":3734,"Ġnewsp":3735,"gr":3736,"Ġfriends":3737,"Ġaw":3738,"Ġrecover":3739,"Ġunderst":3740,"ounts":3741,"Ġprimary":3742,"agon":3743,"ĠPre":3744,"Ġattention":3745,"Ġmethod":3746,"hips":3747,"ogue":3748,"Ġtalk":3749,"ighter":3750,"tered":3751,"Ġbelow":3752,"Ġsister":3753,"Ġkind":3754,"Ġplat":3755,"ffic":3756,"ĠWales":3757,"Ġofficer":3758,"Ġcontem":3759,"Ġreason":3760,"Ġdepression":3761,"Ġ1940":3762,"Ġperformances":3763,"Ġability":3764,"Ġenjoy":3765,"ĠMass":3766,"oo":3767,"Ġmeant":3768,"Ġwalk":3769,"Ġdeclared":3770,"ĠNort":3771,"Ġfighting":3772,"Ġ49":3773,"Ġblood":3774,"ples":3775,"ĠMore":3776,"Ġgiving":3777,"Ġ180":3778,"Ġcommander":3779,"undred":3780,"Ġword":3781,"isher":3782,"Ġmiddle":3783,"Ġletter":3784,"Ġtheat":3785,"Ġcompl":3786,"Ġreligious":3787,"ĠCath":3788,"Ġmax":3789,"Ġhot":3790,"Ġsett":3791,"ĠCle":3792,"Ġbooks":3793,"ĠOx":3794,"Ġrate":3795,"ona":3796,"ĠArch":3797,"Ġmatches":3798,"ils":3799,"Ġnames":3800,"ĠStep":3801,"ĠCare":3802,"Ġrecords":3803,"ĠLong":3804,"ĠAcad":3805,"aped":3806,"ĠDemocr":3807,"Ġconstit":3808,"ĠBec":3809,"Ġunit":3810,"ĠFer":3811,"Ġproduce":3812,"Ġquestion":3813,"ĠTest":3814,"ĠZeal":3815,"ĠTeam":3816,"Ġcentre":3817,"ounded":3818,"Ġserious":3819,"Ġcompetition":3820,"Ġtouch":3821,"ux":3822,"ĠMajor":3823,"Ġri":3824,"utch":3825,"antasy":3826,"odies":3827,"ims":3828,"Ġdisapp":3829,"Ġvocals":3830,"ector":3831,"Ġabandon":3832,"Ġmention":3833,"osh":3834,"ĠMinister":3835,"ĠSeveral":3836,"Ġrapid":3837,"iences":3838,"Ġ41":3839,"Ġ1992":3840,"road":3841,"irt":3842,"quar":3843,"icted":3844,"ĠWal":3845,"Ġaccount":3846,"ĠCons":3847,"Ġdocument":3848,"Ġnecess":3849,"Ġkilomet":3850,"ares":3851,"Ġmor":3852,"Ġenergy":3853,"ervation":3854,"echan":3855,"Ġconstructed":3856,"ĠFore":3857,"ĠKenn":3858,"Ġdut":3859,"ening":3860,"oses":3861,"Ġtheme":3862,"ĠZealand":3863,"Ġris":3864,"rug":3865,"Ġstra":3866,"ĠFox":3867,"ishop":3868,"rier":3869,"ette":3870,"Ġcas":3871,"ĠSum":3872,"Ġhighly":3873,"Ġnearby":3874,"Ġpick":3875,"ĠTime":3876,"yr":3877,"Ġseparate":3878,"Ġroyal":3879,"Ġpositions":3880,"Ġprep":3881,"ails":3882,"Ġcontinue":3883,"ĠMexico":3884,"ĠEr":3885,"Ġdrum":3886,"Ġtur":3887,"ĠSar":3888,"Ġeffort":3889,"ĠSo":3890,"Ġcombat":3891,"vention":3892,"edic":3893,"Ġchief":3894,"ĠBu":3895,"ĠAfrican":3896,"Ġ400":3897,"ĠHaw":3898,"ĠMatt":3899,"Ġpresented":3900,"Ġannual":3901,"Ġreduced":3902,"ĠMa":3903,"ĠFour":3904,"Ġcontrovers":3905,"ether":3906,"oper":3907,"emorial":3908,"ibly":3909,"ieut":3910,"Ġdirectly":3911,"ĠChris":3912,"Ġ1930":3913,"Ġlevels":3914,"Ġcle":3915,"Ġ55":3916,"Ġmeans":3917,"Ġnotes":3918,"Ġneigh":3919,"cel":3920,"Ġsevent":3921,"Ġtried":3922,"Ġattended":3923,"Ġfast":3924,"Ġpractice":3925,"Ġhar":3926,"ĠWall":3927,"ita":3928,"Ġforest":3929,"ado":3930,"Ġcompos":3931,"shire":3932,"ĠBrad":3933,"Ġedition":3934,"ĠDar":3935,"vement":3936,"ĠMadonna":3937,"uit":3938,"Ġtrain":3939,"ĠBob":3940,"Ġnuc":3941,"acher":3942,"Ġmetal":3943,"ĠChart":3944,"Ġaccepted":3945,"arents":3946,"Ġtwenty":3947,"Ġstating":3948,"Ġ1993":3949,"ĠTre":3950,"osen":3951,"Ġ1991":3952,"Ġwatch":3953,"Ġarchitect":3954,"Ġmovie":3955,"Ġconcert":3956,"Ġtext":3957,"Ġadvance":3958,"isation":3959,"Ġrepe":3960,"rical":3961,"Ġcandid":3962,"ĠHel":3963,"Ġ179":3964,"Ġpair":3965,"track":3966,"Ġfr":3967,"stitute":3968,"ĠScotland":3969,"Ġportray":3970,"irmed":3971,"Ġdirection":3972,"ih":3973,"ĠJones":3974,"Ġseem":3975,"Ġdism":3976,"illery":3977,"eway":3978,"Ġschools":3979,"Ġlegal":3980,"house":3981,"ĠTheir":3982,"Äĩ":3983,"ersey":3984,"lict":3985,"ĠAnn":3986,"ĠInfantry":3987,"Ġthick":3988,"Ġreject":3989,"fall":3990,"ĠManc":3991,"icip":3992,"wide":3993,"ĠDepartment":3994,"inem":3995,"Ġasp":3996,"ani":3997,"ĠCross":3998,"aging":3999,"Ġhorse":4000,"Ġge":4001,"light":4002,"Ġpurs":4003,"Ġrecomm":4004,"Ġefforts":4005,"Ġ+":4006,"Ġcollege":4007,"awn":4008,"Ġmanaged":4009,"ĠDou":4010,"ĠGo":4011,"Ġmarriage":4012,"ĠGreek":4013,"Ġending":4014,"Ġ39":4015,"Ġresulting":4016,"like":4017,"icient":4018,"hy":4019,"utions":4020,"Ġresponsible":4021,"ieutenant":4022,"ĠThree":4023,"irit":4024,"Ġwing":4025,"MS":4026,"Ġshowed":4027,"ĠLit":4028,"band":4029,"Ġdropped":4030,"ĠPost":4031,"Ġinside":4032,"ĠMic":4033,"Ġdisplay":4034,"ĠBost":4035,"illed":4036,"Ġcyclone":4037,"Ġ182":4038,"Ġnation":4039,"ĠFoot":4040,"Ġenvironment":4041,"Ġcases":4042,"Ġkept":4043,"Ġ48":4044,"peror":4045,"ĠCreek":4046,"ĠLad":4047,"ĠLeg":4048,"Ġmorning":4049,"Ġculture":4050,"Ġrare":4051,"Ġcust":4052,"Ġmeaning":4053,"olf":4054,"Ġ42":4055,"Ġrat":4056,"Ġbegins":4057,"Ġdom":4058,"Ġincorpor":4059,"Ġvariety":4060,"ĠStone":4061,"Ġhouses":4062,"ceeded":4063,"Ġsubst":4064,"Ġchampionship":4065,"Ġforms":4066,"pe":4067,"rane":4068,"ĠService":4069,"pass":4070,"Ġarrest":4071,"Ġwords":4072,"Ġcerem":4073,"ĠHung":4074,"Ġschol":4075,"cend":4076,"Ġoil":4077,"Ġinches":4078,"ĠWilliams":4079,"Ġcontinues":4080,"Ġmarked":4081,"Ġyard":4082,"ĠRecords":4083,"Ġspl":4084,"ĠBC":4085,"ĠSecret":4086,"Ġ181":4087,"Åį":4088,"Ġperm":4089,"ini":4090,"ĠNews":4091,"ecting":4092,"ols":4093,"Ġsymb":4094,"gl":4095,"Ġscience":4096,"Ġbank":4097,"gypt":4098,"Ġuses":4099,"ĠSur":4100,"Ġeconomic":4101,"ĠStan":4102,"writ":4103,"ĠTro":4104,"ĠHal":4105,"cle":4106,"thel":4107,"Ġdefend":4108,"ĠParliament":4109,"Ġsource":4110,"bed":4111,"ĠGames":4112,"ĠFin":4113,"Ġmetres":4114,"ĠTri":4115,"Ġlear":4116,"ras":4117,"Ġhundred":4118,"ulations":4119,"Ġquality":4120,"Ġsettle":4121,"ĠPan":4122,"Ġ1942":4123,"ĠBook":4124,"Ġstarting":4125,"Ġconducted":4126,"wh":4127,"Ġimpact":4128,"thur":4129,"Ġallowing":4130,"Ġsides":4131,"Ġspecific":4132,"ĠEgypt":4133,"Ġstrugg":4134,"Ġbeat":4135,"Ġpresence":4136,"ĠSociety":4137,"ĠOh":4138,"ĠSol":4139,"Ġamount":4140,"een":4141,"ĠJer":4142,"Ġsuppl":4143,"sych":4144,"Ġchap":4145,"Ġexhib":4146,"Ġviewers":4147,"Ġdu":4148,"Ġdance":4149,"Ġcaptain":4150,"ingu":4151,"Ġple":4152,"ĠVer":4153,"Ġrule":4154,"Ġunivers":4155,"Ġtransferred":4156,"ĠLu":4157,"Ġdistinct":4158,"ĠSouthern":4159,"ĠPrince":4160,"Ġ65":4161,"Ġmultiple":4162,"ĠStephen":4163,"ĠLatin":4164,"ding":4165,"Ġpotential":4166,"ĠSat":4167,"ĠCommittee":4168,"ĠGeorg":4169,"Ġforeign":4170,"Ġcontrast":4171,"Ġ47":4172,"Ġenemy":4173,"ĠOxford":4174,"Ġpeaked":4175,"Ġtraffic":4176,"inet":4177,"ping":4178,"ĠSpec":4179,"arian":4180,"ĠJoseph":4181,"itiz":4182,"Ġyour":4183,"Ġbecomes":4184,"ĠSil":4185,"Ġthings":4186,"Ġmess":4187,"Ġowned":4188,"Ġfounded":4189,"Ġgreater":4190,"Ġportion":4191,"ĠAdmiral":4192,"ĠLike":4193,"Ġvocal":4194,"Ġencoun":4195,"Ġconcluded":4196,"ĠCamb":4197,"Ġrespond":4198,"ĠBoston":4199,"Ġattempts":4200,"iance":4201,"kn":4202,"Ġopt":4203,"anes":4204,"Ġrelatively":4205,"rong":4206,"ym":4207,"Ġfederal":4208,"ĠClass":4209,"very":4210,"ellig":4211,"ider":4212,"ĠManchester":4213,"Ġscoring":4214,"ĠChief":4215,"Ġproperty":4216,"Ġprimarily":4217,"Ġstories":4218,"Ġcastle":4219,"Ġdemonst":4220,"ĠTw":4221,"Ġfinancial":4222,"ĠHarrison":4223,"ressive":4224,"Ġactually":4225,"ĠCaptain":4226,"ĠJeff":4227,"ĠBecause":4228,"ĠTim":4229,"ĠForm":4230,"ograp":4231,"ĠBefore":4232,"Ġanimals":4233,"Ġlif":4234,"Ġtourn":4235,"ĠBattalion":4236,"ĠWin":4237,"ĠVietn":4238,"ĠHurricane":4239,"Ġobserved":4240,"ĠSwed":4241,"Ġcollection":4242,"Ġopportun":4243,"ĠBat":4244,"Ġ46":4245,"ĠCommission":4246,"fect":4247,"ĠDen":4248,"Ġ52":4249,"istics":4250,"Ġtitled":4251,"Ġfeaturing":4252,"Ġweaken":4253,"Ġstrength":4254,"Ġ1944":4255,"ĠDef":4256,"ĠBridge":4257,"Ġwriters":4258,"Ġwa":4259,"Ġinch":4260,"eds":4261,"Ġwrite":4262,"Ġjournal":4263,"Ġsituation":4264,"ĠFred":4265,"umber":4266,"ees":4267,"Ġwor":4268,"Ġmechan":4269,"Ġpaid":4270,"Ġspot":4271,"Ġfigure":4272,"Ġdistance":4273,"Ġcompanies":4274,"stein":4275,"Ġparents":4276,"Ġ64":4277,"Ġpremi":4278,"ĠOtt":4279,"perial":4280,"ĠLittle":4281,"mas":4282,"rel":4283,"Ġindependent":4284,"Ġmel":4285,"Ġonto":4286,"Ġdivided":4287,"Ġacting":4288,"Ġ43":4289,"Ġactor":4290,"Ġshare":4291,"Ġmind":4292,"Ġslightly":4293,"aud":4294,"ĠProdu":4295,"ĠParis":4296,"astic":4297,"ĠLuc":4298,"ĠGra":4299,"ĠColumb":4300,"ĠCarl":4301,"ĠSeries":4302,"Ġcollabor":4303,"ĠLife":4304,"Ġtarget":4305,"lam":4306,"Ġpiece":4307,"Ġtorped":4308,"ĠMod":4309,"Ġpowerful":4310,"Ġ44":4311,"Ġfunction":4312,"Ġreform":4313,"anna":4314,"Ġinnings":4315,"Ġconcent":4316,"Ġselling":4317,"ĠEntertain":4318,"oration":4319,"thlet":4320,"Ġera":4321,"Ġrough":4322,"Ġrating":4323,"Ġbroke":4324,"osaur":4325,"ĠBBC":4326,"chest":4327,"ĠMax":4328,"ĠPop":4329,"mond":4330,"istry":4331,"ĠOs":4332,"Ġtoday":4333,"Ġplays":4334,"ricket":4335,"ĠHistor":4336,"uge":4337,"Ġultimately":4338,"Ġlot":4339,"Ġwaters":4340,"Ġtrial":4341,"Ġactions":4342,"Ġcho":4343,"annel":4344,"ĠCroat":4345,"Ġsquare":4346,"Ġmaximum":4347,"rown":4348,"illa":4349,"ero":4350,"ada":4351,"Ġtend":4352,"itan":4353,"load":4354,"Ġinterp":4355,"Ġdise":4356,"Ġcompletely":4357,"Ġbound":4358,"Ġsought":4359,"Ġlog":4360,"ĠAcademy":4361,"Ġpilot":4362,"Ġ1920":4363,"Ġgar":4364,"Ġblue":4365,"under":4366,"rupt":4367,"Ġess":4368,"ĠMuseum":4369,"oti":4370,"Ġ1945":4371,"mark":4372,"Ġscale":4373,"ĠHor":4374,"Ġ1941":4375,"Ġdesignated":4376,"Ġsociety":4377,"alle":4378,"Ġmainly":4379,"ĠLine":4380,"Ġstruck":4381,"Ġ150":4382,"Ġhus":4383,"ota":4384,"Ġbehav":4385,"ĠSk":4386,"Ġconver":4387,"Ġcombined":4388,"Ġofficials":4389,"ĠSaint":4390,"Ġnortheast":4391,"za":4392,"Ġactivity":4393,"Ġpolicy":4394,"Ġvess":4395,"Ġinfluenced":4396,"Ġtransl":4397,"omy":4398,"ĠVan":4399,"ylvan":4400,"cers":4401,"olved":4402,"Ġsearch":4403,"Ġsay":4404,"ented":4405,"ĠWay":4406,"Ġwear":4407,"Ġalongside":4408,"Ġsout":4409,"ĠBrigade":4410,"Ġcorn":4411,"AS":4412,"ĠItaly":4413,"ĠEntertainment":4414,"Ġcalling":4415,"racted":4416,"Ġbatter":4417,"iano":4418,"Ġthous":4419,"Ġseconds":4420,"ĠArab":4421,"while":4422,"ĠAmericans":4423,"ĠConf":4424,"ĠWind":4425,"Ġseg":4426,"Ġsources":4427,"Ġnaval":4428,"ĠLee":4429,"ĠIre":4430,"orses":4431,"Ġbackground":4432,"Ġwinter":4433,"ĠRegiment":4434,"Ġcrow":4435,"Ġice":4436,"ala":4437,"Ġplatform":4438,"Ġnews":4439,"Ġthir":4440,"rative":4441,"Ġwebs":4442,"ĠTod":4443,"phy":4444,"quarters":4445,"udd":4446,"Ġsuc":4447,"Ġrecent":4448,"Ġmem":4449,"aine":4450,"Ġgained":4451,"Ġnominated":4452,"TV":4453,"Ġtheory":4454,"ĠAlb":4455,"Ġartists":4456,"onn":4457,"ĠAvenue":4458,"Ġpromoted":4459,"Ġwidely":4460,"ube":4461,"adel":4462,"Ġconfirmed":4463,"ĠIreland":4464,"HL":4465,"Ġsystems":4466,"Ġpassing":4467,"Ġelectric":4468,"Ġreaching":4469,"Ġproved":4470,"ibrary":4471,"Ġinvasion":4472,"ĠFleet":4473,"Ġresults":4474,"pson":4475,"Ġconflict":4476,"ĠEll":4477,"Ġgreatest":4478,"Ġsubsequent":4479,"ĠGood":4480,"Ġexplained":4481,"Ġalbums":4482,"Ġiron":4483,"Ġcoming":4484,"Ġpeace":4485,"Ġnorthwest":4486,"oured":4487,"town":4488,"Ġir":4489,"Ġcontent":4490,"ĠAut":4491,"hew":4492,"Ġsn":4493,"Ġsixth":4494,"Ġresist":4495,"Ġ1989":4496,"ĠRay":4497,"Ġwick":4498,"Ġcharge":4499,"grad":4500,"Ġcounty":4501,"AF":4502,"Ġhero":4503,"Ġ1943":4504,"Ġweather":4505,"Ġshortly":4506,"ĠOrig":4507,"Ġsust":4508,"Ġsays":4509,"Ġadj":4510,"aga":4511,"ĠBus":4512,"ĠSub":4513,"Ġcausing":4514,"ĠVictoria":4515,"Ġserve":4516,"Ġversions":4517,"Ġ51":4518,"Ġpath":4519,"ĠSant":4520,"ĠLo":4521,"itness":4522,"aling":4523,"ĠTropical":4524,"Ġexpressed":4525,"Ġborder":4526,"Ġseek":4527,"Ġburn":4528,"Ġreception":4529,"ĠCharl":4530,"Ġresidents":4531,"iced":4532,"bon":4533,"ĠCatholic":4534,"ĠWork":4535,"Ġemot":4536,"Ġcities":4537,"ĠNorm":4538,"Ġchem":4539,"ĠAdd":4540,"Ġsoundtrack":4541,"ansion":4542,"ĠValley":4543,"Ġseasons":4544,"ĠNin":4545,"ĠMat":4546,"ips":4547,"infall":4548,"Ġsense":4549,"ĠLight":4550,"Ġgreen":4551,"Ġhospital":4552,"Ġappearances":4553,"Ġsexual":4554,"ategory":4555,"tation":4556,"Ġartillery":4557,"ĠDi":4558,"Ġpun":4559,"ĠMiddle":4560,"unction":4561,"Ġidentified":4562,"Ġrequire":4563,"ighth":4564,"Ġhands":4565,"Ġphysical":4566,"Ġolder":4567,"ĠThough":4568,"ĠLive":4569,"arden":4570,"Ġdedic":4571,"Ġtells":4572,"Ġtrue":4573,"Ġoffer":4574,"Ġpal":4575,"ĠRam":4576,"ĠDun":4577,"ĠCommun":4578,"ysis":4579,"Ġkg":4580,"ĠLiber":4581,"ĠThrough":4582,"ĠShow":4583,"Ġweapons":4584,"ĠRy":4585,"Ġrepresented":4586,"ancy":4587,"Ġahead":4588,"Ġgas":4589,"Ġextra":4590,"ĠMen":4591,"ĠFootball":4592,"aded":4593,"ĠTop":4594,"ĠYoung":4595,"ĠVol":4596,"eption":4597,"Ġheavily":4598,"Ġimage":4599,"ylvania":4600,"ĠJul":4601,"ronic":4602,"ĠKar":4603,"Ġeas":4604,"ĠTay":4605,"Ġdefense":4606,"ĠDirect":4607,"lers":4608,"itable":4609,"Ġchallen":4610,"Ġsupp":4611,"ĠUpon":4612,"Ġavoid":4613,"Ġagg":4614,"ĠBey":4615,"Ġapparent":4616,"abeth":4617,"ĠDutch":4618,"ĠWeek":4619,"Ġalone":4620,"Ġstudent":4621,"Ġspread":4622,"Ġstudies":4623,"known":4624,"Ġofficially":4625,"Ġdistrict":4626,"ĠIll":4627,"Ġhusband":4628,"Ġbit":4629,"Ġexecutive":4630,"ĠEliz":4631,"Ġprominent":4632,"ĠFre":4633,"Ġinstit":4634,"Ġconsisted":4635,"Ġorganization":4636,"Ġstone":4637,"essions":4638,"Ġcapture":4639,"Ġdebuted":4640,"ĠAlbert":4641,"Ġsend":4642,"Ġinjury":4643,"Ġfired":4644,"ĠBond":4645,"bur":4646,"Ġwild":4647,"ports":4648,"Ġpattern":4649,"Ġequipment":4650,"Ġpoet":4651,"Ġpack":4652,"Ġprepar":4653,"Ġresc":4654,"Ġinstrument":4655,"ĠFar":4656,"ĠRog":4657,"Ġfigures":4658,"ĠCivil":4659,"ĠBre":4660,"Ġsurpris":4661,"Ġexped":4662,"ĠDam":4663,"urban":4664,"ushed":4665,"Ġargued":4666,"Ġox":4667,"Ġaired":4668,"pool":4669,"Ġeth":4670,"Ġring":4671,"Ġpict":4672,"Ġcontemporary":4673,"Ġgrowth":4674,"Ġcouple":4675,"Ġdoing":4676,"acity":4677,"Ġreturning":4678,"Ġhun":4679,"Ġgraph":4680,"Ġfloor":4681,"rog":4682,"ĠHomer":4683,"Ġbud":4684,"Ġmagn":4685,"Ġcert":4686,"Ġpan":4687,"Ġweight":4688,"Ġlaid":4689,"Ġstep":4690,"lines":4691,"ĠStorm":4692,"ĠNorthern":4693,"Ġearth":4694,"Ġdoub":4695,"Ġpieces":4696,"Ġmatter":4697,"Ġ600":4698,"Ġleaders":4699,"Ġaffected":4700,"Ġshell":4701,"Ġtun":4702,"Ġhabit":4703,"ĠGal":4704,"appen":4705,"ĠTem":4706,"Ġrang":4707,"Ġmaintained":4708,"amber":4709,"Ġhere":4710,"inson":4711,"ias":4712,"Ġcommunic":4713,"Ġmaintain":4714,"Ġtermin":4715,"ĠHard":4716,"ifying":4717,"Ġpropos":4718,"Ġoccasion":4719,"Ġvisited":4720,"emic":4721,"Ġhyd":4722,"Ġspeech":4723,"ĠDaniel":4724,"Ġcomes":4725,"Ġrain":4726,"Ġcriticized":4727,"ental":4728,"Ġactivities":4729,"stone":4730,"ola":4731,"ĠHa":4732,"rat":4733,"Ġexec":4734,"acement":4735,"ĠCarolina":4736,"Ġtoward":4737,"Ġreign":4738,"ĠJon":4739,"Ġattract":4740,"Ġemph":4741,"ockey":4742,"Ġtournament":4743,"Ġcrowd":4744,"Ġhall":4745,"ocked":4746,"ĠOperation":4747,"uls":4748,"Ġcitiz":4749,"eed":4750,"orne":4751,"Ġsenior":4752,"Ġtrees":4753,"Ġsetting":4754,"Ġsingles":4755,"Ġreference":4756,"Ġdrug":4757,"Ġformation":4758,"Ġ53":4759,"elve":4760,"Ġadapt":4761,"Ġ1987":4762,"Ġmedical":4763,"ivity":4764,"Ġsurre":4765,"Ġmurder":4766,"ĠMarsh":4767,"ĠSystem":4768,"ners":4769,"ĠScottish":4770,"uct":4771,"Ġworldwide":4772,"ĠGovernment":4773,"Ġbul":4774,"ĠRom":4775,"Ġtrying":4776,"Ġ1988":4777,"ĠHolly":4778,"ĠDistrict":4779,"Ġterritory":4780,"ĠField":4781,"estic":4782,"ruit":4783,"Ġappl":4784,"Ġnegoti":4785,"ĠOcean":4786,"Ġstations":4787,"ĠWrit":4788,"Ġmachine":4789,"embly":4790,"ĠBackground":4791,"Ġdog":4792,"Ġrainfall":4793,"Ġload":4794,"Ġclaims":4795,"Ġdispl":4796,"ĠGovernor":4797,"Ġfellow":4798,"eller":4799,"Ġdoll":4800,"ĠHome":4801,"ĠColon":4802,"Ġgod":4803,"Ġ85":4804,"Ġbirds":4805,"ĠFantasy":4806,"ĠDev":4807,"gian":4808,"ĠRod":4809,"Ġhistorian":4810,"ĠGuard":4811,"Ġfully":4812,"ĠChe":4813,"resh":4814,"Ġaccident":4815,"Ġcell":4816,"uled":4817,"ĠPenns":4818,"Ġrisk":4819,"ote":4820,"Ġvalue":4821,"omers":4822,"Ġtherefore":4823,"Ġsplit":4824,"bit":4825,"Ġchosen":4826,"Ġsupply":4827,"Ġguest":4828,"Ġtreatment":4829,"rael":4830,"ĠShort":4831,"ĠDuke":4832,"velopment":4833,"Ġuniversity":4834,"Ġgovernor":4835,"ĠSenate":4836,"Ġsens":4837,"ampion":4838,"ĠBeat":4839,"Ġdyn":4840,"Ġtwice":4841,"Ġfrequently":4842,"Ġreports":4843,"Ġut":4844,"ayer":4845,"ordin":4846,"ĠLew":4847,"Ġleaves":4848,"stitution":4849,"gu":4850,"Ġremark":4851,"agn":4852,"ĠStudios":4853,"Ġfaced":4854,"ĠGirl":4855,"ĠPolish":4856,"Ġpaper":4857,"aly":4858,"illy":4859,"izes":4860,"ledge":4861,"ĠEastern":4862,"Ġwalls":4863,"Ġoperated":4864,"Ġlabel":4865,"ĠCorn":4866,"ĠMD":4867,"Ġwounded":4868,"Ġbillion":4869,"Ġfollows":4870,"Ġopin":4871,"ĠMean":4872,"Ġsurrounding":4873,"azz":4874,"Ġgrew":4875,"ĠBart":4876,"antly":4877,"ufact":4878,"Ġplanet":4879,"ĠAndrew":4880,"ĠRos":4881,"Ġswe":4882,"min":4883,"rect":4884,"Ġcontained":4885,"ĠChristmas":4886,"ĠAllied":4887,"orter":4888,"Ġcondition":4889,"Ġmanufact":4890,"onents":4891,"resp":4892,"antine":4893,"Ġdegree":4894,"rance":4895,"Ġbal":4896,"gend":4897,"Ġherself":4898,"isco":4899,"ĠJud":4900,"ĠNight":4901,"Ġaccompan":4902,"Ġcolor":4903,"Ġhorses":4904,"Ġsle":4905,"Ġpasses":4906,"Ġ54":4907,"tar":4908,"ety":4909,"Ġescape":4910,"Ġtypically":4911,"Ġunf":4912,"Ġreinf":4913,"mit":4914,"Ġfuel":4915,"Ġmaster":4916,"isters":4917,"Ġsimply":4918,"ĠWilson":4919,"Ġbrown":4920,"ĠTaylor":4921,"fully":4922,"utation":4923,"Ġelement":4924,"ĠInst":4925,"Ã¨":4926,"Ġorders":4927,"Ġdraft":4928,"Ġlives":4929,"Ġrailway":4930,"Ġdang":4931,"ĠPen":4932,"Ġ1986":4933,"Ġcasual":4934,"aming":4935,"Ġeditor":4936,"la":4937,"ĠHead":4938,"Ġarms":4939,"more":4940,"Ġserving":4941,"Ġcamer":4942,"uous":4943,"Ġphil":4944,"Ġconsecutive":4945,"Ġ95":4946,"Ġ97":4947,"Ġmoment":4948,"ĠElizabeth":4949,"Ġfan":4950,"Ġchose":4951,"ĠHum":4952,"Ġnothing":4953,"Ġauthority":4954,"ographer":4955,"ĠJoe":4956,"ĠAlexander":4957,"Ġcannot":4958,"Ġvote":4959,"ĠEach":4960,"Ġ56":4961,"ricult":4962,"Ġworkers":4963,"ĠOf":4964,"Ġunknown":4965,"Ġnewly":4966,"Ġnative":4967,"ĠMike":4968,"Ġopposed":4969,"ĠGi":4970,"ucky":4971,"Ġparticipated":4972,"Ġemphas":4973,"isf":4974,"ĠJac":4975,"ĠLes":4976,"ancing":4977,"Ġexperiment":4978,"Ġgrowing":4979,"rich":4980,"ĠWW":4981,"ĠÎ":4982,"ĠPers":4983,"ager":4984,"Ġattrib":4985,"Ġpsych":4986,"Ġbass":4987,"Ġwebsite":4988,"ef":4989,"ĠDet":4990,"Ġlosing":4991,"Ġnewspaper":4992,"ãĤ":4993,"Ġfair":4994,"ype":4995,"Ġproducers":4996,"Ġadopted":4997,"ĠLand":4998,"Ġadvanced":4999,"Ġbenef":5000,"ilies":5001,"Ġfilming":5002,"ĠExp":5003,"Ġoffensive":5004,"ĠCastle":5005,"Ġheard":5006,"Ã¤":5007,"imens":5008,"ĠFestival":5009,"then":5010,"Ġsevere":5011,"ĠSound":5012,"ĠRet":5013,"Ġguard":5014,"Ġspirit":5015,"ĠIslands":5016,"ĠPennsylvania":5017,"ĠWat":5018,"Ġopposition":5019,"Ġsquadron":5020,"Ġfeed":5021,"ĠWhat":5022,"Ġfirm":5023,"Ġsequence":5024,"Ġextend":5025,"pton":5026,"Ġactors":5027,"ĠHy":5028,"Ġfiction":5029,"Ġrear":5030,"Ġbasis":5031,"Ġcapacity":5032,"Ġcouncil":5033,"Ġrom":5034,"orship":5035,"ĠCard":5036,"Ġweak":5037,"TC":5038,"Ġends":5039,"Ġadvant":5040,"Ġabandoned":5041,"ĠGall":5042,"Ġ177":5043,"Ġprin":5044,"ĠFurther":5045,"anda":5046,"ĠReception":5047,"zy":5048,"uses":5049,"Ġast":5050,"Ġcompar":5051,"isers":5052,"ura":5053,"ĠIrish":5054,"aven":5055,"ĠBlue":5056,"Ġrival":5057,"Ġevac":5058,"Ġprompt":5059,"iated":5060,"Ġhonor":5061,"ables":5062,"ĠSS":5063,"ĠTech":5064,"Ġflying":5065,"Ġenter":5066,"Ġelev":5067,"ĠFam":5068,"Ġkick":5069,"ĠBab":5070,"lement":5071,"ĠSpain":5072,"ĠHarry":5073,"Ġcoal":5074,"Ġbey":5075,"Ġcreating":5076,"Ġdeploy":5077,"ocated":5078,"Ġfilmed":5079,"Ġlaunch":5080,"ĠJersey":5081,"Ġhomes":5082,"BA":5083,"Ġpoll":5084,"Ġhappen":5085,"Ġregarded":5086,"Ġeye":5087,"Ġnormal":5088,"Ġincident":5089,"onc":5090,"ĠCat":5091,"Ġexpansion":5092,"Ġindividuals":5093,"Ġ76":5094,"Ġ178":5095,"Ġcriticism":5096,"Ġagreement":5097,"Ġbeyond":5098,"ounger":5099,"Ġsail":5100,"ĠUs":5101,"eld":5102,"Ġsports":5103,"Ġspect":5104,"Ġdelay":5105,"ĠSquare":5106,"ĠCa":5107,"iner":5108,"Ġspring":5109,"Ġfailure":5110,"ĠCoast":5111,"apers":5112,"Ġchair":5113,"Ġliber":5114,"ĠAre":5115,"FA":5116,"Ġstrike":5117,"Ġdismiss":5118,"Ġfamous":5119,"ĠBul":5120,"Ġinte":5121,"Ġboat":5122,"ima":5123,"ĠLind":5124,"Ġvo":5125,"ĠUl":5126,"imet":5127,"ĠFe":5128,"Ġmeasure":5129,"Ġpossibly":5130,"Ġ1939":5131,"ĠSand":5132,"Ġhistorical":5133,"Ġbodies":5134,"Ġmob":5135,"Ġprogress":5136,"Ġnegative":5137,"ĠCD":5138,"Ġcontact":5139,"ĠPublic":5140,"Ġachieved":5141,"ifications":5142,"Ġroles":5143,"ĠBroad":5144,"Ġkilling":5145,"Ġbelieve":5146,"Ġnarrow":5147,"Ġsilver":5148,"ĠEnd":5149,"ĠWild":5150,"ĠProduction":5151,"iny":5152,"ico":5153,"ĠElect":5154,"ĠCy":5155,"Ġretired":5156,"ĠMul":5157,"ĠIsrael":5158,"ienced":5159,"Ġideas":5160,"Ġur":5161,"ĠVen":5162,"onent":5163,"Ġtorpedo":5164,"ĠLy":5165,"ĠInstitute":5166,"Ġdrive":5167,"Ġpet":5168,"Ġimag":5169,"mosp":5170,"Ġpersonnel":5171,"iana":5172,"Ġtask":5173,"Ġ61":5174,"Ġdisease":5175,"Ġ1985":5176,"Ġbriefly":5177,"ĠDoctor":5178,"ĠDue":5179,"hol":5180,"Ġarmed":5181,"war":5182,"ĠArthur":5183,"Ġdiam":5184,"Ġ1968":5185,"Ġ66":5186,"ĠRevolution":5187,"Ġtower":5188,"imal":5189,"Ġarrang":5190,"edom":5191,"Ġeffective":5192,"Ġnecessary":5193,"Ġroads":5194,"kins":5195,"ĠMeanwhile":5196,"Ġkilometres":5197,"Ġperman":5198,"ocks":5199,"Ġapplic":5200,"ĠLiver":5201,"Ġgranted":5202,"Ġrepeated":5203,"Ġinfantry":5204,"Ġtree":5205,"ĠTy":5206,"ĠAsh":5207,"ĠCub":5208,"ĠRepublican":5209,"ĠSund":5210,"Ġbudget":5211,"Ġreceive":5212,"Ġadministration":5213,"Ġcolumn":5214,"ĠMir":5215,"Ġrejected":5216,"Ġinh":5217,"kes":5218,"ĠPerson":5219,"Ġinterchange":5220,"Ġtwelve":5221,"Ġtable":5222,"Ġgross":5223,"enger":5224,"ĠAlbum":5225,"Ġimproved":5226,"Ġleadership":5227,"ĠClark":5228,"Ġturns":5229,"iments":5230,"avalry":5231,"Ġextensive":5232,"Ġstraight":5233,"ĠOhio":5234,"worth":5235,"Ġlanding":5236,"Ġyellow":5237,"Ġparalle":5238,"ourney":5239,"aved":5240,"Ġlands":5241,"Ġdata":5242,"Ġcrossing":5243,"Ġseat":5244,"Ġmanagement":5245,"Ġplants":5246,"Ġpurpose":5247,"och":5248,"zil":5249,"Ġexpress":5250,"Ġbroken":5251,"ĠBoard":5252,"Ġchoice":5253,"Ġmile":5254,"Ġdescribes":5255,"Ġexpanded":5256,"iÄĩ":5257,"Ġsuccessfully":5258,"gers":5259,"Ġdefin":5260,"ĠBell":5261,"lusion":5262,"oln":5263,"Ġintellig":5264,"Ġsolo":5265,"set":5266,"etball":5267,"Ġfranch":5268,"Ġtru":5269,"ĠSecretary":5270,"Ġfought":5271,"oma":5272,"Ġdeliver":5273,"Ġexplos":5274,"adelph":5275,"Ġlearn":5276,"Ġ1984":5277,"uate":5278,"ĠEp":5279,"Ġorganized":5280,"Ġdidn":5281,"Ġcaught":5282,"Ġanimal":5283,"ĠProt":5284,"ĠBurn":5285,"ĠSa":5286,"ĠHit":5287,"Ġ800":5288,"Ġchor":5289,"Ġroof":5290,"ĠPhiladelph":5291,"Ġexcl":5292,"Ġvehicles":5293,"Ġancient":5294,"ĠBru":5295,"Ġsuggests":5296,"erc":5297,"Ġcommissioned":5298,"ĠEven":5299,"ev":5300,"Ġplaces":5301,"haps":5302,"rif":5303,"ĠIS":5304,"stream":5305,"Ġacquired":5306,"ĠMov":5307,"Ġglob":5308,"Ġcommittee":5309,"Ġdrama":5310,"ĠNever":5311,"Ġ57":5312,"ĠGeorgia":5313,"Ġunsu":5314,"ĠCambridge":5315,"ĠSher":5316,"Ġcomedy":5317,"Ġcreation":5318,"Ġtypes":5319,"Ġarticle":5320,"Ġgives":5321,"ĠLar":5322,"appy":5323,"ms":5324,"Ġseventh":5325,"Ġfat":5326,"Ġ120":5327,"ĠPhiladelphia":5328,"Ġwave":5329,"Ġprefer":5330,"Ġsoft":5331,"akers":5332,"zer":5333,"etts":5334,"Ġheadquarters":5335,"aith":5336,"ii":5337,"Ġnuclear":5338,"ĠAlso":5339,"Ġauthorities":5340,"Ġgenus":5341,"Ġcontain":5342,"ĠCommon":5343,"ĠRel":5344,"Ġsecurity":5345,"restling":5346,"Ġdetermined":5347,"ĠSR":5348,"Ġ1967":5349,"Ġroll":5350,"Ġtrav":5351,"Ġbott":5352,"Ġislands":5353,"Ġcenturies":5354,"ĠAddition":5355,"uan":5356,"Ġbeaut":5357,"Ġcommonly":5358,"rin":5359,"Ġmentioned":5360,"ns":5361,"ĠRussia":5362,"Ġrecently":5363,"attle":5364,"Ġstreet":5365,"oted":5366,"Ġlooking":5367,"ĠWars":5368,"ipl":5369,"Ġcontrolled":5370,"Ġfavour":5371,"ĠMah":5372,"umes":5373,"Ġ62":5374,"amin":5375,"Ġencoura":5376,"ĠAmong":5377,"ĠGil":5378,"oles":5379,"Ġfamilies":5380,"Ġbattalion":5381,"Ġaim":5382,"ĠKorean":5383,"Ġhousehold":5384,"ĠArg":5385,"Ġacad":5386,"Ġsand":5387,"arts":5388,"Ġfinds":5389,"outs":5390,"Ġwithdraw":5391,"Ġadvert":5392,"Ġdecre":5393,"Ġsets":5394,"ishes":5395,"ĠNintend":5396,"uting":5397,"Ġsuppor":5398,"Ġdrop":5399,"Ġstanding":5400,"Ġillust":5401,"ĠLiverpool":5402,"gn":5403,"Ġla":5404,"va":5405,"Ġunp":5406,"ĠHay":5407,"ĠLinc":5408,"ĠNintendo":5409,"ĠJenn":5410,"Ġreflect":5411,"ĠChap":5412,"Ġsinging":5413,"Ġdeck":5414,"Ġfish":5415,"Ġven":5416,"ĠKa":5417,"Ġsac":5418,"Ġdial":5419,"ĠBad":5420,"ĠPrime":5421,"ĠEarl":5422,"itled":5423,"ĠColumbia":5424,"Ġunique":5425,"ĠAsia":5426,"Ġheight":5427,"Ġprotect":5428,"Ġentirely":5429,"Ġtouchdown":5430,"Ġcontaining":5431,"Ġcultural":5432,"Ġdefence":5433,"Ġfinish":5434,"Ġtry":5435,"water":5436,"Ġcontributed":5437,"Ġorchest":5438,"ĠSingap":5439,"oh":5440,"Ġthemes":5441,"Ġmist":5442,"ĠDevelopment":5443,"ĠLieutenant":5444,"ĠJewish":5445,"ĠLincoln":5446,"illing":5447,"Ġprovides":5448,"Ġyounger":5449,"Ġ58":5450,"Ġflooding":5451,"Ġ1983":5452,"pping":5453,"ĠBrazil":5454,"Ġpurchased":5455,"Ġ74":5456,"room":5457,"Ġdefensive":5458,"Ġmis":5459,"ĠChild":5460,"Ġawards":5461,"Ġatmosp":5462,"Ġconvers":5463,"Ġarrival":5464,"Ġtitles":5465,"Ġscheduled":5466,"inity":5467,"ĠHun":5468,"ulate":5469,"Ġpowers":5470,"ĠCarey":5471,"ĠOffice":5472,"icial":5473,"Ġresemb":5474,"Ġ1969":5475,"ĠFrancisco":5476,"Ġthing":5477,"ĠSingapore":5478,"respond":5479,"Ġaccompanied":5480,"ĠSix":5481,"Ġunus":5482,"rons":5483,"ĠPeople":5484,"Ġintensity":5485,"Ġ1964":5486,"ĠRol":5487,"Ġexpedition":5488,"Ġperfect":5489,"Ġexisting":5490,"agan":5491,"wall":5492,"ĠPot":5493,"Ġquite":5494,"wick":5495,"Ġadvantage":5496,"Ġworth":5497,"Ġ72":5498,"Ġlocations":5499,"ĠHon":5500,"atures":5501,"Ġinteract":5502,"Ġceremony":5503,"Ġdedicated":5504,"Ġperforming":5505,"Ġrequest":5506,"Ġbat":5507,"acted":5508,"ĠDark":5509,"Ġphilos":5510,"Ġsquad":5511,"Ġextrem":5512,"Ġcomputer":5513,"ĠBor":5514,"ker":5515,"ĠTam":5516,"Ġ1914":5517,"ĠTurn":5518,"ĠLis":5519,"Ġoccupied":5520,"Ġstore":5521,"ĠKey":5522,"ĠHMS":5523,"ĠDisney":5524,"Ġty":5525,"laim":5526,"Ġfresh":5527,"Ġwhy":5528,"ĠâĪ":5529,"dy":5530,"Ġmounted":5531,"Ġcarry":5532,"Ġ1918":5533,"Station":5534,"iling":5535,"Ġboats":5536,"Ġmouth":5537,"ashion":5538,"ĠOrder":5539,"Ġ1971":5540,"ĠPlayStation":5541,"ta":5542,"Ġ1982":5543,"Ġnob":5544,"Ġcurrently":5545,"Ġfix":5546,"usc":5547,"ĠKel":5548,"yles":5549,"ĠMot":5550,"Ġclosely":5551,"ĠDie":5552,"rations":5553,"Ġconsists":5554,"ĠBalt":5555,"fort":5556,"Ġtim":5557,"ĠAnderson":5558,"Ġtail":5559,"Ġ1972":5560,"Ġ1966":5561,"ĠConference":5562,"Ġ1979":5563,"ĠLewis":5564,"Ġ59":5565,"ĠSteve":5566,"mann":5567,"Ġsession":5568,"Ġmic":5569,"Ġlic":5570,"ĠBrook":5571,"ĠMiller":5572,"pper":5573,"Ġcricket":5574,"hens":5575,"Ġindustrial":5576,"ava":5577,"ĠBas":5578,"Ġsimple":5579,"ĠRadio":5580,"Ġvari":5581,"Ġegg":5582,"Ġelimin":5583,"Ġsteam":5584,"Ġcold":5585,"Ġfacilities":5586,"ĠByz":5587,"Ġsupporting":5588,"mouth":5589,"Ġprotection":5590,"ĠOnce":5591,"Ġdrawn":5592,"Ġpiano":5593,"ilton":5594,"ĠSu":5595,"Ġrow":5596,"ĠGrant":5597,"Ġbelong":5598,"ĠOlympic":5599,"Ġrise":5600,"ĠConn":5601,"Ġrated":5602,"Ġdefined":5603,"Ġsubmar":5604,"ware":5605,"ĠPu":5606,"Ġtrains":5607,"Ġselection":5608,"ĠShak":5609,"ĠEmperor":5610,"Ġpros":5611,"ĠBrian":5612,"Ġregions":5613,"Ġ1965":5614,"Ġstructures":5615,"awa":5616,"Ġaid":5617,"Ġprotected":5618,"ĠBarb":5619,"otic":5620,"Ġharm":5621,"Ġcalls":5622,"iro":5623,"Ġfocused":5624,"Ġthrow":5625,"Ġ#":5626,"Ġhair":5627,"ĠRailway":5628,"gest":5629,"Ġmotion":5630,"Ġreceiving":5631,"Ġengaged":5632,"Ġshooting":5633,"Ġcomic":5634,"verse":5635,"ĠPress":5636,"ba":5637,"Ġlabor":5638,"ĠNHL":5639,"Ġadap":5640,"Ġopportunity":5641,"Ġlap":5642,"Ġ1975":5643,"ingly":5644,"ĠGib":5645,"Ġcorrespond":5646,"Ġ99":5647,"ĠMu":5648,"iration":5649,"ĠGulf":5650,"Ġanalysis":5651,"Ġstrengthen":5652,"Ġshark":5653,"Ġmotor":5654,"ua":5655,"osa":5656,"Ġsport":5657,"ĠSummer":5658,"Ġnotable":5659,"uzz":5660,"Ġcitizens":5661,"Ġobserv":5662,"Ġexperienced":5663,"Ġmountain":5664,"Ġconference":5665,"ĠJr":5666,"Ġholding":5667,"ĠWater":5668,"sey":5669,"ĠWalter":5670,"ĠHollywood":5671,"ĠAv":5672,"ults":5673,"Ġsoutheast":5674,"Ã¸":5675,"Ġeyes":5676,"ĠGermans":5677,"ĠLab":5678,"Ġproviding":5679,"ĠInc":5680,"Ġresident":5681,"ĠOnly":5682,"inth":5683,"olid":5684,"inger":5685,"ĠHan":5686,"Ġrapidly":5687,"ĠAtt":5688,"Ġvisual":5689,"ĠSerb":5690,"Ġcasualties":5691,"Ġviewed":5692,"Ġhired":5693,"ading":5694,"Ġ1974":5695,"Ġbranch":5696,"Ġmut":5697,"FL":5698,"Ġmerch":5699,"Ġcharts":5700,"ifically":5701,"unior":5702,"ĠDavis":5703,"opher":5704,"Ġtransform":5705,"Ġalle":5706,"Ġrecognized":5707,"Ġ1973":5708,"ĠSpecial":5709,"Ġvac":5710,"heim":5711,"Ġrob":5712,"Ġ63":5713,"ĠDemocratic":5714,"ĠUN":5715,"Ġ77":5716,"Ġsites":5717,"Ġscholars":5718,"Ġvolume":5719,"iler":5720,"ĠReview":5721,"burgh":5722,"Ġsteel":5723,"Ġreaction":5724,"Ġparallel":5725,"essed":5726,"Ġ73":5727,"Ġgain":5728,"ĠRome":5729,"Ġconcer":5730,"ĠKir":5731,"ĠBetween":5732,"ĠDown":5733,"Ġshared":5734,"Ġprote":5735,"Ġteach":5736,"Ġhyp":5737,"ĠFall":5738,"Ġedge":5739,"Ġcart":5740,"Ġpublication":5741,"ĠJean":5742,"Ġ1976":5743,"Ġmoder":5744,"Ġtemperature":5745,"Ġdigital":5746,"Ġeconomy":5747,"Ġdeveloping":5748,"roll":5749,"ĠTen":5750,"Ġintersection":5751,"Ġheads":5752,"ĠBank":5753,"Ġcool":5754,"ĠProv":5755,"ĠNaz":5756,"standing":5757,"box":5758,"ĠNap":5759,"friend":5760,"Ġsymbol":5761,"Ġsecondary":5762,"zen":5763,"Ġapproved":5764,"yer":5765,"ĠGord":5766,"ĠLady":5767,"Ġlosses":5768,"Ġchance":5769,"ĠPrinc":5770,"ali":5771,"Ġvon":5772,"Ã¡n":5773,"Ġhydro":5774,"Ġrac":5775,"omew":5776,"itors":5777,"ĠMas":5778,"ĠOb":5779,"ologist":5780,"Ġwitness":5781,"Ġprepared":5782,"Ġcontest":5783,"Ġenl":5784,"Ġsubstant":5785,"oncÃ©":5786,"Ġbelief":5787,"ĠDaily":5788,"iful":5789,"rence":5790,"rant":5791,"Ġsignificantly":5792,"Ġmyth":5793,"ĠWomen":5794,"ographic":5795,"Ġletters":5796,"ĠPhilipp":5797,"ĠMusl":5798,"Ġsort":5799,"Ġbands":5800,"ĠSyd":5801,"onder":5802,"Ġdomestic":5803,"achus":5804,"Ġcard":5805,"asty":5806,"Ġ250":5807,"Ġsave":5808,"Ġinstruct":5809,"Ġdescend":5810,"Ġunsuccess":5811,"Ġknew":5812,"Ġsouthwest":5813,"ĠCommand":5814,"Ġ67":5815,"Ġfranchise":5816,"Ġtank":5817,"Ġliterature":5818,"unte":5819,"ryst":5820,"Ġgoes":5821,"Ġroughly":5822,"eral":5823,"aka":5824,"break":5825,"ĠMain":5826,"Ġpainting":5827,"Ġsemi":5828,"ĠBeyoncÃ©":5829,"Ġactress":5830,"Ġassault":5831,"Ġtechnology":5832,"ora":5833,"ĠColonel":5834,"enc":5835,"Ġurban":5836,"theless":5837,"Ġpitch":5838,"Ġadvent":5839,"range":5840,"Ġanything":5841,"Ġprojects":5842,"Ġcab":5843,"Ġcore":5844,"ĠIndust":5845,"ĠNick":5846,"Ġbrothers":5847,"Ġcars":5848,"ĠBern":5849,"ĠPoint":5850,"ĠPlan":5851,"Ġadult":5852,"Ġresistance":5853,"Ġlb":5854,"Ġshape":5855,"Ġexact":5856,"Ġgameplay":5857,"ella":5858,"ients":5859,"Ġstoryline":5860,"ĠSupreme":5861,"Ġemployed":5862,"ĠKentucky":5863,"ĠIV":5864,"ropri":5865,"ads":5866,"iminal":5867,"Ġinjured":5868,"ulpt":5869,"ĠVar":5870,"Ġreasons":5871,"Ġrules":5872,"ĠWhit":5873,"ĠIndepend":5874,"Ġdaily":5875,"Ġagent":5876,"Ġ1946":5877,"ĠStation":5878,"ĠSpring":5879,"Ġign":5880,"Ġshall":5881,"Ġ1981":5882,"ĠFair":5883,"Ġwatched":5884,"Ġ82":5885,"Ġ96":5886,"Ġpopularity":5887,"ira":5888,"Ġfit":5889,"ĠBall":5890,"Ġisol":5891,"Ġ68":5892,"agement":5893,"onym":5894,"Ġcomposition":5895,"Ġperhaps":5896,"Ġadding":5897,"Ġdeclined":5898,"ati":5899,"Ġrenamed":5900,"ĠCur":5901,"Ġgetting":5902,"ĠâĪĴ":5903,"ĠRoss":5904,"Ġenjoyed":5905,"Ġcompris":5906,"Ġopinion":5907,"ĠTheat":5908,"oz":5909,"Ġcalc":5910,"ĠNorway":5911,"Ġpoem":5912,"omic":5913,"Ġnor":5914,"Ġshaped":5915,"Ġreputation":5916,"amm":5917,"Ġundert":5918,"Ġconnected":5919,"ĠBase":5920,"Ġ1917":5921,"inking":5922,"Ġconverted":5923,"Ġlov":5924,"ĠMos":5925,"Ġestate":5926,"Ġviews":5927,"Ġmuseum":5928,"ĠMassachus":5929,"bound":5930,"Ġdry":5931,"Ġdrew":5932,"Ġrend":5933,"Ġstages":5934,"ĠOlympics":5935,"ĠPrem":5936,"oir":5937,"ĠImp":5938,"Ġretire":5939,"ceived":5940,"Ġregarding":5941,"ĠGolden":5942,"ĠDream":5943,"ĠMassachusetts":5944,"gal":5945,"osl":5946,"Ġdistingu":5947,"ĠWalk":5948,"iform":5949,"Ġsun":5950,"Ġagricult":5951,"Ġheaded":5952,"Ġallows":5953,"rets":5954,"vest":5955,"Ġbed":5956,"Ġnick":5957,"Ġ87":5958,"han":5959,"ĠSel":5960,"Ġalternative":5961,"Ġjourney":5962,"ules":5963,"Ġmissing":5964,"igg":5965,"ĠVi":5966,"Ġdepth":5967,"Ġcited":5968,"Ġturning":5969,"ĠAbb":5970,"ĠSus":5971,"Ġincreasingly":5972,"athan":5973,"ato":5974,"eper":5975,"ko":5976,"ĠLet":5977,"Ġapproached":5978,"osis":5979,"Ġplanning":5980,"ĠRon":5981,"Ġ160":5982,"Ġresponded":5983,"ĠAirport":5984,"Ġstadium":5985,"ĠHart":5986,"Ġknowledge":5987,"Ġ1948":5988,"Ġoverl":5989,"Ġexerc":5990,"ilding":5991,"eman":5992,"Ġwealth":5993,"Ġeasily":5994,"Ġ700":5995,"Ġfashion":5996,"olt":5997,"Ġescort":5998,"Ġconstitution":5999,"Ġcollected":6000,"Ġequal":6001,"ĠAbout":6002,"Ġsucceeded":6003,"Ġrebu":6004,"psons":6005,"Ġintroduction":6006,"ĠKen":6007,"Ġcells":6008,"unicip":6009,"Ġsustained":6010,"mod":6011,"Ġtrip":6012,"Ġexistence":6013,"ignment":6014,"ĠBal":6015,"Ġflu":6016,"Ġpul":6017,"Ġoccas":6018,"ĠImperial":6019,"Ġsafety":6020,"Ġauth":6021,"Ġlearned":6022,"ĠSimpsons":6023,"Ġtall":6024,"ĠRun":6025,"Ġ69":6026,"wise":6027,"Ġoperating":6028,"ĠInit":6029,"Ġmodels":6030,"Ġcolle":6031,"Ġ1978":6032,"hi":6033,"Ġcarrying":6034,"rett":6035,"Ġpromotion":6036,"mitted":6037,"Ġyouth":6038,"ĠVietnam":6039,"Ġ78":6040,"uration":6041,"Ġshowing":6042,"Ġbaseball":6043,"Ġlimit":6044,"engers":6045,"ĠMcG":6046,"Ġburied":6047,"ĠSongs":6048,"eg":6049,"iger":6050,"Ġexchange":6051,"onia":6052,"Ġ91":6053,"Ġweakened":6054,"come":6055,"leton":6056,"Ġpaint":6057,"Ġcredited":6058,"ĠAD":6059,"Ġseems":6060,"ĠLoc":6061,"Ġ1915":6062,"Ġhumans":6063,"ĠCape":6064,"Ġimprove":6065,"Ġdepend":6066,"Ġimpl":6067,"state":6068,"Ġdesigns":6069,"Ġarranged":6070,"Ġfreeway":6071,"ĠJay":6072,"Ġjoint":6073,"ĠShortly":6074,"Ġathlet":6075,"Ġlandfall":6076,"Ġrhy":6077,"Ġproducing":6078,"Ġshel":6079,"Ġearliest":6080,"ĠSydney":6081,"Ġproceed":6082,"ĠOttoman":6083,"Ġvan":6084,"Ġflat":6085,"inary":6086,"eler":6087,"oli":6088,"istan":6089,"Ġnote":6090,"Ġsculpt":6091,"Ġlasted":6092,"Ġsettlement":6093,"acts":6094,"Ġretained":6095,"ĠWho":6096,"ĠPict":6097,"Ġ1977":6098,"Ġton":6099,"ĠNaval":6100,"ĠMoore":6101,"ĠPoland":6102,"Ġacres":6103,"Ġdescription":6104,"put":6105,"Ġ94":6106,"ĠRoy":6107,"ĠRem":6108,"Ġbrand":6109,"issance":6110,"ĠMaryland":6111,"AR":6112,"ĠCra":6113,"rell":6114,"ivered":6115,"Äģ":6116,"Ġreserve":6117,"ĠMTV":6118,"ĠStew":6119,"ivalent":6120,"bell":6121,"Ġlaws":6122,"Ġappoint":6123,"Ġassistant":6124,"Ġreplace":6125,"Ġconsc":6126,"ources":6127,"Ġpatrol":6128,"Ġinstall":6129,"Ġ81":6130,"Ġgenre":6131,"insula":6132,"Ġplayoff":6133,"Ġprograms":6134,"ader":6135,"Ġvirt":6136,"Ġcatch":6137,"Ġcoastal":6138,"Ġviolence":6139,"Ġ98":6140,"Ġentrance":6141,"Ġstatement":6142,"Ġhits":6143,"Ġ1963":6144,"ĠJes":6145,"Ġapplied":6146,"ĠArts":6147,"Ġsynt":6148,"Ġconsequ":6149,"Ġneut":6150,"iege":6151,"Ġtrust":6152,"Ġscientific":6153,"othes":6154,"Ġtick":6155,"ĠPass":6156,"avig":6157,"math":6158,"pet":6159,"ĠRid":6160,"Ġexclus":6161,"tical":6162,"ĠRhodes":6163,"Ġbattery":6164,"Ġdelivered":6165,"ĠGreg":6166,"Ġ1916":6167,"Ġsections":6168,"ĠFire":6169,"Ġuns":6170,"Ġcandidate":6171,"Ġindicated":6172,"Ġstopped":6173,"time":6174,"Ġtowns":6175,"Ġgradually":6176,"Ġtact":6177,"Ġitems":6178,"izations":6179,"Ġpolitics":6180,"lan":6181,"Ġban":6182,"ĠBowl":6183,"ĠEdu":6184,"ĠAri":6185,"lee":6186,"eke":6187,"oard":6188,"Ġbask":6189,"Ġsupplies":6190,"Ġdistribution":6191,"Ġfilled":6192,"ĠIG":6193,"Ġdetails":6194,"Ġindependence":6195,"ĠConfeder":6196,"eless":6197,"AT":6198,"ela":6199,"Ġselect":6200,"mun":6201,"Ġ71":6202,"Ġstream":6203,"Ġcombination":6204,"ĠJan":6205,"Ġways":6206,"Ġemp":6207,"Å¡":6208,"ushing":6209,"ĠMulder":6210,"Ġcinem":6211,"ĠBon":6212,"Ġglass":6213,"ĠGordon":6214,"Ġengines":6215,"Ġparties":6216,"Ġcamera":6217,"reets":6218,"ĠStadium":6219,"Ġappeal":6220,"phoon":6221,"ĠBand":6222,"ender":6223,"Ġprisoners":6224,"ÅĤ":6225,"Ġ1919":6226,"Ġ1962":6227,"emies":6228,"Ġ89":6229,"Ġregister":6230,"Ġcampus":6231,"ĠAC":6232,"ĠWell":6233,"Ġsecure":6234,"Ġentitled":6235,"Ġextremely":6236,"iversary":6237,"Ġacts":6238,"Ġwars":6239,"Ġmig":6240,"Ġregiment":6241,"rec":6242,"ropol":6243,"Ġfinding":6244,"ĠTheatre":6245,"ador":6246,"ĠRa":6247,"Ġevening":6248,"Ġinvestigation":6249,"Ġtal":6250,"Ġonline":6251,"ĠStaff":6252,"Ġdecade":6253,"poration":6254,"Ġwinner":6255,"ĠProf":6256,"inois":6257,"ĠUnivers":6258,"Ġadapted":6259,"Ġ1938":6260,"iques":6261,"ĠCop":6262,"ĠKim":6263,"Ġbought":6264,"Ġarc":6265,"acter":6266,"Ġ88":6267,"Ġsurvived":6268,"Ġknots":6269,"Ġsomew":6270,"Ġthreatened":6271,"Ġdeaths":6272,"Ġruled":6273,"Ġmessage":6274,"Ġwrites":6275,"ashed":6276,"Ġroutes":6277,"ĠAnth":6278,"iat":6279,"ĠBir":6280,"Ġconsum":6281,"Ġstudied":6282,"Ġrelief":6283,"Ġreligion":6284,"ja":6285,"Ġaddress":6286,"ĠJustice":6287,"ĠVill":6288,"Ġproposal":6289,"Ġfear":6290,"Ġdownload":6291,"ĠInstead":6292,"ĠNic":6293,"Ġtanks":6294,"ano":6295,"Ġvoted":6296,"Ġreduce":6297,"ĠPo":6298,"met":6299,"Ġspecifically":6300,"ighters":6301,"Ġcrown":6302,"Ġmales":6303,"ieval":6304,"Ġphase":6305,"ĠMemorial":6306,"Ġrevolution":6307,"BS":6308,"Ġspons":6309,"bourne":6310,"Ġfict":6311,"Ġkingdom":6312,"ĠAge":6313,"Ġrecalled":6314,"Ġportrayed":6315,"Ġec":6316,"Ġcontroversy":6317,"BN":6318,"Ġduty":6319,"Ġimplement":6320,"ĠCirc":6321,"ctions":6322,"ĠHere":6323,"hat":6324,"Ġemerg":6325,"Ġsoul":6326,"ĠAst":6327,"adow":6328,"apes":6329,"Ġble":6330,"Ġcauses":6331,"Ġeverything":6332,"Ġbottom":6333,"Ġstret":6334,"Ġ130":6335,"Ġcapable":6336,"ervative":6337,"chers":6338,"Ġconvin":6339,"Ġ175":6340,"ician":6341,"Ġreferences":6342,"Ġ1956":6343,"Ġsell":6344,"ĠKong":6345,"Ġimportance":6346,"aug":6347,"Ġago":6348,"Ġbreeding":6349,"Ġet":6350,"ĠTony":6351,"ĠColl":6352,"Ġoffers":6353,"Ġteacher":6354,"ridges":6355,"ĠMcK":6356,"Ġcrossed":6357,"Ġarrested":6358,"ĠDirector":6359,"ĠSingles":6360,"Ġ79":6361,"Ġmeters":6362,"Ġentry":6363,"entially":6364,"Ġsufficient":6365,"ĠNel":6366,"bro":6367,"ĠPower":6368,"ĠUr":6369,"ĠId":6370,"senal":6371,"Ġclimb":6372,"ĠOd":6373,"ĠMoon":6374,"Ġadmitted":6375,"Ġinternal":6376,"Ġopera":6377,"arp":6378,"ĠOk":6379,"ĠAdams":6380,"Ġcorner":6381,"Ġnomination":6382,"Ġmort":6383,"Ġowner":6384,"uro":6385,"ĠDougl":6386,"bar":6387,"ĠJane":6388,"ĠAlan":6389,"Ġequipped":6390,"Ġinstalled":6391,"Ġproducts":6392,"Ġoverse":6393,"Ġconcerns":6394,"Ġcopy":6395,"Ġbor":6396,"Ġ1936":6397,"ĠJord":6398,"Ġstarts":6399,"ructure":6400,"ĠIGN":6401,"ĠAlf":6402,"ĠBeach":6403,"Ġconvoy":6404,"ĠCritical":6405,"Ġpreced":6406,"wich":6407,"andy":6408,"Ġconqu":6409,"Ġautom":6410,"ĠHamilton":6411,"ranean":6412,"Ġinvited":6413,"Ġsnow":6414,"hr":6415,"Ġtell":6416,"Ġupgrad":6417,"aki":6418,"ĠEngine":6419,"Ġones":6420,"Ġunl":6421,"ansas":6422,"Ġprincipal":6423,"Ġshut":6424,"Ġcrime":6425,"ĠSimon":6426,"ĠUTC":6427,"Ġinterested":6428,"Ġretreat":6429,"Ġremainder":6430,"Ġrecommended":6431,"ĠInt":6432,"ĠGram":6433,"ĠMaria":6434,"ĠPlot":6435,"espread":6436,"Ġalt":6437,"Ġacid":6438,"Ġstock":6439,"ĠYour":6440,"Ġactual":6441,"ĠAdam":6442,"Ġfly":6443,"Ġ92":6444,"ca":6445,"Ġvent":6446,"Ġ93":6447,"ĠVII":6448,"Ġmedal":6449,"Ġsolid":6450,"ĠTrack":6451,"Ġcharged":6452,"Ġapart":6453,"Ġdoor":6454,"Ġconsisting":6455,"ĠForest":6456,"ilation":6457,"ĠDeath":6458,"Ġfunds":6459,"Ġ1961":6460,"osaurus":6461,"iy":6462,"mb":6463,"vis":6464,"ĠIndones":6465,"Ġpromote":6466,"Ġprice":6467,"Ġmilit":6468,"Ġobjects":6469,"Ġ84":6470,"ĠBos":6471,"Ġconsiderable":6472,"ĠCart":6473,"Ġgall":6474,"ĠVideo":6475,"Ġcomposer":6476,"Ġdates":6477,"aked":6478,"Ġfemales":6479,"ĠNBA":6480,"ĠFA":6481,"Ġpage":6482,"ĠFound":6483,"ĠProg":6484,"ĠWWE":6485,"erted":6486,"ĠGen":6487,"Ġgrounds":6488,"ĠNether":6489,"Ġ1953":6490,"hus":6491,"Ġpoly":6492,"ĠToday":6493,"Ġblow":6494,"iller":6495,"Ġduties":6496,"rete":6497,"Ġextension":6498,"Ġtypical":6499,"Ġcong":6500,"ĠMilitary":6501,"ĠTransport":6502,"ĠHitler":6503,"ĠGun":6504,"Ġcorrect":6505,"Ġrural":6506,"Ġsomeone":6507,"cks":6508,"ĠKennedy":6509,"BI":6510,"Ġeighth":6511,"Ġevolution":6512,"ĠSunday":6513,"Ġimages":6514,"Ġdecades":6515,"ĠProject":6516,"ĠHoward":6517,"ĠMarc":6518,"Ġsole":6519,"Ġzone":6520,"Ġpenal":6521,"vements":6522,"Ġdriving":6523,"ĠIndiana":6524,"Ġspin":6525,"Ġhotel":6526,"king":6527,"osite":6528,"ĠPit":6529,"Ġidentity":6530,"ĠTa":6531,"Ġlane":6532,"Ġreading":6533,"AAF":6534,"Ġchallenge":6535,"ĠNorwe":6536,"hetic":6537,"Ġoccurs":6538,"ĠHou":6539,"add":6540,"Ġremix":6541,"Ġmanner":6542,"ĠLeon":6543,"Ġsubs":6544,"Ġpermanent":6545,"Ġfrag":6546,"ĠScully":6547,"Ġbrigade":6548,"Ġham":6549,"ĠFive":6550,"Ġaspects":6551,"Ġdated":6552,"Ġskin":6553,"ĠTar":6554,"ĠBry":6555,"Ġ1947":6556,"Ġtow":6557,"Ġaer":6558,"Ġvolcan":6559,"ĠKat":6560,"ĠCult":6561,"Ġnoting":6562,"Ġslowly":6563,"Ġ1958":6564,"regon":6565,"Ġcolour":6566,"Ġarmor":6567,"ĠBrist":6568,"Ġvir":6569,"Ġposted":6570,"ĠPortug":6571,"Ġrestaur":6572,"ĠGill":6573,"ubb":6574,"ez":6575,"Ġvessels":6576,"ensus":6577,"ĠMountain":6578,"after":6579,"ione":6580,"ĠScient":6581,"Ġspeak":6582,"ĠTurk":6583,"Ġ1910":6584,"ĠPear":6585,"Ġ110":6586,"Ġclean":6587,"iley":6588,"Ġ86":6589,"Ġsupporters":6590,"aware":6591,"ĠBa":6592,"ivals":6593,"ĠDrag":6594,"cknow":6595,"Ġinvolving":6596,"Ġentering":6597,"Ġdescribing":6598,"Ġ1957":6599,"ĠAk":6600,"Ġbra":6601,"ĠAssembly":6602,"Ġenemies":6603,"ĠResearch":6604,"ĠRose":6605,"ĠScience":6606,"veland":6607,"Ġdepartment":6608,"nic":6609,"ĠSpace":6610,"Ġequivalent":6611,"Ġobtained":6612,"Ġ1937":6613,"ĠConstitution":6614,"Ġdebate":6615,"Ġmemorial":6616,"Ġdress":6617,"Ġaccur":6618,"Ġclasses":6619,"ĠRyan":6620,"Ġsettled":6621,"orney":6622,"Ġoldest":6623,"ĠHug":6624,"ĠDisc":6625,"Ġdin":6626,"risis":6627,"Ġpurchase":6628,"Ġwidespread":6629,"ĠMagazine":6630,"fl":6631,"Ġsongwrit":6632,"Ġbasic":6633,"Ġtele":6634,"ĠRolling":6635,"Ġdecline":6636,"ĠArgent":6637,"ĠIra":6638,"agues":6639,"Ġparliament":6640,"ĠPier":6641,"ĠOregon":6642,"Ġattached":6643,"Ġincome":6644,"Ġdecor":6645,"erto":6646,"Ġfaith":6647,"Ġconcerned":6648,"ĠLenn":6649,"Ġdeparture":6650,"heastern":6651,"Ġformal":6652,"Ġfolk":6653,"Ġconnection":6654,"ĠCleveland":6655,"ĠIllinois":6656,"Ġpup":6657,"Ġaccused":6658,"ĠThroughout":6659,"cation":6660,"Ġrecognition":6661,"ĠDouglas":6662,"ophy":6663,"Ġcertified":6664,"Ġinteg":6665,"hered":6666,"Ġnest":6667,"Ġdeleg":6668,"Ġha":6669,"Ġ<":6670,"ĠNow":6671,"Ġouter":6672,"Ġdisturb":6673,"rates":6674,"Ġsequel":6675,"Ġderived":6676,"ĠWeekly":6677,"ĠRele":6678,"Ġcommitted":6679,"icit":6680,"ĠSav":6681,"iot":6682,"Ġmode":6683,"aret":6684,"ĠStand":6685,"Ġacknow":6686,"Ġassumed":6687,"Ġ1959":6688,"ĠAndy":6689,"ooth":6690,"Ġswim":6691,"Ġhosted":6692,"Ġwearing":6693,"ĠâĢĿ":6694,"ĠFamily":6695,"ĠStanley":6696,"ĠJordan":6697,"western":6698,"Ġwed":6699,"ĠFreder":6700,"Ġsegment":6701,"Ġfoss":6702,"Ġreturns":6703,"wan":6704,"Ġtorn":6705,"Ġhip":6706,"Ġcharges":6707,"ĠFeder":6708,"Ġsurvey":6709,"ekend":6710,"Ġchampion":6711,"Ġacclaim":6712,"Ġtemple":6713,"Ġhang":6714,"ĠMediter":6715,"ĠThird":6716,"Ġliterary":6717,"ĠArsenal":6718,"Ġvalley":6719,"ĠMedia":6720,"ĠRoger":6721,"ĠDal":6722,"Ġflo":6723,"Ġdenied":6724,"ĠLow":6725,"Ġterminus":6726,"Ġfine":6727,"Ġpopulations":6728,"Ġtransition":6729,"ĠTreat":6730,"ĠTenn":6731,"ĠPhilip":6732,"ĠKevin":6733,"Ġsessions":6734,"ĠRecording":6735,"agonist":6736,"ĠMediterranean":6737,"ĠBeatles":6738,"Ġregional":6739,"ĠBruce":6740,"Ġcanc":6741,"Ġcircum":6742,"Ġthousands":6743,"Ġsupposed":6744,"Ġ1955":6745,"ĠEs":6746,"Ġ1954":6747,"ĠâĢľ":6748,"Ġwarm":6749,"ĠISBN":6750,"ĠNorwegian":6751,"ĠBristol":6752,"Ġdemand":6753,"Ġintelligence":6754,"Ġdowntown":6755,"Ġans":6756,"Ġshots":6757,"iva":6758,"Ġcommit":6759,"Ġstrongly":6760,"RA":6761,"ĠAz":6762,"ĠRain":6763,"Ġwickets":6764,"ĠDig":6765,"udden":6766,"hedral":6767,"Ġsailed":6768,"ĠDer":6769,"ĠFederal":6770,"Ġpassengers":6771,"Ġcirculation":6772,"heme":6773,"emed":6774,"ĠBush":6775,"Ġpossibility":6776,"Ġgeneration":6777,"Ġhill":6778,"Ġfreedom":6779,"organ":6780,"Ġcloud":6781,"Ġfictional":6782,"achel":6783,"Ġthirty":6784,"ĠHo":6785,"Ġanimated":6786,"Ġhope":6787,"vens":6788,"ĠChannel":6789,"rage":6790,"Ġreplacement":6791,"IA":6792,"Ġcommanded":6793,"eing":6794,"ĠMexican":6795,"Ġrich":6796,"Ġbegun":6797,"Ġassistance":6798,"ito":6799,"Ġbehavior":6800,"ĠBol":6801,"Ġminister":6802,"Ġmissions":6803,"ĠKorea":6804,"Ġdestruction":6805,"ĠWeb":6806,"Ġfruit":6807,"Ġcrash":6808,"Ġmissed":6809,"Ġcriminal":6810,"atinum":6811,"borne":6812,"mes":6813,"ami":6814,"ĠÃĹ":6815,"orced":6816,"ĠPur":6817,"ĠRaj":6818,"Ġmoves":6819,"ĠRow":6820,"Ġexception":6821,"Ġtied":6822,"Ġvolunte":6823,"lig":6824,"ĠWithin":6825,"char":6826,"ĠColor":6827,"ĠCas":6828,"ĠConc":6829,"Ġcosts":6830,"Ġbringing":6831,"ĠMaster":6832,"upt":6833,"Ġintention":6834,"Ġhighlight":6835,"Ġfeeling":6836,"elsh":6837,"ĠNar":6838,"Ġalleged":6839,"Ġfinishing":6840,"ĠBah":6841,"ĠEric":6842,"isms":6843,"ĠAdditionally":6844,"Ġrecovered":6845,"Ġunusual":6846,"Ġspeaking":6847,"Ġdemol":6848,"ĠFame":6849,"Ġshop":6850,"ĠSab":6851,"oral":6852,"lets":6853,"Ġserves":6854,"Ġproperties":6855,"Ġstayed":6856,"Ġincorporated":6857,"Ġstrateg":6858,"onto":6859,"Ġattributed":6860,"Ġ83":6861,"Ġbreaking":6862,"aza":6863,"Ġemerged":6864,"Ġsons":6865,"Ġintercept":6866,"Ġopposite":6867,"ĠLisa":6868,"Ġdipl":6869,"Ġ1952":6870,"emeter":6871,"enses":6872,"ĠPhill":6873,"Ġdriven":6874,"Ġtheatre":6875,"riers":6876,"ĠMorris":6877,"rating":6878,"ĠMorgan":6879,"Ġatmosphere":6880,"ĠIron":6881,"Ġchorus":6882,"aire":6883,"ĠRobinson":6884,"othing":6885,"Ġclassic":6886,"Ġoccasionally":6887,"ĠNorman":6888,"ĠPrior":6889,"ĠKr":6890,"Ġready":6891,"olec":6892,"ĠEle":6893,"Ġestablishment":6894,"Ġcavalry":6895,"Ġspok":6896,"umin":6897,"ĠEver":6898,"Ġregularly":6899,"Ġcourts":6900,"Ġeffectively":6901,"Ġdissip":6902,"Ġsurviving":6903,"Ġvary":6904,"ĠTemple":6905,"Ġdream":6906,"Ġ1933":6907,"thm":6908,"Ġdivers":6909,"Ġresponsibility":6910,"Ġmethods":6911,"Ġprey":6912,"ĠTelevision":6913,"ĠSimilar":6914,"ĠHawai":6915,"ĠSky":6916,"ogen":6917,"Ġsounds":6918,"ĠAround":6919,"Ġshore":6920,"Ġcompletion":6921,"pective":6922,"ĠUnlike":6923,"Ġmaterials":6924,"weight":6925,"Ġsuperv":6926,"Ġ176":6927,"Ġprovince":6928,"ĠConstruction":6929,"don":6930,"ĠCE":6931,"uty":6932,"Ġclassified":6933,"Ġheat":6934,"Ġattracted":6935,"Ġwarning":6936,"Ġfields":6937,"wen":6938,"oslav":6939,"sole":6940,"Ġdivisions":6941,"Ġaccommod":6942,"rim":6943,"ĠGh":6944,"ĠCab":6945,"Ġquant":6946,"Ġentertain":6947,"Ġpersu":6948,"ĠFrancis":6949,"ĠNelson":6950,"ece":6951,"ban":6952,"Ġtechnical":6953,"Ġglobal":6954,"ĠNich":6955,"Ġinterpret":6956,"nold":6957,"ĠFinn":6958,"ĠPatrick":6959,"Ġmo":6960,"Ġdifferences":6961,"inton":6962,"Ġpassage":6963,"AC":6964,"ĠLanc":6965,"ĠAnton":6966,"ĠFord":6967,"abled":6968,"Ġkid":6969,"Ġ1935":6970,"Ġcruiser":6971,"Ġbrain":6972,"icks":6973,"ĠPremier":6974,"Ġnone":6975,"Ġneither":6976,"ĠSweden":6977,"20":6978,"ĠBudd":6979,"ĠDE":6980,"Ġaboard":6981,"ĠTechn":6982,"Ġstood":6983,"ipe":6984,"Ġsam":6985,"ĠMit":6986,"Ġbattleships":6987,"Ġreinforce":6988,"oyd":6989,"Ġ1949":6990,"Ġclubs":6991,"Ġbasketball":6992,"Ġassociation":6993,"Ġ1951":6994,"ĠWelsh":6995,"Ġrooms":6996,"nce":6997,"Ġeleven":6998,"Ġancest":6999,"Ġratings":7000,"nings":7001,"ĠNations":7002,"ĠHell":7003,"Ġmusicians":7004,"idden":7005,"Ġhal":7006,"Ġdesire":7007,"Ġshif":7008,"Ġmedic":7009,"Ġsqu":7010,"Ġrose":7011,"Ġoutbreak":7012,"Ġseparated":7013,"Ġclassification":7014,"Ġclimate":7015,"Ġseemed":7016,"omot":7017,"ĠAnne":7018,"Ġvotes":7019,"teenth":7020,"agle":7021,"Ġpredecess":7022,"ĠToronto":7023,"Ġrequested":7024,"Ã³n":7025,"Ġvehicle":7026,"Ġpicture":7027,"Ġhistorians":7028,"ĠMatthew":7029,"Ġment":7030,"Ġreality":7031,"Ġmemory":7032,"ĠDog":7033,"Ġmovements":7034,"ĠAllen":7035,"ĠProfess":7036,"Ġchemical":7037,"ici":7038,"ĠMarg":7039,"ji":7040,"ĠByzantine":7041,"ewhere":7042,"Ġmap":7043,"Ġhoped":7044,"ĠMarine":7045,"ĠNetherlands":7046,"ĠChron":7047,"ĠBelg":7048,"Ġille":7049,"reck":7050,"abil":7051,"ĠOpen":7052,"Ġraise":7053,"Ġdifficulty":7054,"ĠJournal":7055,"ĠSn":7056,"ogy":7057,"ĠEvery":7058,"Ġrestored":7059,"ĠPow":7060,"ĠSports":7061,"burn":7062,"Ġexpect":7063,"Ġprogramme":7064,"ĠWhe":7065,"inder":7066,"Ġvide":7067,"Ġcommunities":7068,"ĠBang":7069,"ĠUSS":7070,"ige":7071,"Ġremember":7072,"Ġraid":7073,"Ġfer":7074,"Ġteen":7075,"ĠIraq":7076,"Ġflank":7077,"ĠJews":7078,"Ġfal":7079,"Ġpremiere":7080,"Ġdelayed":7081,"Ġdiscovery":7082,"Ġpure":7083,"ĠDean":7084,"ĠJacob":7085,"Ġrelative":7086,"ĠAgain":7087,"Ġanniversary":7088,"Ġinspiration":7089,"Ġgreatly":7090,"Ġinjuries":7091,"har":7092,"Ġgal":7093,"Ġsatisf":7094,"ĠDesign":7095,"Ġotherwise":7096,"ĠBishop":7097,"Ġ1900":7098,"Ġneighbor":7099,"ĠSax":7100,"Ġaccounts":7101,"Ġfunding":7102,"ĠUlt":7103,"Ġdepict":7104,"hire":7105,"ĠDomin":7106,"ilers":7107,"Ġpraise":7108,"Ġsurrounded":7109,"Ġstrate":7110,"iate":7111,"Ġrecru":7112,"Ġdens":7113,"ĠNC":7114,"Ġmassive":7115,"Ġpenalty":7116,"Ġspoke":7117,"Ġpartner":7118,"Ġcrop":7119,"Ġneeds":7120,"Ġclaiming":7121,"Ġtries":7122,"Ġdie":7123,"ĠWright":7124,"Ġsuit":7125,"Ġassemb":7126,"Ġbatting":7127,"Ġweapon":7128,"Ġcrosses":7129,"Ġphotograph":7130,"Ġstrategy":7131,"Ġcra":7132,"Ġlat":7133,"Ġconsp":7134,"Ġforming":7135,"anth":7136,"ĠDor":7137,"Ġwrong":7138,"ĠStra":7139,"Ġastron":7140,"ĠRick":7141,"Ġlegend":7142,"Ġinvolvement":7143,"Ġfled":7144,"Ġaccompl":7145,"Ġstands":7146,"ĠGlob":7147,"Ġdocumentary":7148,"gets":7149,"ĠArmen":7150,"Ġworst":7151,"ĠCroatian":7152,"real":7153,"aired":7154,"ĠDick":7155,"Ġarchitecture":7156,"Ġremn":7157,"ĠHop":7158,"ĠOak":7159,"ĠDa":7160,"Ġtemporary":7161,"Ġash":7162,"uble":7163,"Ġbombard":7164,"Ġchairman":7165,"ĠHeart":7166,"Ġdetermine":7167,"ĠJam":7168,"Ġplane":7169,"Ġenf":7170,"ĠThompson":7171,"going":7172,"Ġdismissed":7173,"uther":7174,"ĠLast":7175,"Ġgirls":7176,"ĠRussell":7177,"Ġrot":7178,"formula":7179,"ĠIslam":7180,"Ġinner":7181,"Ġhear":7182,"Ġweekend":7183,"Ġsale":7184,"ĠTrib":7185,"ĠHend":7186,"Ġconvinced":7187,"rum":7188,"ĠCentre":7189,"Ġensure":7190,"Ġcategory":7191,"Ġreserv":7192,"Ġcul":7193,"Ġ06":7194,"Ġadaptation":7195,"ĠNFL":7196,"ĠMars":7197,"Ġresources":7198,"onds":7199,"Ġsight":7200,"Ġcolonial":7201,"Ġsomewhat":7202,"Ġlibrary":7203,"Ġinterests":7204,"ĠHoly":7205,"lyn":7206,"ĠModern":7207,"Ġstreets":7208,"ĠFree":7209,"Ġimmediate":7210,"wing":7211,"Ġscheme":7212,"ĠCarter":7213,"ĠWinter":7214,"ĠPuerto":7215,"body":7216,"Ġstarred":7217,"ĠFront":7218,"Ġmedieval":7219,"Ġcommemor":7220,"ĠCooper":7221,"agre":7222,"Ġray":7223,"Ġfalling":7224,"ĠKelly":7225,"oster":7226,"Ġabsor":7227,"Ġcarbon":7228,"Ġpresidential":7229,"itzer":7230,"Ġic":7231,"wealth":7232,"ĠKer":7233,"Ġthrone":7234,"ĠSpe":7235,"po":7236,"Ġacademic":7237,"Ġsurviv":7238,"Ġappropri":7239,"Ġclassical":7240,"ĠDra":7241,"ĠAlong":7242,"Ġtechniques":7243,"Ġraces":7244,"Ġsed":7245,"Ġfitted":7246,"Ġmeets":7247,"Ġeggs":7248,"Ġfighter":7249,"aya":7250,"Ġconvent":7251,"Ġori":7252,"Ã±":7253,"icide":7254,"Ġloyal":7255,"Ġninth":7256,"ĠBrother":7257,"ĠHungarian":7258,"ĠRang":7259,"ĠNetwork":7260,"night":7261,"Ġbright":7262,"ĠGard":7263,"ĠNiel":7264,"Ġadults":7265,"ĠPak":7266,"ĠBou":7267,"Ġsuperior":7268,"Ġsubmarine":7269,"ĠNob":7270,"Ġpassenger":7271,"Ġreviewer":7272,"rine":7273,"Ġinterior":7274,"Ġlake":7275,"Ġattacking":7276,"Ġabsence":7277,"Ġseeing":7278,"ester":7279,"Ġ1913":7280,"Ġrenew":7281,"ĠThus":7282,"Ġfavorite":7283,"ĠTok":7284,"ĠWy":7285,"Ġairport":7286,"ĠLabor":7287,"ĠParker":7288,"ivan":7289,"ĠEst":7290,"Ġelse":7291,"ĠGri":7292,"Ġengineer":7293,"Ġpremiered":7294,"bec":7295,"Ġconvection":7296,"Ġsynthes":7297,"Ġalien":7298,"osure":7299,"arsh":7300,"Ġdeemed":7301,"ĠBatman":7302,"Ġvisible":7303,"á»":7304,"Ġdub":7305,"Ġconclusion":7306,"Ġlanded":7307,"ronze":7308,"ĠHarris":7309,"Ġdating":7310,"ĠLate":7311,"ĠAI":7312,"Ġappearing":7313,"Ġ1927":7314,"Ġpartn":7315,"ĠPA":7316,"Ġcharacteristics":7317,"Ġ1926":7318,"Ġrum":7319,"acent":7320,"omp":7321,"Ġoperate":7322,"Ġafterwards":7323,"Ġleads":7324,"Ġromantic":7325,"Ġlies":7326,"ĠBi":7327,"Ġelections":7328,"using":7329,"Ġfacility":7330,"Ġmunicip":7331,"ĠLibrary":7332,"Ġsuffering":7333,"Ġencouraged":7334,"book":7335,"Ġx":7336,"Ġcolony":7337,"Ġtemperatures":7338,"eor":7339,"chang":7340,"Ġmodified":7341,"Ġ1934":7342,"Ġ1921":7343,"ĠMurray":7344,"Ġretirement":7345,"ania":7346,"ĠDNA":7347,"Ġbuy":7348,"Ġdoct":7349,"Ġcredit":7350,"Ġeveryone":7351,"ĠTs":7352,"Ġpainted":7353,"oen":7354,"Ġholds":7355,"Ġcontroversial":7356,"asure":7357,"Ġsan":7358,"ossible":7359,"Ġlegislation":7360,"ĠEducation":7361,"aver":7362,"ĠKnight":7363,"Ġchalleng":7364,"ĠCommonwealth":7365,"Ġattempting":7366,"ĠâĤ":7367,"urches":7368,"Ġbelieves":7369,"roit":7370,"uster":7371,"Ġarchae":7372,"Ġgone":7373,"ĠBerlin":7374,"Ġ08":7375,"ĠPolice":7376,"Ġ900":7377,"Ġwings":7378,"Ġpound":7379,"ĠCommander":7380,"ĠHouston":7381,"Ġod":7382,"Ġcode":7383,"Ġcontinuing":7384,"Ġdistributed":7385,"Ġdominated":7386,"Ġrescue":7387,"ĠBrand":7388,"ĠRAAF":7389,"Ġbattleship":7390,"Ġsecured":7391,"ixon":7392,"Ġdepicted":7393,"aws":7394,"ĠPalace":7395,"ĠSanta":7396,"Ġjudge":7397,"tic":7398,"Ġlooked":7399,"Ġauthors":7400,"Ġanyone":7401,"ĠFI":7402,"apse":7403,"ĠStory":7404,"ĠUt":7405,"Ġ1912":7406,"Ġstandards":7407,"scape":7408,"encies":7409,"eline":7410,"Ġimmig":7411,"ĠAdvent":7412,"ĠÅ":7413,"Ġlongest":7414,"Ġcancer":7415,"Ġgrass":7416,"Ġunsuccessful":7417,"Ġwel":7418,"Ġmonarch":7419,"coming":7420,"ache":7421,"ĠHospital":7422,"Ġrailroad":7423,"Ġhabitat":7424,"Ġwins":7425,"Ġneck":7426,"Ġgraphics":7427,"ĠYug":7428,"Ġobtain":7429,"ĠCook":7430,"ĠMort":7431,"Ġtrained":7432,"ĠLi":7433,"Ġunion":7434,"Ġbiggest":7435,"emetery":7436,"ĠSwedish":7437,"Ġsudden":7438,"ĠGet":7439,"Ġarrangement":7440,"ĠOt":7441,"ĠIndians":7442,"li":7443,"ĠRoberts":7444,"Ġmeasures":7445,"Ġjump":7446,"ĠObs":7447,"ultane":7448,"Ġ1932":7449,"ĠSimpson":7450,"inals":7451,"Ġcarrier":7452,"ĠYan":7453,"ĠEy":7454,"aska":7455,"Ġacknowled":7456,"Ġdeployed":7457,"owa":7458,"Ġnickn":7459,"eenth":7460,"ĠSilver":7461,"opes":7462,"Ġbelt":7463,"ĠLyn":7464,"oming":7465,"ĠCorporation":7466,"Ġinformed":7467,"Ġrepresenting":7468,"ternal":7469,"Ġster":7470,"ĠSocial":7471,"Ġreleases":7472,"Ġachieve":7473,"ching":7474,"ĠWarner":7475,"ture":7476,"hess":7477,"Ġ09":7478,"Ġsees":7479,"Ġcloser":7480,"Ġgarrison":7481,"Ġgenerated":7482,"Ġformerly":7483,"Ġalleg":7484,"ĠMerc":7485,"tenance":7486,"ĠJason":7487,"una":7488,"ĠNBC":7489,"Ġhistoric":7490,"fare":7491,"Ġbab":7492,"ĠYugoslav":7493,"Ġconvention":7494,"Ġstyles":7495,"Ġtrials":7496,"ĠAnthony":7497,"ĠCru":7498,"Ġgrade":7499,"Ġemergency":7500,"Ġgets":7501,"Ġmoderate":7502,"elle":7503,"Ġveter":7504,"Ġinfluential":7505,"Ġbats":7506,"olph":7507,"ĠRAF":7508,"agu":7509,"Ġfestival":7510,"Ġsuccessor":7511,"Ġsiege":7512,"ĠHin":7513,"Ġcycle":7514,"Ġassass":7515,"Ġquestions":7516,"Ġmolec":7517,"otype":7518,"ĠDetroit":7519,"Ġru":7520,"Ġemotional":7521,"ĠCroatia":7522,"Ġowners":7523,"hemat":7524,"ĠTal":7525,"uts":7526,"Ġ1929":7527,"ĠBure":7528,"ĠPC":7529,"Ġinfluences":7530,"Ġnovels":7531,"Ġnarrative":7532,"Ġridge":7533,"Ġwooden":7534,"aria":7535,"Ġthin":7536,"Ġstead":7537,"Ġdefended":7538,"Ġexcess":7539,"ĠAuthor":7540,"Ġconstant":7541,"Ġ1911":7542,"Ġapparently":7543,"ĠGaga":7544,"Ġveget":7545,"Ġvictims":7546,"Ġjournalist":7547,"fire":7548,"Ġexperiences":7549,"Ġdiscussed":7550,"mate":7551,"aints":7552,"ĠChamber":7553,"Ġ140":7554,"Ġchildhood":7555,"Ġdetail":7556,"Ġexecuted":7557,"ĠGilbert":7558,"Ġdiplom":7559,"noon":7560,"Ġeat":7561,"Ġalco":7562,"Ġlegs":7563,"Ġinstruments":7564,"Ġpregn":7565,"ĠRap":7566,"arked":7567,"Ġconcur":7568,"Ġoffices":7569,"Ġtreated":7570,"Ġenvironmental":7571,"yard":7572,"usted":7573,"ĠPrincess":7574,"Ġgiant":7575,"Ġdepos":7576,"Ġmine":7577,"ila":7578,"ĠAsian":7579,"Ġenters":7580,"rams":7581,"ĠSpears":7582,"Ġ1931":7583,"imore":7584,"ĠDesc":7585,"Ġ1922":7586,"Ġcoins":7587,"achment":7588,"obi":7589,"ĠMelbourne":7590,"anny":7591,"30":7592,"Ġfactors":7593,"Ġbear":7594,"ĠVice":7595,"ĠHeavy":7596,"ĠClinton":7597,"Ġhunting":7598,"ĠJesus":7599,"iens":7600,"ĠSomers":7601,"Ġhundreds":7602,"DS":7603,"iliar":7604,"ĠEvans":7605,"Ġchannel":7606,"aste":7607,"ĠUSA":7608,"ĠNielsen":7609,"Ġocean":7610,"ĠPope":7611,"Ġuniform":7612,"Ġresigned":7613,"alo":7614,"Ġgay":7615,"ĠAtlant":7616,"Ġride":7617,"Ġreveals":7618,"ĠOrgan":7619,"ĠGuy":7620,"text":7621,"Ġenh":7622,"ĠXbox":7623,"Ġnavig":7624,"Ġskills":7625,"ĠNevertheless":7626,"Ġprevented":7627,"ĠMun":7628,"ĠBed":7629,"Ġpointed":7630,"Ġclim":7631,"rees":7632,"Ġbon":7633,"ĠWing":7634,"Ġwatching":7635,"Ġpushed":7636,"Ġspend":7637,"rot":7638,"Ġ05":7639,"ĠCategory":7640,"ES":7641,"usic":7642,"Ġchapter":7643,"orous":7644,"Ġdrums":7645,"Ġfacing":7646,"ĠStewart":7647,"Ġintent":7648,"Ġopponents":7649,"Ġhappened":7650,"Ġpreferred":7651,"Ġflew":7652,"ĠMuslim":7653,"ĠReal":7654,"Ġfootage":7655,"Ġfil":7656,"ĠOrigin":7657,"lie":7658,"Ġpull":7659,"Ġdifference":7660,"Ġreportedly":7661,"ĠBulgar":7662,"Ġformat":7663,"Ġformally":7664,"Ġfiring":7665,"icians":7666,"ĠTower":7667,"ĠLim":7668,"Ġpoetry":7669,"Ġaccomp":7670,"Ġcheck":7671,"Ġinhabit":7672,"Ġintense":7673,"Ġlanguages":7674,"ĠTurkish":7675,"Ġthereafter":7676,"oto":7677,"Ġlocomot":7678,"Ġhanded":7679,"Ġthousand":7680,"ĠExpress":7681,"itter":7682,"ogether":7683,"Ġresign":7684,"Ġrelationships":7685,"ĠSarah":7686,"Ġchain":7687,"ĠCarib":7688,"tty":7689,"ĠBenn":7690,"Ġnotably":7691,"ĠAustria":7692,"ĠSamuel":7693,"ski":7694,"ĠRey":7695,"ĠQueens":7696,"Ġdevice":7697,"Ġvisitors":7698,"Ġvision":7699,"ĠLennon":7700,"Ġgather":7701,"Ġexposed":7702,"Ġanimation":7703,"ĠColorado":7704,"Ġexisted":7705,"Ġsurrender":7706,"Ġemployees":7707,"Ġbes":7708,"ĠAud":7709,"ologists":7710,"ĠGreece":7711,"onies":7712,"Ġhearing":7713,"idi":7714,"ĠRaw":7715,"Ġdeparted":7716,"Ġaccompany":7717,"ĠBird":7718,"ĠAlbums":7719,"Ġparticipate":7720,"roc":7721,"Ġlinked":7722,"Ġ170":7723,"ĠBaltimore":7724,"ĠHans":7725,"mad":7726,"ois":7727,"hatt":7728,"bean":7729,"ds":7730,"Ġrebell":7731,"Ġdialogue":7732,"olis":7733,"ĠArk":7734,"spec":7735,"yo":7736,"stic":7737,"ĠMalays":7738,"Ġextent":7739,"Ġresidential":7740,"Ġafternoon":7741,"Ġcruisers":7742,"ĠStock":7743,"da":7744,"ican":7745,"Ġinstance":7746,"Ġannounce":7747,"Ġlearning":7748,"Ġsubstantial":7749,"ullivan":7750,"Ġdetailed":7751,"igen":7752,"Ġbeach":7753,"Ġaudio":7754,"ropolitan":7755,"Ġvul":7756,"Ġimpressed":7757,"orage":7758,"ĠWriting":7759,"Ġutil":7760,"ĠCz":7761,"ĠCam":7762,"ĠHorn":7763,"ĠLane":7764,"MA":7765,"jo":7766,"Ġstem":7767,"unes":7768,"Ġuniverse":7769,"Ġavo":7770,"prise":7771,"ĠInitially":7772,"Ġmart":7773,"ĠMarshall":7774,"Ġske":7775,"Ġeasy":7776,"endment":7777,"Ġperiods":7778,"ĠWrestling":7779,"Ġplate":7780,"ĠFoundation":7781,"Ġhuge":7782,"orial":7783,"Ġtempor":7784,"lock":7785,"Ġpublisher":7786,"ĠDave":7787,"Ġenthus":7788,"Ġhat":7789,"ribed":7790,"Ġimprison":7791,"Ġtaught":7792,"Ġterritories":7793,"Ġteeth":7794,"ĠFrederick":7795,"Ġreviewers":7796,"opter":7797,"Ġdriver":7798,"Ġtesting":7799,"ĠErn":7800,"Ġvideos":7801,"viation":7802,"Ġ1928":7803,"Ġhappy":7804,"Ġisolated":7805,"otes":7806,"Ġstable":7807,"Ġfeud":7808,"ogan":7809,"Ġvessel":7810,"iami":7811,"boy":7812,"Ġtests":7813,"Ġca":7814,"Ġupd":7815,"ĠHorse":7816,"Ġbridges":7817,"ĠHaving":7818,"Ġdiameter":7819,"Ġlob":7820,"ĠBanks":7821,"Ġreprodu":7822,"Ġunderstand":7823,"Ġwithdrew":7824,"Ġpicked":7825,"Ġencountered":7826,"Ġupgraded":7827,"roph":7828,"Ġnegotiations":7829,"eping":7830,"Ġagents":7831,"FC":7832,"Ġsympt":7833,"Ġgoods":7834,"Ġinher":7835,"cho":7836,"ĠMario":7837,"ĠSomerset":7838,"ĠRelease":7839,"atically":7840,"ĠAnna":7841,"Ġ1925":7842,"roke":7843,"ĠBuck":7844,"ĠJess":7845,"Ġdangerous":7846,"idae":7847,"Ġaged":7848,"ĠKnow":7849,"Ġsimultane":7850,"Ġ1890":7851,"Ġdiagn":7852,"mission":7853,"Ġjunior":7854,"Ġfounder":7855,"Ġsatell":7856,"Ġnormally":7857,"Ġdeter":7858,"ĠAnglo":7859,"Ġbehavi":7860,"sea":7861,"Ġrelie":7862,"Ġwindow":7863,"Ġfactor":7864,"Ġkeeping":7865,"ĠMississ":7866,"Ġcollaps":7867,"Ġspecimens":7868,"Ġreun":7869,"Ġpartly":7870,"ĠMiami":7871,"utt":7872,"Ġsure":7873,"ĠGiants":7874,"Ġfur":7875,"Ġmedium":7876,"borough":7877,"Ġethnic":7878,"Ġtechnique":7879,"Ġfrequent":7880,"ĠPlayer":7881,"Ġtie":7882,"Ġcrisis":7883,"olas":7884,"Ġpounds":7885,"ĠCall":7886,"Ġmir":7887,"Ġlowest":7888,"etime":7889,"ĠAlab":7890,"ĠExt":7891,"bridge":7892,"Ġvic":7893,"Ġprohib":7894,"Ġmonument":7895,"Ġorganizations":7896,"Ġoutf":7897,"ĠSeattle":7898,"Ġapprec":7899,"Ġ1924":7900,"Ġtoll":7901,"Ġdiet":7902,"Ġengineering":7903,"Ġturrets":7904,"Ġtraveled":7905,"iable":7906,"away":7907,"Ġwhereas":7908,"ĠChampionships":7909,"ĠSoon":7910,"Ġrefers":7911,"chen":7912,"ĠCre":7913,"Ġinsc":7914,"Ġrarely":7915,"ĠOp":7916,"Ġresear":7917,"Ġdesigner":7918,"helm":7919,"Ġtone":7920,"Ġped":7921,"ĠTrek":7922,"usal":7923,"Ġproced":7924,"ĠTreaty":7925,"Ġlose":7926,"Ġvice":7927,"Ġmaintenance":7928,"ĠHuman":7929,"Ġax":7930,"amese":7931,"Ã©e":7932,"iece":7933,"brid":7934,"Ġdoesn":7935,"ĠCR":7936,"ĠHand":7937,"Ġpartially":7938,"Ġ07":7939,"ĠML":7940,"Ġorb":7941,"gery":7942,"Ġpermission":7943,"ĠIowa":7944,"Ġspending":7945,"Ġadvice":7946,"Ġverse":7947,"ĠAlabama":7948,"Ġlad":7949,"Ġcriticised":7950,"Ġbypass":7951,"ennis":7952,"ĠForces":7953,"ĠAustralians":7954,"ĠNapole":7955,"igs":7956,"Ġplatinum":7957,"Ġcomplic":7958,"Ġdifficulties":7959,"xual":7960,"Ġfinale":7961,"ygen":7962,"Ġagree":7963,"Ġrestric":7964,"Ġuncertain":7965,"Ġpolicies":7966,"ls":7967,"oked":7968,"Ġexcell":7969,"Ġfinals":7970,"Ġcompete":7971,"Ġranking":7972,"Ġphen":7973,"Ġproport":7974,"Ġmainstream":7975,"Ġindicate":7976,"col":7977,"Ġpersonality":7978,"Ġunn":7979,"Ġrefuge":7980,"ĠBuff":7981,"ĠHu":7982,"ĠDur":7983,"Ġliqu":7984,"Ġpitched":7985,"ilst":7986,"Ġanticip":7987,"attered":7988,"inction":7989,"Ġconcerts":7990,"ĠThen":7991,"Ġcomments":7992,"Ġrecordings":7993,"Ġremove":7994,"ĠCharlie":7995,"ĠCaribbean":7996,"uscript":7997,"Ġmamm":7998,"Ġshear":7999,"Ġwindows":8000,"Ġcovers":8001,"Ġsafe":8002,"ĠCanal":8003,"ĠMinnes":8004,"Ġsymp":8005,"Ġ1923":8006,"ĠLawrence":8007,"Ġrepair":8008,"Ġstrip":8009,"Ġmoral":8010,"Ġfalls":8011,"Ġrepresentative":8012,"Ġseats":8013,"Ġforcing":8014,"uda":8015,"ĠAh":8016,"Ġrecur":8017,"Ġextreme":8018,"Ġrestrict":8019,"ĠMcD":8020,"ĠYanke":8021,"Ġfighters":8022,"Ġhull":8023,"ĠBros":8024,"Ġrecommend":8025,"Ġrates":8026,"Ġjur":8027,"Ġovers":8028,"ĠCrown":8029,"chell":8030,"ĠMP":8031,"Ġalter":8032,"ĠNat":8033,"power":8034,"Ġprotest":8035,"Ġprompted":8036,"Ġtot":8037,"Ġtruth":8038,"Ġdestroyers":8039,"ĠTownship":8040,"Ġtenth":8041,"rang":8042,"ĠSenator":8043,"Ġdynasty":8044,"enh":8045,"Ġdiff":8046,"Ġdescribe":8047,"ĠMach":8048,"Ġreconst":8049,"Ġunderw":8050,"Ġexamples":8051,"ĠEP":8052,"Ġminimum":8053,"ĠIan":8054,"Ġbases":8055,"Ġtub":8056,"Ġphr":8057,"isd":8058,"Ġpin":8059,"ĠMinistry":8060,"ĠNazi":8061,"mates":8062,"Ġtravelled":8063,"Ġhockey":8064,"Ar":8065,"urance":8066,"Ġchurches":8067,"ĠUSD":8068,"Ġfriendly":8069,"ĠGarden":8070,"ĠBlood":8071,"ĠGrammy":8072,"sk":8073,"ĠBrig":8074,"ifer":8075,"ĠHealth":8076,"ĠDead":8077,"ĠHungary":8078,"Ġneighborhood":8079,"die":8080,"Ġboys":8081,"Ġpric":8082,"imeter":8083,"Ġbombers":8084,"alions":8085,"ĠPolit":8086,"Ġdrawing":8087,"ĠCountry":8088,"ĠÃĨ":8089,"ĠBenj":8090,"ĠChristopher":8091,"mers":8092,"ĠDance":8093,"ĠReturn":8094,"ĠBan":8095,"Ġinaug":8096,"Ġju":8097,"ugby":8098,"Ġdoctor":8099,"Ġmand":8100,"Ġhousing":8101,"Ġdisplayed":8102,"Ġapproval":8103,"Ġtribute":8104,"Ġadjacent":8105,"ĠBelgium":8106,"ĠRoc":8107,"onnaissance":8108,"Ġcollapse":8109,"Ġturb":8110,"Ġcredits":8111,"Ġaware":8112,"eu":8113,"Ġjoining":8114,"Ġlisting":8115,"wa":8116,"ĠHamp":8117,"ods":8118,"Ġ01":8119,"Ġcreator":8120,"Ġgrown":8121,"Ġdesignation":8122,"ĠDiego":8123,"bra":8124,"ĠDC":8125,"ĠEvent":8126,"odore":8127,"ante":8128,"zz":8129,"ĠShakesp":8130,"Ġpartnership":8131,"ĠRand":8132,"Ġadvis":8133,"Ġfung":8134,"ĠCold":8135,"Ġexplo":8136,"Ġprotagonist":8137,"Ġrefere":8138,"iac":8139,"Ġstorms":8140,"Ġmoments":8141,"Äį":8142,"ĠRepresent":8143,"Ġarts":8144,"Ġacted":8145,"Ġcreative":8146,"icy":8147,"ĠMedal":8148,"Ġchanging":8149,"Ġpowered":8150,"ĠGab":8151,"Ġwheel":8152,"ĠMuch":8153,"Ġasks":8154,"Ġ*":8155,"ĠHud":8156,"ãģ":8157,"ĠKal":8158,"ĠLaure":8159,"itud":8160,"Ġrounds":8161,"Ġinstrumental":8162,"ĠChildren":8163,"Ġradar":8164,"Ġtrend":8165,"Ġvictories":8166,"velt":8167,"Ġpossession":8168,"ĠCamer":8169,"ĠLl":8170,"Ġ1908":8171,"Ġdollars":8172,"Ġels":8173,"ĠBeck":8174,"Ġpaintings":8175,"Ġcanal":8176,"Ġtreaty":8177,"Ġappointment":8178,"ounced":8179,"Ġcovering":8180,"ĠKhan":8181,"ĠMichel":8182,"Ġelsewhere":8183,"sters":8184,"Ġ1905":8185,"Ġvillages":8186,"Ġsurvive":8187,"ĠCred":8188,"esh":8189,"Ġminimal":8190,"Ġ1909":8191,"Ġeliminated":8192,"ĠRecord":8193,"otten":8194,"ĠLegacy":8195,"icts":8196,"Ġscientists":8197,"Ġsurprise":8198,"ĠBenjamin":8199,"ĠGuardian":8200,"Ġpool":8201,"Ġinnov":8202,"Ġprecip":8203,"Ã§":8204,"Ġtelling":8205,"ĠKurt":8206,"ĠMinnesota":8207,"ivated":8208,"ĠHills":8209,"Ġoccupation":8210,"Ġseeking":8211,"ĠRoose":8212,"ĠMississipp":8213,"Ġbrick":8214,"Ġhelic":8215,"Ġarriving":8216,"Ġrhythm":8217,"cop":8218,"Ġsuicide":8219,"Ġanaly":8220,"Ġloan":8221,"Ġnewspapers":8222,"Ġemperor":8223,"Ġhelping":8224,"ĠVietnamese":8225,"ecraft":8226,"ĠHockey":8227,"Ġpurposes":8228,"Ġbenefit":8229,"Ġtwin":8230,"Ġsmooth":8231,"ĠAlfred":8232,"Ġvalues":8233,"ĠAR":8234,"Ġoccasions":8235,"ouri":8236,"ĠSet":8237,"Ġgard":8238,"active":8239,"ĠInterstate":8240,"ĠFal":8241,"Ġunlike":8242,"ĠManhatt":8243,"Ġdispute":8244,"ĠAdminist":8245,"ĠHong":8246,"rupted":8247,"Ġfishing":8248,"ĠHind":8249,"ĠDiv":8250,"ĠManhattan":8251,"vy":8252,"Ġoption":8253,"ĠTun":8254,"ĠThor":8255,"Ġdegrees":8256,"ĠStevens":8257,"Ġwet":8258,"Ġ105":8259,"Ġgat":8260,"ĠWalker":8261,"orious":8262,"Ġmurd":8263,"uman":8264,"Ġ125":8265,"Ġsoil":8266,"ographical":8267,"roid":8268,"Ġmanuscript":8269,"no":8270,"ĠLin":8271,"Ġschedule":8272,"Ġstruggle":8273,"Ġbalance":8274,"ĠAff":8275,"ĠFranklin":8276,"Ġ04":8277,"Ġpreserved":8278,"ĠPeninsula":8279,"ĠComb":8280,"rm":8281,"Ġcryst":8282,"overs":8283,"ĠShel":8284,"ĠFlight":8285,"ĠPerform":8286,"ĠSon":8287,"Ġresumed":8288,"ĠAnim":8289,"Ġcircumst":8290,"ĠRoosevelt":8291,"gon":8292,"ĠTrust":8293,"ĠKansas":8294,"Ġ1907":8295,"ĠBh":8296,"acks":8297,"Ġsurvivors":8298,"orph":8299,"Ġpublicly":8300,"Ġcompeted":8301,"ĠÄ":8302,"Ġcateg":8303,"munition":8304,"nik":8305,"Ġflash":8306,"atherine":8307,"Ġcooper":8308,"Ġviolent":8309,"Ġ164":8310,"Ġcandidates":8311,"rix":8312,"Ġhonour":8313,"Ġpy":8314,"rome":8315,"Ġprocl":8316,"Ġintensified":8317,"ĠBull":8318,"ĠWard":8319,"Ġspan":8320,"ishment":8321,"Ġimpossible":8322,"ĠPortland":8323,"Ġpilots":8324,"Ġwrest":8325,"Ġdies":8326,"acle":8327,"ĠFried":8328,"action":8329,"ĠIndustry":8330,"Ġneutral":8331,"Ġwedding":8332,"ĠNash":8333,"Ġbid":8334,"incial":8335,"SP":8336,"ĠIce":8337,"Ġabilities":8338,"Ġcoordin":8339,"Ġcook":8340,"ulating":8341,"Ġbeautiful":8342,"mph":8343,"sky":8344,"Ġalignment":8345,"Ġconcrete":8346,"Ġmulti":8347,"ĠSatur":8348,"oking":8349,"Ġassisted":8350,"ĠHotel":8351,"ĠPhilippines":8352,"ĠBorn":8353,"fted":8354,"ĠVI":8355,"Ġpoison":8356,"Ġargument":8357,"ĠLith":8358,"Ġprosp":8359,"Ġdefeating":8360,"Ġconsult":8361,"Ġadvoc":8362,"Ġelectronic":8363,"obile":8364,"Ġteaching":8365,"Ġnations":8366,"Ġ1880":8367,"ĠBuilding":8368,"ĠDom":8369,"ensions":8370,"Ġsimpl":8371,"Ġbusinesses":8372,"Ġcustom":8373,"isp":8374,"Ġlists":8375,"Ġovert":8376,"ĠPle":8377,"ĠJos":8378,"Ġrivers":8379,"aph":8380,"Ġserial":8381,"ilty":8382,"ĠNative":8383,"Ġ165":8384,"Ġlem":8385,"Ġdiscip":8386,"ĠCole":8387,"Ġdanc":8388,"Ġelabor":8389,"Ġabsol":8390,"ĠWolf":8391,"Ġsuitable":8392,"Ġopponent":8393,"Ġassists":8394,"ĠMississippi":8395,"Ġagricultural":8396,"ĠLam":8397,"ĠBrun":8398,"Ġmines":8399,"Ġencounter":8400,"Ġoxygen":8401,"Ġsubmitted":8402,"Ġfoundation":8403,"Ġinteresting":8404,"Ġtunnel":8405,"eare":8406,"à¤":8407,"Ġsigning":8408,"ĠDigital":8409,"Ġparent":8410,"ĠArea":8411,"Ġbacking":8412,"Ġfifteen":8413,"Ġscholar":8414,"ĠCob":8415,"ĠBlues":8416,"Ġunderstanding":8417,"itated":8418,"CA":8419,"Ġbehalf":8420,"ĠDw":8421,"rows":8422,"iveness":8423,"Ġsunk":8424,"Ġciting":8425,"icer":8426,"ĠHem":8427,"Ġwaves":8428,"Ġgrey":8429,"Ġsank":8430,"ĠWol":8431,"ĠSullivan":8432,"Ġpercentage":8433,"ĠAlexand":8434,"Ġforests":8435,"face":8436,"Ġninet":8437,"Ġammunition":8438,"Ġsymptoms":8439,"ĠShakespeare":8440,"dale":8441,"ĠTag":8442,"Ġorbit":8443,"Ġspiritual":8444,"ctic":8445,"ĠDod":8446,"ĠCampbell":8447,"ĠTenness":8448,"bl":8449,"Ġparish":8450,"unch":8451,"Ġsubjects":8452,"ĠHalo":8453,"Ġforty":8454,"Ġskull":8455,"Ġsituated":8456,"Ġclosing":8457,"ĠAthlet":8458,"Ġimperial":8459,"ĠHindu":8460,"Ġnom":8461,"Ġsigns":8462,"Ġjunction":8463,"ĠVinc":8464,"Ġrepairs":8465,"alities":8466,"ĠProm":8467,"agen":8468,"Ġusual":8469,"ĠKings":8470,"ĠNon":8471,"ĠHero":8472,"onymous":8473,"Ġresolution":8474,"Ġillness":8475,"Ġvoiced":8476,"Ġdeliber":8477,"Ġportra":8478,"ĠSteven":8479,"Ġcorpor":8480,"ĠRab":8481,"asters":8482,"Ġassess":8483,"Ġcontroll":8484,"ĠBox":8485,"Ġfunctions":8486,"Ġaudiences":8487,"Ġattendance":8488,"ĠHistoric":8489,"ĠFriend":8490,"ĠLucas":8491,"10":8492,"ĠRace":8493,"ĠDest":8494,"ĠJosh":8495,"Ġasking":8496,"lah":8497,"Ġdisaster":8498,"ĠEgyptian":8499,"Ġcollaboration":8500,"ĠKu":8501,"Ġrestaurant":8502,"father":8503,"amic":8504,"Ġstring":8505,"Ġfeelings":8506,"Ġsuspended":8507,"ĠMack":8508,"Ġunderground":8509,"Ġflights":8510,"Ġmountains":8511,"Ġlieutenant":8512,"Ġworship":8513,"Ġevil":8514,"amps":8515,"Ġtargets":8516,"Ġcargo":8517,"ĠRen":8518,"Ġaffairs":8519,"Ġexit":8520,"Ġ1870":8521,"ĠTennessee":8522,"Ġearthqu":8523,"Äĥ":8524,"aron":8525,"ĠWarren":8526,"Ġoperational":8527,"Ġiniti":8528,"Ġpron":8529,"Ġwilling":8530,"ĠLouisiana":8531,"ĠMargaret":8532,"rator":8533,"sex":8534,"Ġ1906":8535,"Ġaffair":8536,"Ġrecre":8537,"rus":8538,"ËĪ":8539,"osm":8540,"Ġfuneral":8541,"ĠDepression":8542,"ori":8543,"Ġanch":8544,"Ġaimed":8545,"ĠLabour":8546,"Ġprol":8547,"resents":8548,"Ġ360":8549,"ĠMontreal":8550,"ĠTan":8551,"idd":8552,"Ġcompilation":8553,"ĠMcL":8554,"Ġ1904":8555,"ĠPalest":8556,"Ġpoorly":8557,"Ġdocuments":8558,"Ġabol":8559,"Ġfiled":8560,"uv":8561,"ques":8562,"Ġlect":8563,"Ġmeasured":8564,"uable":8565,"Ġadopt":8566,"ĠMissouri":8567,"Ġsector":8568,"Ġsubt":8569,"Ġaffili":8570,"Ġfavorable":8571,"racts":8572,"Ġregistered":8573,"Ġliked":8574,"rants":8575,"weet":8576,"Ġrecognised":8577,"Ġrout":8578,"Ġelder":8579,"Ġconscious":8580,"Ġcircuit":8581,"ĠApple":8582,"Ġstatue":8583,"Ġtemporarily":8584,"Ġbot":8585,"andal":8586,"Ġexplosion":8587,"ateur":8588,"ĠStat":8589,"Ġshells":8590,"Ġentertainment":8591,"Ġrepresents":8592,"Ġprofessor":8593,"ĠCritics":8594,"ĠNag":8595,"fe":8596,"anium":8597,"Ġjazz":8598,"Ġreplacing":8599,"ĠBilly":8600,"ĠDragon":8601,"ĠMitchell":8602,"ception":8603,"ĠRing":8604,"Ġsequences":8605,"ĠCow":8606,"Ġpreparation":8607,"ĠJoh":8608,"ĠStr":8609,"ĠSmall":8610,"Ġfifty":8611,"inea":8612,"ika":8613,"Ġben":8614,"ĠCzech":8615,"idel":8616,"Ġoffering":8617,"ĠKirk":8618,"Ġartwork":8619,"Ġinterpre":8620,"ĠIndependent":8621,"Ġ03":8622,"overe":8623,"Ġresidence":8624,"Ġrestoration":8625,"ĠSnow":8626,"ĠPed":8627,"Ġcyl":8628,"gate":8629,"Ġrig":8630,"Ġdirectors":8631,"Ġnucle":8632,"ĠGraham":8633,"ĠMess":8634,"ĠVis":8635,"Ġmargin":8636,"ĠBusiness":8637,"Ġwore":8638,"adi":8639,"ĠMes":8640,"Ġterror":8641,"ĠMagn":8642,"ĠFem":8643,"orders":8644,"era":8645,"Ġreluct":8646,"Ġreflected":8647,"ĠNear":8648,"Ġoverw":8649,"Ġprime":8650,"Ġexpensive":8651,"issions":8652,"species":8653,"Ġalliance":8654,"Ġsuggesting":8655,"ĠYe":8656,"Ġtouring":8657,"Ġthinking":8658,"inental":8659,"ĠLov":8660,"Ġcompleting":8661,"artney":8662,"Ġrebuilt":8663,"Ġalcohol":8664,"ancell":8665,"Ġamongst":8666,"Ġbanks":8667,"unc":8668,"bishop":8669,"Ġfrig":8670,"CC":8671,"ĠMaur":8672,"ĠUE":8673,"ĠSeven":8674,"ylan":8675,"Ġhorror":8676,"race":8677,"Ġescaped":8678,"Ġpulled":8679,"Ġbay":8680,"ellect":8681,"quir":8682,"Ġlacked":8683,"ĠAriz":8684,"Ġcancelled":8685,"ĠFrid":8686,"Ġgrav":8687,"ĠCuba":8688,"rep":8689,"ĠEdge":8690,"Ġarmored":8691,"Ġcod":8692,"Ġdimens":8693,"Ġcoverage":8694,"TA":8695,"Ġreven":8696,"Ġwasn":8697,"Ġracing":8698,"Ġamounts":8699,"Ġclearly":8700,"acon":8701,"ĠChand":8702,"Ġdecides":8703,"ĠGuide":8704,"Ġengagement":8705,"Ġpredomin":8706,"Ġtribes":8707,"Ġargues":8708,"Ġerupt":8709,"Ġcolonies":8710,"iph":8711,"Ġdramatic":8712,"Ġgarden":8713,"Ġfamiliar":8714,"Ġcommunication":8715,"apping":8716,"overeign":8717,"Ġpatterns":8718,"Ġcous":8719,"Ġrit":8720,"ĠIndies":8721,"Ġmarks":8722,"ĠPhoen":8723,"ĠFiles":8724,"Ġdrove":8725,"okes":8726,"urally":8727,"Ġownership":8728,"rak":8729,"ĠTamil":8730,"Ġseed":8731,"Ġremnants":8732,"Ġperspective":8733,"Ġmerchant":8734,"ĠCher":8735,"ĠPersian":8736,"uary":8737,"Ġsaved":8738,"ĠSony":8739,"storm":8740,"Ġgang":8741,"ĠGrey":8742,"ĠArizona":8743,"Ġcontributions":8744,"ĠSaturday":8745,"Ġmathemat":8746,"Ġpoems":8747,"Ġsolution":8748,"Ġbadly":8749,"Ġprint":8750,"Ġfastest":8751,"Ġadministrative":8752,"Ġwicket":8753,"Ġfalse":8754,"Ġtag":8755,"Ġexecut":8756,"ĠMarie":8757,"Ġ115":8758,"Ġarmament":8759,"Ġcrews":8760,"Ġplayoffs":8761,"ti":8762,"Ãº":8763,"ĠDylan":8764,"Ġmilitia":8765,"ieties":8766,"Ġexcav":8767,"Ġartistic":8768,"ĠScout":8769,"Ġcharacterized":8770,"Ġbulk":8771,"athy":8772,"Ġboundary":8773,"Ġseverely":8774,"Ġinstitutions":8775,"Ġrising":8776,"Ġearning":8777,"exp":8778,"je":8779,"ses":8780,"Ġflagship":8781,"ĠConfederate":8782,"ĠBureau":8783,"ĠLas":8784,"Ġdisappoin":8785,"fish":8786,"idency":8787,"Ġkings":8788,"Ġretail":8789,"ĠPa":8790,"oga":8791,"Ġdepending":8792,"Ġinhabitants":8793,"Ġnotice":8794,"itting":8795,"Ġbran":8796,"Ġcontext":8797,"ova":8798,"omber":8799,"Ġexplains":8800,"Ġideal":8801,"Ġdistinctive":8802,"bre":8803,"orer":8804,"mented":8805,"Ġfrust":8806,"Ġdemonstrated":8807,"Ġthrew":8808,"Ġinland":8809,"Ġcomparison":8810,"ĠOklah":8811,"Ġbronze":8812,"Ġgenetic":8813,"Ġrestricted":8814,"Ġcondem":8815,"equ":8816,"Ġranks":8817,"Ġbowling":8818,"Ġranging":8819,"cru":8820,"Ġrecip":8821,"Ġarrive":8822,"Ġfallen":8823,"ĠSin":8824,"elli":8825,"Ġearn":8826,"Ġsisters":8827,"ĠAustrian":8828,"Ġcontrols":8829,"ectic":8830,"uations":8831,"Ġquiet":8832,"ivia":8833,"ĠNik":8834,"Ġexplain":8835,"ĠSwitzer":8836,"ĠAmy":8837,"Ġgap":8838,"ĠLang":8839,"Ġmaneu":8840,"Ġloop":8841,"ĠProgram":8842,"ĠSuch":8843,"ĠLiz":8844,"Ġvel":8845,"ĠkW":8846,"Ġobvious":8847,"ĠBroadway":8848,"Ġwider":8849,"life":8850,"Ġpractices":8851,"Ġwants":8852,"Ġelectron":8853,"Ġ1901":8854,"Ġrevol":8855,"Ġ174":8856,"ĠHarvey":8857,"ĠWilhelm":8858,"Ġvulner":8859,"Ġtip":8860,"Ġtrick":8861,"ĠEconom":8862,"formation":8863,"ĠSwitzerland":8864,"Ġshield":8865,"Ġconservative":8866,"Ġriders":8867,"ĠMrs":8868,"ĠMurphy":8869,"Ġfaster":8870,"Ġmental":8871,"lings":8872,"otton":8873,"ĠABC":8874,"Ġacceler":8875,"asts":8876,"ocking":8877,"Ġnorthward":8878,"Ġexhibition":8879,"Ġkit":8880,"Ġmeat":8881,"Ġsynd":8882,"ĠNa":8883,"Ġsurge":8884,"Ġframe":8885,"Ġdistinguished":8886,"Ġplus":8887,"Ġevolved":8888,"Ġspotted":8889,"eton":8890,"ĠBarry":8891,"Ġpace":8892,"oven":8893,"Ġexclud":8894,"ĠDelaware":8895,"Ġreaches":8896,"tha":8897,"Ġmillimet":8898,"Ġsatellite":8899,"pha":8900,"uma":8901,"Ġnominations":8902,"Ġtriple":8903,"anton":8904,"rÃ©":8905,"Ġprepare":8906,"Ġpalace":8907,"Ġapplication":8908,"hu":8909,"Ġagency":8910,"ĠOklahoma":8911,"EC":8912,"Ġgate":8913,"ĠFederation":8914,"Ġwreck":8915,"ĠTel":8916,"inations":8917,"Ġquarterback":8918,"Ġdominant":8919,"Ġstorage":8920,"Ġtex":8921,"Ġhouseholds":8922,"Ġarmour":8923,"sequently":8924,"ruption":8925,"Ġcarriers":8926,"ĠClar":8927,"ĠOriginal":8928,"Ġprotein":8929,"Ġsubspecies":8930,"Ġpredicted":8931,"Ġautobi":8932,"ĠRat":8933,"Ġ02":8934,"Ġtyphoon":8935,"Ġ1903":8936,"ĠBomb":8937,"Ġvs":8938,"Ġslaves":8939,"Ġ155":8940,"Ġattained":8941,"Ġblocks":8942,"urer":8943,"Ġboss":8944,"Ġintellect":8945,"Ġallies":8946,"Ġbattalions":8947,"Ġ1902":8948,"grade":8949,"Ġprinted":8950,"Ġrepeatedly":8951,"eland":8952,"Ġabund":8953,"uki":8954,"Ġpredecessor":8955,"Ġvast":8956,"ĠLithuan":8957,"Ġthor":8958,"Ġfixed":8959,"Ġstores":8960,"Ġstrict":8961,"Ġvertical":8962,"Ġpeaking":8963,"Ġsurgery":8964,"Ġarticles":8965,"ĠPerry":8966,"ĠRidge":8967,"din":8968,"ĠMik":8969,"Ġoutl":8970,"ĠHarv":8971,"Ġtack":8972,"oned":8973,"iders":8974,"Ġyield":8975,"ĠOriginally":8976,"Ġsignal":8977,"Ġexcellent":8978,"riptions":8979,"ĠLeslie":8980,"lus":8981,"ĠAy":8982,"ĠAld":8983,"ĠFif":8984,"Ġwestward":8985,"ĠBaseball":8986,"Ġbombs":8987,"ĠBaby":8988,"Ġphilosophy":8989,"Å«":8990,"Ġillegal":8991,"IS":8992,"rose":8993,"Ġdisagre":8994,"ascar":8995,"imen":8996,"ĠVe":8997,"Ġbiographer":8998,"ĠTokyo":8999,"Ġphenomen":9000,"Ġadventure":9001,"Ġperceived":9002,"Ġpretty":9003,"Ġremarked":9004,"ĠRih":9005,"vant":9006,"ĠDS":9007,"ĠLess":9008,"Ġwaiting":9009,"Ġcircumstances":9010,"ĠHur":9011,"icate":9012,"Ġcomfort":9013,"ĠDenmark":9014,"ĠMother":9015,"Ġuseful":9016,"Ġmeetings":9017,"Ġseriously":9018,"Ġchoose":9019,"Ġtight":9020,"aro":9021,"ĠHann":9022,"Ġcurren":9023,"Ġapartment":9024,"ĠJonathan":9025,"Ġsurrend":9026,"TW":9027,"Ġcivilian":9028,"ĠRico":9029,"Ġcoinc":9030,"itage":9031,"Ġreconnaissance":9032,"ĠBernard":9033,"ĠJohnny":9034,"yler":9035,"aughters":9036,"Ġsket":9037,"ĠPlayers":9038,"ĠCampaign":9039,"ĠAtlanta":9040,"ĠTerrit":9041,"Ġdrugs":9042,"Ġsick":9043,"Ġgust":9044,"rings":9045,"ĠRoll":9046,"ĠRihanna":9047,"ĠChel":9048,"Ġphone":9049,"Ġdollar":9050,"ĠAbbey":9051,"apolis":9052,"Ġlayer":9053,"Ġbreat":9054,"ĠTon":9055,"Ġwhilst":9056,"Ġchamber":9057,"Ġretain":9058,"azing":9059,"Ġreaders":9060,"Ġinstitution":9061,"ĠPil":9062,"Ġ101":9063,"ĠJuan":9064,"Ġcasting":9065,"emen":9066,"ĠWor":9067,"ĠNixon":9068,"Ġrub":9069,"Ġfriendship":9070,"ng":9071,"Ġholid":9072,"Ġsimilarly":9073,"Ġvisiting":9074,"Ġstrengthened":9075,"rik":9076,"Ġmatters":9077,"Ġtiss":9078,"LC":9079,"mi":9080,"estone":9081,"Ġalive":9082,"Ġdemanded":9083,"Ġhorn":9084,"ĠMaj":9085,"Ġplanets":9086,"rint":9087,"ĠChen":9088,"esses":9089,"ĠEdwards":9090,"ĠInn":9091,"Ġsimultaneously":9092,"inian":9093,"Ġ168":9094,"Ġlegacy":9095,"Ġenlisted":9096,"mingham":9097,"Ġpanel":9098,"arth":9099,"Ġalternate":9100,"ĠPitts":9101,"jan":9102,"ĠArnold":9103,"ĠMcM":9104,"onomy":9105,"Ġempt":9106,"Ġinsisted":9107,"ĠOpp":9108,"ĠRailroad":9109,"ĠWag":9110,"Ġshipping":9111,"Ġbombing":9112,"Ġrevers":9113,"estyle":9114,"ĠKeith":9115,"gro":9116,"Ġlanes":9117,"acc":9118,"Ġjustice":9119,"ĠSoul":9120,"Ġhook":9121,"ĠRal":9122,"ĠRub":9123,"ĠLex":9124,"Ġdemands":9125,"Ġmainland":9126,"Ġneighb":9127,"rov":9128,"Ġrevenue":9129,"ĠMadag":9130,"Ġathletes":9131,"ĠPrize":9132,"ĠIran":9133,"Ġpromised":9134,"ĠJimmy":9135,"PA":9136,"entle":9137,"Ġroots":9138,"Ġportions":9139,"aration":9140,"Ġconsole":9141,"ghan":9142,"ĠSem":9143,"Ġpersonally":9144,"Ġstruggled":9145,"regation":9146,"Ġguilty":9147,"Ġlooks":9148,"Ġdrivers":9149,"ĠInternet":9150,"Ġguitarist":9151,"Ġdefinition":9152,"Ġcontinu":9153,"Ġpropag":9154,"Ġpione":9155,"Ġbacked":9156,"ĠMicro":9157,"lain":9158,"Ġbehaviour":9159,"ĠRachel":9160,"Ġorchestra":9161,"acre":9162,"Ġarmies":9163,"Ġaudition":9164,"Ġdiver":9165,"ĠPars":9166,"Ġsung":9167,"ĠCost":9168,"otyp":9169,"ĠJar":9170,"Ġartific":9171,"iti":9172,"ĠVik":9173,"Ġjobs":9174,"ĠFurthermore":9175,"ĠShaw":9176,"Ġdemolished":9177,"ĠYankees":9178,"odox":9179,"Ġ166":9180,"Ġoblig":9181,"ĠTracy":9182,"arant":9183,"Ġtheater":9184,"Ġstarring":9185,"Ġindu":9186,"ĠBach":9187,"ĠLost":9188,"agh":9189,"Ġmarketing":9190,"ĠHugh":9191,"ĠFel":9192,"Ġconspir":9193,"itis":9194,"Ġruling":9195,"Ġessential":9196,"ĠBirmingham":9197,"Ġdancing":9198,"azines":9199,"Ġbelieving":9200,"Ġfeels":9201,"ĠComple":9202,"Ġsurpass":9203,"ĠConstant":9204,"Ġpursue":9205,"Ġorganisation":9206,"Ġprofile":9207,"ĠGray":9208,"ĠEventually":9209,"ĠFat":9210,"inding":9211,"Ġcounties":9212,"Ġpunk":9213,"Ġcompens":9214,"Ġheading":9215,"ĠMans":9216,"atern":9217,"ĠCanter":9218,"ĠMcCartney":9219,"ication":9220,"ĠNine":9221,"Ġobst":9222,"Ġfactory":9223,"ĠImpact":9224,"Ġbonus":9225,"avery":9226,"Ġcup":9227,"Ġmining":9228,"Ġincreases":9229,"Ġcompliment":9230,"ĠObama":9231,"ĠUniversal":9232,"folk":9233,"Ġ109":9234,"ĠDefence":9235,"ĠSak":9236,"Ġdiscont":9237,"raction":9238,"Ġforecast":9239,"Ġdiscovers":9240,"Ġdelivery":9241,"Ġpages":9242,"apped":9243,"Ġexpression":9244,"ouver":9245,"ĠSig":9246,"umps":9247,"Ġerected":9248,"Ġclothing":9249,"Ġpatron":9250,"ĠJup":9251,"Ġelevation":9252,"ĠBuddh":9253,"Ġaffect":9254,"ĠEnterprise":9255,"Ġsucceed":9256,"Ġsq":9257,"ĠBaker":9258,"Ġports":9259,"ĠBobby":9260,"Ġmobile":9261,"Ġsalt":9262,"ĠHudson":9263,"ĠPhoenix":9264,"Ġmultipl":9265,"fle":9266,"Ġsad":9267,"Ġsecretary":9268,"ĠTol":9269,"ĠSi":9270,"ĠKl":9271,"cles":9272,"Ġstick":9273,"Ġorn":9274,"ĠPotter":9275,"Ġoverseas":9276,"ĠPearl":9277,"py":9278,"ĠPubl":9279,"Ġengage":9280,"Ġdoubt":9281,"ultan":9282,"Ġcrest":9283,"Ġhoriz":9284,"Ġacou":9285,"Ġmayor":9286,"ĠWayne":9287,"ĠKarl":9288,"Ġdefences":9289,"ĠConnectic":9290,"Ġdrink":9291,"Ġdemocr":9292,"Ġdeterior":9293,"ĠMadagascar":9294,"Ġkiss":9295,"ĠPeace":9296,"tario":9297,"Ġaccum":9298,"ĠGirls":9299,"ĠRights":9300,"ĠTodd":9301,"ĠConnecticut":9302,"Ġaltered":9303,"Ġsettlers":9304,"bird":9305,"inces":9306,"ĠNAS":9307,"irty":9308,"Ġrenov":9309,"Ġbaby":9310,"owed":9311,"Ġchest":9312,"aux":9313,"ĠBosn":9314,"OS":9315,"Ġpale":9316,"ĠHold":9317,"ĠOntario":9318,"Ġexpand":9319,"Ġobjective":9320,"ĠWorks":9321,"ĠMorrison":9322,"Ġstress":9323,"ello":9324,"Ġcancel":9325,"ĠDeb":9326,"Ġlegislature":9327,"ĠCanterbury":9328,"Ġhighways":9329,"shore":9330,"Ġlisten":9331,"warf":9332,"ensively":9333,"Ġconversion":9334,"ĠFriday":9335,"mat":9336,"oons":9337,"ĠPatt":9338,"Ġvoy":9339,"ĠKit":9340,"Ġmusician":9341,"ĠCommunity":9342,"mund":9343,"Ġwrestling":9344,"asant":9345,"ĠDiam":9346,"ĠManu":9347,"irts":9348,"Ġsoldier":9349,"Ġcampaigns":9350,"Ġaerial":9351,"stan":9352,"ĠRan":9353,"acked":9354,"Ġdisl":9355,"Ġorganised":9356,"Ġindicating":9357,"Ġcompounds":9358,"oker":9359,"Ġraising":9360,"pent":9361,"ĠGoth":9362,"Ġaftermath":9363,"Ġdecisions":9364,"ĠAllies":9365,"ĠLeonard":9366,"ĠNapoleon":9367,"rous":9368,"ĠFarm":9369,"aks":9370,"Ġraids":9371,"Ġsitting":9372,"Ġconcentration":9373,"aments":9374,"Ġscen":9375,"ĠSpart":9376,"Ġsolar":9377,"ĠBoys":9378,"Ġturret":9379,"ratropical":9380,"Ġdissipated":9381,"Ġhapp":9382,"Ġtrouble":9383,"yrus":9384,"Ġliquid":9385,"Ġhidden":9386,"Ġprove":9387,"ĠForeign":9388,"ĠCycl":9389,"Ġwealthy":9390,"ĠAS":9391,"ĠBath":9392,"ulous":9393,"ifies":9394,"Ġradical":9395,"Ġacknowledged":9396,"Ġrealized":9397,"Ġstriking":9398,"ĠLat":9399,"Ġdressed":9400,"ĠTNA":9401,"Ġexactly":9402,"Ġappropriate":9403,"oa":9404,"Ġanth":9405,"Ġdanger":9406,"ĠPy":9407,"Ġconfron":9408,"Ġimprovements":9409,"Ġpermitted":9410,"ĠPruss":9411,"ĠMountains":9412,"Ġchapel":9413,"Ġexecution":9414,"ĠKan":9415,"ĠWindows":9416,"ĠGriff":9417,"ĠTed":9418,"ĠLaur":9419,"Ġpublications":9420,"Ġski":9421,"Ġgraduated":9422,"Ġaggressive":9423,"Ġevacuated":9424,"Ġremoval":9425,"Ġencl":9426,"Ġfewer":9427,"Ġinterpretation":9428,"Ġprofit":9429,"Ġcelebrated":9430,"Ġbones":9431,"Ġsharp":9432,"ĠZe":9433,"Ġvenue":9434,"Ġobservations":9435,"ĠDall":9436,"ĠChampion":9437,"Ġmeter":9438,"Ġinitiated":9439,"Ġmac":9440,"otte":9441,"Ġtravels":9442,"Ġtheatrical":9443,"Ġnet":9444,"ĠGary":9445,"ĠLegend":9446,"uese":9447,"ĠOutstanding":9448,"ĠUEFA":9449,"ĠSeason":9450,"Ġ152":9451,"Ġsky":9452,"Ġstationed":9453,"OT":9454,"inister":9455,"Ġlin":9456,"atus":9457,"ivation":9458,"ĠVanc":9459,"Ġcannon":9460,"Ġtort":9461,"Ġfounding":9462,"itals":9463,"Ġdefending":9464,"Ġrequires":9465,"Ġrebellion":9466,"Ġpublishing":9467,"Ġoriginated":9468,"Ġsteps":9469,"itudes":9470,"ĠVancouver":9471,"Ġorigins":9472,"Ġconsidering":9473,"Ġjurisd":9474,"ĠLion":9475,"Ġestablishing":9476,"run":9477,"Ġdebt":9478,"ĠJupiter":9479,"olly":9480,"Ġextratropical":9481,"ĠSymph":9482,"Ġconnect":9483,"adal":9484,"ĠGate":9485,"ipper":9486,"Ġexplan":9487,"Ġbrill":9488,"Ġstrategic":9489,"Ġmush":9490,"ĠTriple":9491,"ugg":9492,"ĠMint":9493,"Ġyoungest":9494,"Ġsupple":9495,"ĠTit":9496,"ĠMem":9497,"ĠDrive":9498,"Ġapproaching":9499,"adier":9500,"ĠPap":9501,"rapped":9502,"Ġarrangements":9503,"Ġfantasy":9504,"Ġplacing":9505,"Ġshorter":9506,"ĠAbd":9507,"Ġcutting":9508,"ĠEdin":9509,"Ġannouncement":9510,"Ġguarant":9511,"Ġmagazines":9512,"Ġwalking":9513,"ĠChampions":9514,"Ġ104":9515,"Ġdonated":9516,"itively":9517,"Ġlying":9518,"annon":9519,"ĠAdministration":9520,"ĠLib":9521,"ennium":9522,"autical":9523,"phone":9524,"Ġerr":9525,"Ġconnecting":9526,"Ġhosts":9527,"Ġaspect":9528,"ĠPakistan":9529,"Ġmemor":9530,"Ġongoing":9531,"ĠStu":9532,"Ġmagic":9533,"Ã¦":9534,"ĠCov":9535,"hears":9536,"Ġ173":9537,"Ġdiscussion":9538,"ais":9539,"Ġing":9540,"ĠOur":9541,"Ġedited":9542,"ĠLen":9543,"aja":9544,"ĠBradman":9545,"Ġtalent":9546,"ĠPortuguese":9547,"ĠÃĨthel":9548,"Ġfunny":9549,"Ġ1860":9550,"Ġclosest":9551,"Ġinsects":9552,"Ġstrongest":9553,"ecution":9554,"Ġcolleagues":9555,"Ġcub":9556,"ĠShip":9557,"Ġglac":9558,"Ġputting":9559,"Ġtubes":9560,"hous":9561,"fts":9562,"Ġmal":9563,"Ġqualified":9564,"Ġwithdrawal":9565,"asa":9566,"ĠAlice":9567,"Ġlandscape":9568,"Ġrede":9569,"Ġgathered":9570,"Ġforth":9571,"Ġdecide":9572,"Ġbattlecru":9573,"Ġvolumes":9574,"Ġpredict":9575,"Ġhypothes":9576,"ĠDwight":9577,"Ġidentify":9578,"Ġangle":9579,"ĠNCAA":9580,"Ġcollapsed":9581,"à¸":9582,"Ġswitch":9583,"Ġcircle":9584,"Ġindicates":9585,"ĠTrophy":9586,"Ġchallenged":9587,"ĠMong":9588,"ĠGene":9589,"ĠJoy":9590,"Ġdesert":9591,"venth":9592,"ĠIsa":9593,"Ġmerely":9594,"Ġgray":9595,"Ġforg":9596,"Ġcoup":9597,"Ġsupplied":9598,"bow":9599,"ĠAnc":9600,"Ġconfront":9601,"Ġmarkets":9602,"Ġ1893":9603,"odge":9604,"Ġcaps":9605,"Ġwatershed":9606,"onium":9607,"ĠType":9608,"Ġbeam":9609,"earing":9610,"Ġpartial":9611,"Ġexposure":9612,"atra":9613,"Ġles":9614,"elta":9615,"ĠFleming":9616,"ĠMeteor":9617,"Ġdensity":9618,"Ġneighbour":9619,"Ġspecimen":9620,"ĠReserve":9621,"ĠHonor":9622,"Ġconventional":9623,"ĠChes":9624,"ĠDub":9625,"ĠMarvel":9626,"enna":9627,"Ġ1896":9628,"Ġbare":9629,"Ġbrig":9630,"ĠMission":9631,"ĠYears":9632,"avel":9633,"Ġplain":9634,"Ġlimits":9635,"ĠPam":9636,"anner":9637,"Ġdubbed":9638,"Ġshift":9639,"Ġspac":9640,"Ġhydrogen":9641,"ĠHampshire":9642,"join":9643,"agger":9644,"Ġvisits":9645,"Ġcorps":9646,"Ġconcentrated":9647,"igenous":9648,"Ġmembership":9649,"ĠAfghan":9650,"ĠOliver":9651,"Ġfeeding":9652,"Ġnavy":9653,"ieth":9654,"Ġannually":9655,"Ġeducational":9656,"ĠEdinburgh":9657,"Ġcock":9658,"Ġexha":9659,"ĠStri":9660,"ĠBak":9661,"Ġbearing":9662,"ĠThose":9663,"Ġtopped":9664,"soft":9665,"Ġprovision":9666,"Ġseized":9667,"Ġassembly":9668,"ĠFlying":9669,"Ġclin":9670,"Ġprize":9671,"ĠTob":9672,"otal":9673,"ocy":9674,"iper":9675,"Ġ127":9676,"Ġranges":9677,"Ġtrough":9678,"ĠSomet":9679,"irates":9680,"ista":9681,"ĠBeng":9682,"Ġ1898":9683,"Ġattending":9684,"athers":9685,"Ġmarry":9686,"Ġparody":9687,"Ġemphasis":9688,"ĠMosc":9689,"Ġchampions":9690,"Ġduo":9691,"ĠVictorian":9692,"ĠSay":9693,"ĠNatural":9694,"ĠPrincip":9695,"amental":9696,"ĠCharts":9697,"Ġlegit":9698,"Ã¼r":9699,"Ġbacter":9700,"ĠTig":9701,"hard":9702,"ĠWhere":9703,"Ġoffense":9704,"Ġ350":9705,"Ġproductions":9706,"Ġinvestigate":9707,"Ġ172":9708,"Ġdogs":9709,"Ġfurn":9710,"arr":9711,"ĠBegin":9712,"Ġweekly":9713,"Ġbasin":9714,"ĠFinally":9715,"uzzle":9716,"ĠPin":9717,"Ġtalking":9718,"Ġexercise":9719,"Ġanime":9720,"ĠBeaut":9721,"Ġbone":9722,"Ġunless":9723,"Ġjury":9724,"ĠMonte":9725,"ĠDemocrats":9726,"Ġticket":9727,"onica":9728,"ĠList":9729,"ĠKap":9730,"Ġresol":9731,"ĠMeg":9732,"ĠPersonal":9733,"Ġ111":9734,"Ġpromotional":9735,"Ġflooded":9736,"ĠTurner":9737,"Ġfill":9738,"Ġbond":9739,"ĠMaya":9740,"Ġcruc":9741,"ĠCelt":9742,"assador":9743,"ĠYorkshire":9744,"Ġceased":9745,"oys":9746,"ĠRalph":9747,"terior":9748,"Ġfortress":9749,"Ġadvertising":9750,"Ġemployment":9751,"Ġstere":9752,"ĠLloyd":9753,"ĠMS":9754,"Ġregime":9755,"Ġpersons":9756,"Ġbirthday":9757,"Ġportrayal":9758,"ĠArgentina":9759,"Ã°":9760,"erk":9761,"Ġuncle":9762,"ĠKo":9763,"ported":9764,"ĠAx":9765,"ĠMand":9766,"Ġuncom":9767,"Ġqueen":9768,"ĠOverall":9769,"Ġunderwent":9770,"Ġattitude":9771,"rising":9772,"Ġinvent":9773,"ĠPink":9774,"ĠOm":9775,"Ġscattered":9776,"Ġoutput":9777,"Ġcoff":9778,"ĠVillage":9779,"Ġphotographs":9780,"Ġeval":9781,"Ġconservation":9782,"Ġsending":9783,"pled":9784,"ĠConvention":9785,"Ġhitting":9786,"ĠChristianity":9787,"ayan":9788,"Ġballad":9789,"Ġexperimental":9790,"Ġassembled":9791,"ĠBrothers":9792,"ĠTak":9793,"Ġmature":9794,"Ġguide":9795,"Ġquestioned":9796,"aft":9797,"rawn":9798,"Ġcommentary":9799,"Ġoverwhel":9800,"aders":9801,"Ġdrinking":9802,"Ġbishop":9803,"ashes":9804,"oviÄĩ":9805,"Ġimagery":9806,"Ġsoftware":9807,"ĠLt":9808,"Ġexternal":9809,"Ġ1899":9810,"ĠJerry":9811,"ĠCraig":9812,"ĠHaz":9813,"Ġendors":9814,"Ġprovincial":9815,"Ġreplied":9816,"Ġterrain":9817,"Ġunclear":9818,"ĠProp":9819,"ĠKam":9820,"ĠBooks":9821,"Ġtranslation":9822,"Ġaggreg":9823,"ĠChronicle":9824,"ĠFund":9825,"Ġoutd":9826,"Ġproclaim":9827,"haw":9828,"Ġlawyer":9829,"ĠPrim":9830,"hammad":9831,"Ġswimming":9832,"Ġwire":9833,"Ġpapers":9834,"ications":9835,"Ġclock":9836,"hin":9837,"Ġcomprom":9838,"ologies":9839,"Ġthirteen":9840,"Ġliberal":9841,"Ġempire":9842,"ĠCollins":9843,"Ġcens":9844,"Ġtrail":9845,"Ġrepresentatives":9846,"rapy":9847,"ĠMarge":9848,"Ġlawsu":9849,"Ġcousin":9850,"ĠCad":9851,"Ġcoat":9852,"ĠEug":9853,"err":9854,"idal":9855,"Ġstreak":9856,"Ġwait":9857,"ersed":9858,"Ġshr":9859,"Ġburial":9860,"ĠQueensland":9861,"ĠApoll":9862,"Ġmonaster":9863,"ĠFinland":9864,"Ġpictures":9865,"Ġloved":9866,"Ġduration":9867,"amas":9868,"ĠLock":9869,"ĠAndre":9870,"Ġacoustic":9871,"ioc":9872,"ĠGlen":9873,"Ġmovies":9874,"Ġslave":9875,"Ġexpert":9876,"Ġdevast":9877,"Ġpenet":9878,"Ġexclusive":9879,"OK":9880,"Ġsang":9881,"ĠGor":9882,"Ġstronger":9883,"Ġelectricity":9884,"Ġaccompanying":9885,"Ġbranches":9886,"Ġ108":9887,"ĠHowe":9888,"Ġsurrendered":9889,"Ġarrives":9890,"Ġdaughters":9891,"imm":9892,"Ġbeats":9893,"Ġidentical":9894,"Ġreinforcements":9895,"Ġcad":9896,"aman":9897,"Ġtenure":9898,"ĠHardy":9899,"ĠPad":9900,"ĠWii":9901,"ensed":9902,"owski":9903,"ĠSimilarly":9904,"ĠBoat":9905,"atever":9906,"ĠNorfolk":9907,"Ġsuccession":9908,"Ġreveal":9909,"Ġdread":9910,"place":9911,"ĠJun":9912,"pler":9913,"Ġcharter":9914,"ĠProtest":9915,"ĠHawaii":9916,"Ġreverse":9917,"ĠSle":9918,"ĠHeritage":9919,"Ġreducing":9920,"Ġdestroying":9921,"Ġpush":9922,"riors":9923,"Ġcomponents":9924,"Ġ169":9925,"ricts":9926,"ĠProfessor":9927,"Ġprices":9928,"rod":9929,"ĠSign":9930,"ĠRic":9931,"ĠJama":9932,"ellation":9933,"ĠBurton":9934,"ĠServices":9935,"Ġprev":9936,"Ġtrading":9937,"ĠDonald":9938,"ĠNicholas":9939,"Ġexclusively":9940,"ĠDin":9941,"Ġcomponent":9942,"Ġscar":9943,"Ġrecall":9944,"Ġmyst":9945,"ĠBelgian":9946,"erg":9947,"illes":9948,"Ġfailing":9949,"Ġsleep":9950,"Ġspaces":9951,"Ġcompeting":9952,"Ġ1850":9953,"Ġmechanical":9954,"ĠCommunist":9955,"Ġtomb":9956,"Ġgovernments":9957,"olen":9958,"Ġstops":9959,"ĠDak":9960,"Ġcounterp":9961,"Ġisot":9962,"ibilities":9963,"eyer":9964,"Ġquad":9965,"enesis":9966,"ĠRangers":9967,"ĠBennett":9968,"Ġprecipitation":9969,"ĠCatherine":9970,"itarian":9971,"ĠVincent":9972,"Ġatomic":9973,"angel":9974,"Ġpolar":9975,"Ġpole":9976,"Ġreward":9977,"abe":9978,"Ġslavery":9979,"Ġflowers":9980,"Ġdict":9981,"ĠCricket":9982,"Ġobsc":9983,"ĠTraining":9984,"Ġbanned":9985,"ĠThunder":9986,"Ġdevelopers":9987,"ĠDavies":9988,"ĠMedical":9989,"Ġcenters":9990,"Ġmini":9991,"ĠEmmy":9992,"Ġdevices":9993,"Ġfossil":9994,"case":9995,"hell":9996,"onian":9997,"Ġwish":9998,"ĠDram":9999,"ĠNi":10000,"Ġtraded":10001,"ĠCredits":10002,"esty":10003,"ĠDeep":10004,"Ġvaried":10005,"Ġelig":10006,"Ġcontribution":10007,"ĠTransportation":10008,"ĠMalt":10009,"ĠYellow":10010,"Ġconsistent":10011,"Ġwaste":10012,"ĠRud":10013,"Ġburned":10014,"Ġredes":10015,"IV":10016,"uras":10017,"Ġincom":10018,"Ġplatforms":10019,"ĠLiberal":10020,"ĠLocal":10021,"Ġconfirm":10022,"Ġpel":10023,"ĠLem":10024,"Ġconsiders":10025,"ĠSwift":10026,"legraph":10027,"ĠTax":10028,"ĠHob":10029,"ĠLiving":10030,"Ġarchitectural":10031,"Ġartificial":10032,"Ġow":10033,"ethel":10034,"ĠLook":10035,"Ġradiation":10036,"Ġtube":10037,"Ġbath":10038,"Ġhybrid":10039,"Ġintersects":10040,"Ġtalks":10041,"Ġearthquake":10042,"Ġ163":10043,"Ġhumor":10044,"ĠHughes":10045,"Ġsongwriter":10046,"Ġfourteen":10047,"ĠGuitar":10048,"Ġvirus":10049,"ĠFu":10050,"Ġdisb":10051,"ĠScientology":10052,"ĠCurt":10053,"rastructure":10054,"ĠMust":10055,"Ġproceeded":10056,"gs":10057,"ĠCO":10058,"Ġlie":10059,"Ġboilers":10060,"Ġelectrical":10061,"Ġfrequency":10062,"ĠNext":10063,"ĠHarvard":10064,"pike":10065,"Ġweigh":10066,"rost":10067,"Ġecc":10068,"Ġairfield":10069,"Ġadvised":10070,"Ġreviewed":10071,"Ġ1897":10072,"ĠMarket":10073,"Ġunderstood":10074,"acles":10075,"Ġheir":10076,"Ġdestroyer":10077,"Ġprofession":10078,"ĠPrix":10079,"Ġamateur":10080,"ĠDarwin":10081,"Ġimprovement":10082,"ĠPeters":10083,"Ġconflic":10084,"Ġhandled":10085,"onald":10086,"ĠAM":10087,"ĠDyn":10088,"Ġtexts":10089,"Ġcopper":10090,"encing":10091,"Ġinduct":10092,"Ġrein":10093,"Ġconceived":10094,"umble":10095,"ĠGallery":10096,"mith":10097,"ĠBald":10098,"Ġ106":10099,"ĠBlu":10100,"ĠHarbor":10101,"ĠSwiss":10102,"Ġrequirements":10103,"ĠAra":10104,"Ġnit":10105,"Ġsixteen":10106,"Ã¶n":10107,"ĠIndonesia":10108,"Ġsamples":10109,"ensis":10110,"Ġportr":10111,"Ġreferring":10112,"ĠSaxon":10113,"TS":10114,"bal":10115,"Ġphrase":10116,"uating":10117,"itely":10118,"Ġshares":10119,"Ġcharity":10120,"ĠMoscow":10121,"Ġtheore":10122,"Ġinvestment":10123,"Ġrespective":10124,"Ġtactics":10125,"ĠJTW":10126,"ĠJTWC":10127,"asm":10128,"Ġrecon":10129,"Ġreduction":10130,"rehens":10131,"eding":10132,"Ġcleared":10133,"ĠCameron":10134,"ĠSom":10135,"eto":10136,"ĠKate":10137,"ĠâĢ¦":10138,"ulty":10139,"Ġusers":10140,"Ġvoting":10141,"Ġparks":10142,"Ġcertainly":10143,"ĠOslo":10144,"strong":10145,"Ġ167":10146,"Ġpraising":10147,"Ġworn":10148,"ĠInv":10149,"ĠGeoff":10150,"Ġphotography":10151,"ĠPittsburgh":10152,"Ġsoph":10153,"Ġlock":10154,"Ġ154":10155,"Ġgrossing":10156,"ĠPic":10157,"Ġconnections":10158,"Ġlabour":10159,"Ġconstitutional":10160,"MI":10161,"Ġexceed":10162,"axy":10163,"ĠPhys":10164,"Ġruler":10165,"Ġflows":10166,"Ġspoken":10167,"Ġtoured":10168,"Ġautumn":10169,"etheless":10170,"Ġcommenced":10171,"Ġcommanding":10172,"Ġqualifying":10173,"Ġfold":10174,"ingham":10175,"ĠCraw":10176,"Ġsignature":10177,"tery":10178,"avor":10179,"ffield":10180,"Ġblind":10181,"Ġtonnes":10182,"ĠTow":10183,"Ġattorney":10184,"Ġcontinuous":10185,"Ġshoulder":10186,"Ġsurvival":10187,"Ġtransported":10188,"Ġsweet":10189,"Ġunlik":10190,"Ã«":10191,"Ġreorgan":10192,"ĠTerry":10193,"rh":10194,"Ġfasc":10195,"Ġnautical":10196,"Ġstuff":10197,"ĠUpper":10198,"Ġlegislative":10199,"OC":10200,"gom":10201,"Ġfisher":10202,"ĠAP":10203,"ĠBroadcast":10204,"icated":10205,"Ġunw":10206,"ĠAli":10207,"ĠAlaska":10208,"Ġconfidence":10209,"ean":10210,"Ġexists":10211,"ĠAntonio":10212,"Ġtaxes":10213,"ĠWallace":10214,"Ġenthusi":10215,"ĠMond":10216,"Ġcommunist":10217,"Ġpatients":10218,"Ġopportunities":10219,"Ġmelody":10220,"Ġrocks":10221,"ĠSweet":10222,"ĠMason":10223,"ĠRest":10224,"ĠMend":10225,"ĠPS":10226,"Ġtested":10227,"Ġrelocated":10228,"Ġcamps":10229,"Ġcompetitive":10230,"ĠMayor":10231,"Ġrevolt":10232,"ĠStill":10233,"porting":10234,"Ġdece":10235,"ĠAftermath":10236,"hum":10237,"Ġreinforced":10238,"Ġfulf":10239,"ario":10240,"Ġwithdrawn":10241,"ĠMicrosoft":10242,"ĠClay":10243,"ambers":10244,"Ġuranium":10245,"Ġmoon":10246,"pot":10247,"ĠEmer":10248,"Ġindeed":10249,"ashi":10250,"ĠSyria":10251,"Ġminority":10252,"Ġtranslated":10253,"Ġfairly":10254,"Ġnat":10255,"ĠGot":10256,"Ġcommanders":10257,"illo":10258,"Ġexplicit":10259,"ĠStef":10260,"Ġrevised":10261,"Ġtraveling":10262,"ĠTrail":10263,"ĠPast":10264,"ĠVel":10265,"Ġblues":10266,"minster":10267,"Ġsovereign":10268,"Ġpairs":10269,"ĠSid":10270,"ĠEnt":10271,"Ġimpression":10272,"Ġcartoon":10273,"ĠCass":10274,"ĠHD":10275,"oca":10276,"Ġmanga":10277,"expected":10278,"ĠOri":10279,"cester":10280,"bes":10281,"ĠSecurity":10282,"ĠGrace":10283,"ĠRichmond":10284,"Ġnoble":10285,"Ġcrops":10286,"avia":10287,"ĠAdv":10288,"Ġfram":10289,"Ġuncon":10290,"ĠSee":10291,"Ġdisplaced":10292,"Ġenforce":10293,"ĠRP":10294,"ĠExper":10295,"Ġprogramming":10296,"Ġextending":10297,"eared":10298,"ĠAer":10299,"ĠEc":10300,"ĠSheffield":10301,"Ġpromin":10302,"uto":10303,"ĠOfficer":10304,"ĠLarry":10305,"Ġcompound":10306,"Ġaccord":10307,"Ġprinciples":10308,"ĠFr":10309,"oda":10310,"ĠStars":10311,"anger":10312,"Ġamph":10313,"Ġwarfare":10314,"Ġprovinces":10315,"where":10316,"Ġchron":10317,"ĠClassic":10318,"ĠMalaysia":10319,"Ġdischar":10320,"ussion":10321,"Ġexperiments":10322,"Ġprisoner":10323,"Ġvoices":10324,"isive":10325,"asks":10326,"Ġhole":10327,"ĠHalf":10328,"urricanes":10329,"car":10330,"tes":10331,"ye":10332,"Ġpap":10333,"Ġcarries":10334,"ĠLuke":10335,"ĠIsraeli":10336,"seud":10337,"Ġextinct":10338,"Ġ1895":10339,"ĠRu":10340,"Ġcharacteristic":10341,"Ġculmin":10342,"ĠDallas":10343,"Ġconce":10344,"Ġdistant":10345,"Ġlearns":10346,"ĠTai":10347,"ĠGuinea":10348,"Ġrepresentation":10349,"Ġcatal":10350,"Ġmagnitude":10351,"ĠPictures":10352,"Ġinterpreted":10353,"cott":10354,"Ġwonder":10355,"Ġcraft":10356,"ĠHerald":10357,"Ġsumm":10358,"ĠJefferson":10359,"Ġlights":10360,"Ġrivalry":10361,"ĠTogether":10362,"ĠOsc":10363,"Ġsample":10364,"Ġrelatives":10365,"Ġmarine":10366,"Ġapproaches":10367,"Ġnerv":10368,"Ġabuse":10369,"ĠGameS":10370,"ĠFBI":10371,"umph":10372,"uez":10373,"aching":10374,"ĠSega":10375,"ĠJohnston":10376,"ĠAustin":10377,"Ġvictim":10378,"lad":10379,"itious":10380,"Ġ171":10381,"Ġpractical":10382,"ĠOfficial":10383,"Ġcyclones":10384,"ĠBryan":10385,"ĠClarke":10386,"zed":10387,"ĠOwen":10388,"ĠPerformance":10389,"rooms":10390,"utton":10391,"Ġherit":10392,"ĠEight":10393,"ĠChile":10394,"Ġshifted":10395,"Ġmarch":10396,"Ġtransportation":10397,"ĠCyrus":10398,"ĠDaw":10399,"Ġcuts":10400,"Ġdisplays":10401,"ĠMix":10402,"Ġhem":10403,"Ġwarnings":10404,"Ġrestore":10405,"Ġlighting":10406,"ĠWoman":10407,"ĠHey":10408,"Ġskill":10409,"Ġblocked":10410,"Ġburning":10411,"ĠFalls":10412,"Ġid":10413,"ĠCS":10414,"Ġmans":10415,"ĠQuest":10416,"Ġthunder":10417,"Ġbull":10418,"Ġrehears":10419,"ĠAT":10420,"ĠEis":10421,"Ġmyster":10422,"Ġjudg":10423,"ĠDefense":10424,"ĠWells":10425,"ĠOrange":10426,"Ġchore":10427,"Ġairing":10428,"Ġtraditions":10429,"ĠSteel":10430,"Ġrebels":10431,"Ġpreparing":10432,"Ġproposals":10433,"iciency":10434,"ĠNev":10435,"Ġparticipation":10436,"Ġmedicine":10437,"Ġsings":10438,"ags":10439,"ĠNeil":10440,"Ġgraduate":10441,"Ġgirlfriend":10442,"NC":10443,"ationally":10444,"ĠStudio":10445,"Ġabsent":10446,"ĠParsons":10447,"Ġdistricts":10448,"Ã¥":10449,"umped":10450,"Ġweb":10451,"ĠPriv":10452,"Ġscores":10453,"Ġmultiplayer":10454,"ĠSac":10455,"urd":10456,"ĠNord":10457,"merce":10458,"Ġ102":10459,"Ġinterviews":10460,"ĠGreater":10461,"Ġunlikely":10462,"Ġpier":10463,"Ġconven":10464,"Ġ121":10465,"Ġprotests":10466,"Ġvaluable":10467,"Ġestimates":10468,"ĠArmstrong":10469,"ĠLiter":10470,"ocity":10471,"Ġsalv":10472,"Ġfilmm":10473,"ĠDescription":10474,"Ġbrilliant":10475,"ĠHav":10476,"eston":10477,"Ġriding":10478,"Ġsalary":10479,"ĠChelsea":10480,"Ġwished":10481,"aters":10482,"berry":10483,"ĠFormation":10484,"Ġmaintaining":10485,"Ġcreek":10486,"onge":10487,"Ġpassion":10488,"ĠDanish":10489,"Ã¢":10490,"len":10491,"aha":10492,"Ġinfl":10493,"ĠBrazilian":10494,"ĠBeginning":10495,"leans":10496,"Ġintervention":10497,"Ġcourses":10498,"Ġdrummer":10499,"Ġrecovery":10500,"Ġreforms":10501,"Ġaft":10502,"ĠFisher":10503,"ĠActor":10504,"Ġarguing":10505,"ĠFourth":10506,"Ġcabinet":10507,"Ġfest":10508,"Ġcontend":10509,"ĠGreatest":10510,"ĠMcKin":10511,"ĠYam":10512,"ĠRena":10513,"ĠEve":10514,"ĠQuebec":10515,"Ġpetition":10516,"Ġcinema":10517,"Ġrecurring":10518,"Ġgarn":10519,"Ġclar":10520,"Ġracial":10521,"ĠEth":10522,"ĠAgency":10523,"Ġgrandfather":10524,"Ġbeneath":10525,"ĠKaiser":10526,"Ġaccurate":10527,"Ġvulnerable":10528,"ĠAmb":10529,"Ġupset":10530,"Ġcommunications":10531,"ĠRio":10532,"Ġdecorated":10533,"ĠSpirit":10534,"ĠAuthority":10535,"ĠGa":10536,"aze":10537,"Ġkills":10538,"Ġsignificance":10539,"ĠNS":10540,"ĠEff":10541,"Ġnumbered":10542,"Ġadvertis":10543,"lete":10544,"Ġeating":10545,"ource":10546,"achute":10547,"Ġreleg":10548,"Ġdiverse":10549,"Ġstatistics":10550,"ĠCathedral":10551,"Ġtowers":10552,"ĠConstantin":10553,"ĠSalt":10554,"uri":10555,"ĠIl":10556,"ĠLink":10557,"aser":10558,"Ġvalid":10559,"ĠGay":10560,"ĠPlant":10561,"ĠSusan":10562,"Ġsponsored":10563,"Ġsquadrons":10564,"ĠVers":10565,"Ġcant":10566,"Ġclothes":10567,"osexual":10568,"ĠReich":10569,"Ġparas":10570,"ĠÐ":10571,"ĠOrleans":10572,"beat":10573,"Ġshallow":10574,"Ġansw":10575,"Ġhind":10576,"Ġsurve":10577,"Ġapplications":10578,"Ġunexpected":10579,"iar":10580,"Ġtoler":10581,"ĠIvan":10582,"ĠPoly":10583,"Ġsteep":10584,"ĠJunior":10585,"abilities":10586,"Ġshock":10587,"Ġsacrif":10588,"ĠGlobe":10589,"ĠUtah":10590,"erver":10591,"utor":10592,"ĠKane":10593,"Ġconsolid":10594,"Ġ158":10595,"Ġefficient":10596,"Ġ1861":10597,"ĠCultural":10598,"ME":10599,"Ġinclusion":10600,"Ġairline":10601,"ĠHarold":10602,"Ġlasting":10603,"nt":10604,"landers":10605,"Ġfaces":10606,"Ġmorph":10607,"wright":10608,"itate":10609,"ĠCBS":10610,"ipped":10611,"ĠiP":10612,"Ġessentially":10613,"Ġanswer":10614,"ĠSug":10615,"Ġ1889":10616,"ĠSerbian":10617,"oting":10618,"Ġsurprised":10619,"Ġsummit":10620,"ĠFIFA":10621,"Ġtale":10622,"Ġmate":10623,"ucker":10624,"Ġpm":10625,"Ġmood":10626,"Ġgender":10627,"ĠScar":10628,"ĠMI":10629,"Ġjet":10630,"affe":10631,"Ġdeeply":10632,"ATO":10633,"rary":10634,"Ġcharted":10635,"Ġemotion":10636,"Ġcivilians":10637,"Ġliner":10638,"Ġchronic":10639,"ĠProvince":10640,"Ġ161":10641,"Ġpotentially":10642,"Ġratio":10643,"ĠPanzer":10644,"Ġbeaten":10645,"ĠMuhammad":10646,"hers":10647,"Ġ1894":10648,"ĠNewton":10649,"Ġdrafted":10650,"Ġsuspic":10651,"Ġgrave":10652,"mn":10653,"oria":10654,"Ġfate":10655,"keeper":10656,"Ġmanage":10657,"Ġtheories":10658,"levard":10659,"reated":10660,"Ġho":10661,"anche":10662,"Ġ1000":10663,"Ġbeauty":10664,"asha":10665,"Ġmerged":10666,"ĠStuart":10667,"Ã©t":10668,"ĠRepublicans":10669,"Ġdancers":10670,"aiden":10671,"Ġ162":10672,"Ġcrimes":10673,"dess":10674,"Ġdense":10675,"ĠSout":10676,"Ġbeating":10677,"ĠMinor":10678,"ĠConstantine":10679,"Ġsegments":10680,"Ġhills":10681,"Ġ113":10682,"Ġproportion":10683,"Ġtours":10684,"ĠTyler":10685,"opp":10686,"Ġprocesses":10687,"Ġdemo":10688,"Ġsentence":10689,"Arthur":10690,"Ġmerc":10691,"vet":10692,"iko":10693,"Ġdescent":10694,"Ġswit":10695,"castle":10696,"enson":10697,"Ġ1891":10698,"Ġdual":10699,"ĠPok":10700,"Ġscr":10701,"Ġreactions":10702,"Ġimplemented":10703,"onsin":10704,"ĠFerr":10705,"ĠBuffalo":10706,"ĠFighter":10707,"ĠIns":10708,"akh":10709,"Ġsculpture":10710,"ĠPicture":10711,"Ġpersuaded":10712,"Ġheritage":10713,"Ġbell":10714,"ĠYouT":10715,"ĠWisc":10716,"ocation":10717,"Ġfunded":10718,"Ġsoutheastern":10719,"Ġmanip":10720,"ĠOrchest":10721,"Ġboot":10722,"Ġdim":10723,"ĠProduct":10724,"ĠIndonesian":10725,"Ġaccommodate":10726,"Ġrib":10727,"ĠBes":10728,"Ġaltitude":10729,"Ġcolors":10730,"Ã©s":10731,"ĠTyphoon":10732,"Ġcolumns":10733,"ĠYouTube":10734,"ĠTang":10735,"Ġevident":10736,"Ġadminister":10737,"Ġstructural":10738,"ĠCardiff":10739,"ĠApollo":10740,"Ġwine":10741,"istent":10742,"Ġfollowers":10743,"ĠAmendment":10744,"Ġpresentation":10745,"Ġagriculture":10746,"ĠFull":10747,"Ġfeared":10748,"Ġgolden":10749,"Ġcomplained":10750,"Ġpip":10751,"aping":10752,"Ġâģ":10753,"Ġaddressed":10754,"Ġrequiring":10755,"ĠXII":10756,"Ġsailing":10757,"heric":10758,"Ġ156":10759,"born":10760,"ĠAlt":10761,"Ġ1892":10762,"Ġtribe":10763,"Ġproof":10764,"Ġdevoted":10765,"Ġrejoin":10766,"ĠSultan":10767,"Ġdwarf":10768,"Ġ135":10769,"ĠWa":10770,"ĠQuar":10771,"Ġtruck":10772,"boards":10773,"Ġobservation":10774,"Ġoriented":10775,"ĠSymphony":10776,"Ġnurs":10777,"Ġ1800":10778,"Ġrecept":10779,"yself":10780,"Ġinteraction":10781,"Ġfame":10782,"ĠHad":10783,"ĠDays":10784,"ĠWithout":10785,"Ġbreaks":10786,"ĠHunter":10787,"ĠAA":10788,"Ġintermedi":10789,"ĠMcN":10790,"Ġtriang":10791,"sts":10792,"Ġoperates":10793,"ĠWisconsin":10794,"Ġ240":10795,"Ġerror":10796,"ĠRegister":10797,"ĠConservation":10798,"ĠJohann":10799,"ĠKyle":10800,"Ġconfusion":10801,"Ġsuperst":10802,"Ġknee":10803,"ĠBurns":10804,"usalem":10805,"ĠGround":10806,"rific":10807,"Ġjack":10808,"Ġwritings":10809,"Ġjudges":10810,"Ġpregnant":10811,"Ġvoyage":10812,"isons":10813,"ĠBrooks":10814,"ĠMall":10815,"Ġsuddenly":10816,"gie":10817,"Ġcards":10818,"Ġpink":10819,"ĠSox":10820,"Ġgene":10821,"ĠWonder":10822,"ĠUntil":10823,"ĠElectric":10824,"Ġmythology":10825,"Ġkidn":10826,"Ġrect":10827,"ĠAber":10828,"Ġbears":10829,"ĠDanny":10830,"ocket":10831,"Ġextensively":10832,"Ġquarters":10833,"osaurs":10834,"Ġholiday":10835,"ĠWalt":10836,"Ġjurisdiction":10837,"ĠRuth":10838,"ĠHeb":10839,"Ġadvancing":10840,"Ġopens":10841,"Ġdiplomatic":10842,"nels":10843,"ĠCavalry":10844,"Ġcommenting":10845,"Ġresearchers":10846,"ĠSection":10847,"oded":10848,"iously":10849,"ospel":10850,"ĠIslamic":10851,"Ġtension":10852,"ĠPant":10853,"ulus":10854,"othy":10855,"ĠâģĦ":10856,"sor":10857,"Ġthrown":10858,"ĠHope":10859,"ĠKid":10860,"izer":10861,"ĠMetropolitan":10862,"Ġembarked":10863,"Ġcategories":10864,"master":10865,"ĠNature":10866,"Ġ153":10867,"ĠActress":10868,"HS":10869,"Ġsized":10870,"rob":10871,"Ġmud":10872,"anted":10873,"ĠJerusalem":10874,"Ġhighlighted":10875,"ĠSide":10876,"ĠPrest":10877,"Ġsugar":10878,"ĠFitz":10879,"ĠAttorney":10880,"lon":10881,"Ġfert":10882,"ĠTitan":10883,"cliff":10884,"arks":10885,"Ġknocked":10886,"Ġequally":10887,"Ġstatements":10888,"Ġdrown":10889,"Ġphysics":10890,"ĠJustin":10891,"sburg":10892,"Ġtooth":10893,"amount":10894,"Ġgaining":10895,"cha":10896,"Ġages":10897,"Ġsimilarities":10898,"ĠLegisl":10899,"Ġchallenges":10900,"urst":10901,"imp":10902,"Ġassum":10903,"lington":10904,"ĠAirlines":10905,"Ġsentenced":10906,"ĠSonic":10907,"quest":10908,"Ġinfrastructure":10909,"Ġprinciple":10910,"ĠBible":10911,"ĠGang":10912,"Ġstudying":10913,"enos":10914,"ĠTrade":10915,"ĠBoeing":10916,"ĠâĤ¹":10917,"ĠMeth":10918,"Ġrivals":10919,"ĠAbu":10920,"Ġdisturbance":10921,"ĠStart":10922,"Ġmanif":10923,"ĠEdition":10924,"Ġlifetime":10925,"ĠExecutive":10926,"Ġgift":10927,"ĠEnv":10928,"ĠGrade":10929,"Ġ1888":10930,"Ġgardens":10931,"Ġorange":10932,"Ġoverlook":10933,"Ġgh":10934,"Ġconstitu":10935,"Ġuniversal":10936,"Ġtraditionally":10937,"atched":10938,"ĠSud":10939,"Ġlocally":10940,"Ġvariation":10941,"Ġdivorce":10942,"ÃŃn":10943,"Ġrings":10944,"Ġfee":10945,"ĠSchum":10946,"Ġeducated":10947,"ĠMind":10948,"ĠBased":10949,"ĠBarnes":10950,"ĠPatri":10951,"thodox":10952,"Ġdealing":10953,"Ġwarships":10954,"pine":10955,"chi":10956,"Ġpredators":10957,"ĠCrus":10958,"ĠBert":10959,"ĠUnd":10960,"Ġexplaining":10961,"Ġties":10962,"edia":10963,"ĠNas":10964,"ĠSean":10965,"Ġsword":10966,"Ġboundaries":10967,"Ġspawn":10968,"Ġresolved":10969,"Ġpriest":10970,"Ġrecruited":10971,"ancellor":10972,"ĠTu":10973,"osph":10974,"ĠCemetery":10975,"ĠIndependence":10976,"ĠWes":10977,"ĠMiles":10978,"Ġdocumented":10979,"Ġstretch":10980,"Ġempty":10981,"ĠTrad":10982,"ĠBud":10983,"Ġenabled":10984,"phan":10985,"ĠSaturn":10986,"Ġtape":10987,"ĠBaron":10988,"Ġ1885":10989,"ulsion":10990,"zing":10991,"ĠUC":10992,"ometric":10993,"Ġforb":10994,"rift":10995,"Ġseas":10996,"Ġreceives":10997,"ĠMontgom":10998,"ĠTurkey":10999,"ĠRogers":11000,"ĠMontgomery":11001,"Ġsettlements":11002,"Ġweakening":11003,"Ġnaming":11004,"ĠCentury":11005,"Ġconsiderably":11006,"Ġdiscontin":11007,"piece":11008,"ĠSyn":11009,"Ġhostile":11010,"Ġvillain":11011,"ĠMacArthur":11012,"Ġlift":11013,"aple":11014,"Ġscre":11015,"ĠLeaf":11016,"Ġrescued":11017,"Ġtasked":11018,"ni":11019,"Ġurg":11020,"Ġcommercially":11021,"Ġtravelling":11022,"Ġgarnered":11023,"ĠFact":11024,"Ġsupern":11025,"ĠScots":11026,"Ġinvolves":11027,"ĠControl":11028,"unning":11029,"ĠChristians":11030,"backs":11031,"Ġbenefits":11032,"Ġtickets":11033,"ĠIcel":11034,"Ġsmoke":11035,"Ġhelps":11036,"Ġexplore":11037,"Ġcrashed":11038,"ĠÏ":11039,"Ġcliff":11040,"Ġsubstitute":11041,"Ġvolunteers":11042,"Ġashore":11043,"Ġcry":11044,"Ġdimin":11045,"ĠFil":11046,"Ġassert":11047,"Ġguy":11048,"Ġhoused":11049,"ĠCP":11050,"Ġstyl":11051,"Ġstrand":11052,"Ġpitcher":11053,"Ġoptions":11054,"Ġ978":11055,"ĠSherman":11056,"Ġinning":11057,"ĠPul":11058,"ĠWinn":11059,"Ġflex":11060,"ÃŃa":11061,"Ġescorted":11062,"ĠToy":11063,"Ġdisorder":11064,"ĠLev":11065,"Ġdepicts":11066,"ĠMovie":11067,"Ġconcurrent":11068,"Ġdying":11069,"rien":11070,"Ġspar":11071,"rene":11072,"Ġdetect":11073,"ĠStein":11074,"ĠMidd":11075,"agers":11076,"lights":11077,"ĠPierre":11078,"cut":11079,"uters":11080,"wald":11081,"ĠAges":11082,"Ġepic":11083,"Ġdoors":11084,"ĠManagement":11085,"Ġcircular":11086,"Ġbatted":11087,"Ġconflicts":11088,"ĠJudge":11089,"ĠBaltic":11090,"Ġconcerning":11091,"Ġproteins":11092,"hill":11093,"Ã©n":11094,"ĠFlore":11095,"Ġelaborate":11096,"Ġinnoc":11097,"Ġdinner":11098,"Ġvig":11099,"ĠRef":11100,"Ġharbour":11101,"ĠIceland":11102,"Ġreass":11103,"ĠCer":11104,"ĠKrist":11105,"Ġverte":11106,"Ġ112":11107,"Ġpursued":11108,"Ġpursuit":11109,"tains":11110,"ovak":11111,"ĠBeh":11112,"Ġcollections":11113,"Ġimprisoned":11114,"ĠTourn":11115,"ĠCe":11116,"ĠBranch":11117,"ellar":11118,"gged":11119,"Ġborrow":11120,"ÉĻ":11121,"Ġtel":11122,"ĠPas":11123,"ĠFern":11124,"ĠThames":11125,"ĠAren":11126,"ardo":11127,"ĠSpider":11128,"anne":11129,"Ġgods":11130,"sa":11131,"Ġfron":11132,"Ġnut":11133,"Ġteammate":11134,"Ġauthorized":11135,"ĠBarbara":11136,"Ġfra":11137,"Ġinhib":11138,"olar":11139,"ĠFish":11140,"Ġ145":11141,"Ġopposing":11142,"Ġfavourite":11143,"Ġvirtually":11144,"uction":11145,"ĠBask":11146,"ĠFight":11147,"ĠFlow":11148,"Ġrevival":11149,"ĠAgainst":11150,"ĠNeb":11151,"Ġtempo":11152,"Ġcompetitions":11153,"ĠRomney":11154,"lane":11155,"Ġcam":11156,"Ġpill":11157,"Ġeditions":11158,"ĠRegional":11159,"Ġportrait":11160,"Ġeventual":11161,"Ġ1865":11162,"Ġmanufacturing":11163,"ĠHeavyweight":11164,"ĠAthens":11165,"Ġdrain":11166,"Ġmixture":11167,"Ġramp":11168,"Ġchemistry":11169,"ĠRepresentatives":11170,"Ġcensus":11171,"ourag":11172,"aco":11173,"ĠHearts":11174,"Ġpoliticians":11175,"Ġvelocity":11176,"ao":11177,"Ġconj":11178,"Ġrenewed":11179,"ĠChad":11180,"ĠZone":11181,"Ġhandling":11182,"kh":11183,"ĠCrow":11184,"Ġliver":11185,"ĠHunt":11186,"Ġscreenplay":11187,"Ġbeliefs":11188,"Ġstones":11189,"ĠComedy":11190,"ĠReagan":11191,"ĠEvil":11192,"Ġveteran":11193,"Ġrushing":11194,"Ġurged":11195,"ĠCode":11196,"ĠMang":11197,"Ġchase":11198,"Ġabroad":11199,"Ġ159":11200,"Ġ117":11201,"Ġsuspected":11202,"Ġleaf":11203,"Ġunve":11204,"Ġexamination":11205,"Ġuniversities":11206,"Ġlaps":11207,"ĠNancy":11208,"ĠNATO":11209,"Ġspur":11210,"Ġcable":11211,"ĠAny":11212,"ĠInvest":11213,"Ġcattle":11214,"eling":11215,"Ġcapturing":11216,"Ġparticipants":11217,"inery":11218,"ublin":11219,"Ġpromise":11220,"Ġpossess":11221,"Ġcongress":11222,"Ġremembered":11223,"ĠFace":11224,"Ġinterven":11225,"ridor":11226,"Ġpromoting":11227,"Ġstolen":11228,"ĠReport":11229,"Ġmedals":11230,"Ġrendered":11231,"anim":11232,"ando":11233,"arest":11234,"ĠTribune":11235,"isition":11236,"ĠNova":11237,"zo":11238,"onation":11239,"roe":11240,"Ġcolours":11241,"Ġtrapped":11242,"gow":11243,"mo":11244,"ĠTru":11245,"rible":11246,"Ġthereby":11247,"Ġtracked":11248,"Ġbombardment":11249,"Ġinherited":11250,"Ġtrailer":11251,"Ġdecreased":11252,"point":11253,"Ġcow":11254,"Ġvital":11255,"Ġapply":11256,"Ġorganisms":11257,"ĠErnest":11258,"ĠGran":11259,"Ġtaste":11260,"Ġsor":11261,"Ġloud":11262,"otion":11263,"Ġsharks":11264,"Ġprox":11265,"occ":11266,"Ġ114":11267,"Ġ118":11268,"Ġ450":11269,"Ġaccidentally":11270,"ĠPortugal":11271,"itic":11272,"ĠSaf":11273,"ĠDraft":11274,"Ġcomics":11275,"ĠMarines":11276,"Ġpositively":11277,"Ġcostume":11278,"ĠConstantinople":11279,"ocal":11280,"Ġprototype":11281,"Ġtissue":11282,"Ġdecay":11283,"ĠNewcastle":11284,"Ġinvaded":11285,"erts":11286,"Ġcelebration":11287,"Ġinhab":11288,"Ġoccasional":11289,"Ġjuven":11290,"ĠBright":11291,"oba":11292,"Ġwarned":11293,"Ġcompositions":11294,"Ġsav":11295,"ĠHas":11296,"ilda":11297,"ĠPersonnel":11298,"ĠPete":11299,"ĠCharlotte":11300,"Ġrand":11301,"Ġhopes":11302,"Ġblend":11303,"isan":11304,"ĠBeth":11305,"Ġrains":11306,"limin":11307,"mont":11308,"ĠWed":11309,"ĠEddie":11310,"Ġbatteries":11311,"ĠJosÃ©":11312,"ĠMi":11313,"ĠGlas":11314,"ĠMagic":11315,"Ġlinks":11316,"ĠJoint":11317,"rior":11318,"restrial":11319,"Ġhoping":11320,"Ġevacuation":11321,"Ġvariations":11322,"ĠAffairs":11323,"Ġmaps":11324,"ĠCinem":11325,"colm":11326,"Ġanticipated":11327,"hou":11328,"quer":11329,"ĠKon":11330,"ĠGibral":11331,"idia":11332,"ĠYouth":11333,"ĠShah":11334,"Ġtornado":11335,"fly":11336,"Ġdust":11337,"ĠHom":11338,"Ġupcoming":11339,"Ġ1864":11340,"Ġib":11341,"ĠCryst":11342,"ĠLaboratory":11343,"Ġhorizont":11344,"Ġlaugh":11345,"Ġnose":11346,"ĠCornwall":11347,"ĠEnvironment":11348,"icking":11349,"Ġmarking":11350,"ĠOthers":11351,"ĠMerced":11352,"ĠLiberty":11353,"Ġbomber":11354,"ampton":11355,"ĠChapel":11356,"bing":11357,"vo":11358,"ĠSaw":11359,"ĠVoice":11360,"Ġguests":11361,"Ġgenu":11362,"Ġboyfriend":11363,"áº":11364,"Ġsinking":11365,"Ġrever":11366,"Ġdozen":11367,"ĠERA":11368,"ovic":11369,"Ġscandal":11370,"Ġimpressive":11371,"Ġseparation":11372,"Ġaccessible":11373,"ĠFreedom":11374,"Ġfires":11375,"rogen":11376,"ĠAL":11377,"Ġindigenous":11378,"ĠAgu":11379,"Ġeasier":11380,"Ġlaboratory":11381,"igious":11382,"Ġprovisions":11383,"ĠFilming":11384,"ulum":11385,"assy":11386,"Ġnickname":11387,"ĠLower":11388,"ĠVick":11389,"ER":11390,"ĠTerm":11391,"Ġrugby":11392,"eps":11393,"ĠSic":11394,"ĠVo":11395,"ught":11396,"Ġafford":11397,"Ġthreats":11398,"Ġdependent":11399,"ĠGibraltar":11400,"auc":11401,"ĠTree":11402,"ĠGon":11403,"icken":11404,"ĠMalcolm":11405,"Ġavoided":11406,"orf":11407,"agles":11408,"Ġbiological":11409,"ĠMeteorological":11410,"held":11411,"Ġsupports":11412,"Ġpolitician":11413,"ĠFriends":11414,"DI":11415,"Î±":11416,"ĠBapt":11417,"Ġhandle":11418,"Ġvolcanic":11419,"Ġfed":11420,"Ġlighter":11421,"ĠMembers":11422,"Ġprogressed":11423,"ĠKenneth":11424,"Ġparliamentary":11425,"Ġrandom":11426,"Ġtrunk":11427,"Ġconsumption":11428,"Î¿":11429,"ĠArmenian":11430,"Ġtherm":11431,"ĠChester":11432,"ĠCena":11433,"artime":11434,"orted":11435,"Ġdefenders":11436,"enberg":11437,"ĠDJ":11438,"Ġnep":11439,"ailing":11440,"ĠLeices":11441,"atsu":11442,"ĠCase":11443,"Ġformula":11444,"ĠXX":11445,"Ġbiography":11446,"ĠProtestant":11447,"Ġfier":11448,"Ġdeputy":11449,"Ġhyper":11450,"Ġrestrictions":11451,"amics":11452,"Ġimposed":11453,"Ġeld":11454,"Ġtruly":11455,"ĠBoulevard":11456,"Ġcorporate":11457,"ĠCand":11458,"ĠDuch":11459,"ptic":11460,"Ġfles":11461,"ĠMult":11462,"var":11463,"Ġcash":11464,"Ġda":11465,"Ġusage":11466,"ĠOscar":11467,"ĠCinc":11468,"ĠBark":11469,"agg":11470,"ĠThan":11471,"Ġmurdered":11472,"ĠOrchestra":11473,"lem":11474,"amine":11475,"ĠEnergy":11476,"Ġlicense":11477,"ĠÄĲ":11478,"ĠLP":11479,"iah":11480,"Ġproduces":11481,"Ġmixing":11482,"Ġoccurring":11483,"ĠAntar":11484,"gÃ©":11485,"Ġtoxic":11486,"ĠSkin":11487,"ĠThr":11488,"racks":11489,"changed":11490,"ĠPedro":11491,"ĠIsaac":11492,"Ġine":11493,"ĠBears":11494,"ĠPeng":11495,"Ġnoticed":11496,"Ġeastward":11497,"Ġcustomers":11498,"ĠChamberlain":11499,"Ġwound":11500,"ĠMV":11501,"Ġacre":11502,"Ġparticles":11503,"Ġdreadn":11504,"ĠAthletic":11505,"Ġlawsuit":11506,"ĠTake":11507,"ĠBreak":11508,"ĠDublin":11509,"Ġcontracts":11510,"ielder":11511,"etta":11512,"oples":11513,"Ġ131":11514,"Ġ1862":11515,"ded":11516,"alling":11517,"Ġexile":11518,"Ġplates":11519,"Ġtimber":11520,"Ġpor":11521,"ĠAction":11522,"Ġabb":11523,"Ġãĥ":11524,"osy":11525,"Ġmetric":11526,"Ġkiller":11527,"ĠGuild":11528,"acht":11529,"Ġspeculation":11530,"Ġcathedral":11531,"ĠCareer":11532,"ĠChair":11533,"ĠBradley":11534,"Ġtouchdowns":11535,"heimer":11536,"Ġnephew":11537,"ĠZero":11538,"Ġengineers":11539,"ĠSex":11540,"Ġrelation":11541,"Ġordinary":11542,"Ġwake":11543,"Ġchoir":11544,"Ġangry":11545,"Ġprest":11546,"ĠCyclone":11547,"ĠAltern":11548,"Ġ107":11549,"Ġdebris":11550,"ĠRoom":11551,"Ġdepicting":11552,"Ġdisappointed":11553,"ju":11554,"Ġaside":11555,"Ġindustries":11556,"Ġintellectual":11557,"Ġhence":11558,"Ġundertaken":11559,"ĠTournament":11560,"Ġå":11561,"Ġfab":11562,"Ġdevelopments":11563,"Ġconvicted":11564,"ĠContinental":11565,"Ġkilog":11566,"Ġencounters":11567,"ĠWatch":11568,"emble":11569,"Ġthreatening":11570,"ĠGabri":11571,"bach":11572,"overed":11573,"phal":11574,"ĠSlav":11575,"Ġignored":11576,"Ġconquest":11577,"Ġcomplicated":11578,"Ġthunderstorm":11579,"Ġcu":11580,"Ġstrikes":11581,"Ġvicinity":11582,"Ġstern":11583,"Ġmounts":11584,"Ġlyrical":11585,"ĠArchbishop":11586,"Ġmechanism":11587,"ĠPel":11588,"ĠGlee":11589,"osion":11590,"Ġdecrease":11591,"hl":11592,"itime":11593,"Ġune":11594,"ĠMetro":11595,"Ġthrowing":11596,"Ġrevolutionary":11597,"for":11598,"alg":11599,"Ġterritorial":11600,"Ġchampionships":11601,"umbered":11602,"AN":11603,"izz":11604,"enburg":11605,"Ġmit":11606,"ĠVilla":11607,"Ġconfident":11608,"Ġelite":11609,"Ġhumanity":11610,"ĠSpringfield":11611,"Ġ157":11612,"ĠCollection":11613,"ĠLuft":11614,"ĠSerbia":11615,"Ġward":11616,"ĠLS":11617,"Ġchrom":11618,"Ġremin":11619,"Ġbreast":11620,"ĠOrd":11621,"Ġexhibit":11622,"ĠAlberta":11623,"ĠKin":11624,"Ġ220":11625,"Ġconversation":11626,"AP":11627,"ĠFuture":11628,"Ġrealistic":11629,"Ġlacking":11630,"ĠTommy":11631,"ĠCincinn":11632,"itol":11633,"Ġcontacted":11634,"Ġpreserve":11635,"onial":11636,"entieth":11637,"ĠMann":11638,"ieg":11639,"Ġmetre":11640,"Ġconstantly":11641,"Ġhelicopter":11642,"Ġarose":11643,"icing":11644,"Ġmos":11645,"olia":11646,"Ġsuspension":11647,"Ġfocuses":11648,"ĠMarshal":11649,"Ġboost":11650,"Ġmammals":11651,"Ġinaugural":11652,"iture":11653,"Ġpenn":11654,"ĠPros":11655,"ĠPlace":11656,"Ġposts":11657,"ĠMicha":11658,"Ġfacil":11659,"ĠStudies":11660,"Ġ1840":11661,"ĠGates":11662,"ĠJoan":11663,"Ġentert":11664,"ĠChurchill":11665,"ĠTaiwan":11666,"Ġgif":11667,"ĠVeg":11668,"ĠShep":11669,"Ġfarmers":11670,"Ġpredominantly":11671,"iked":11672,"uka":11673,"Ġvoters":11674,"bel":11675,"encer":11676,"ĠTir":11677,"etary":11678,"Ġstim":11679,"Ġpatri":11680,"liminary":11681,"Ġasserted":11682,"ĠMuslims":11683,"Ġinfer":11684,"omed":11685,"Ġdesper":11686,"Ġdiamond":11687,"Ġtools":11688,"ellers":11689,"rolled":11690,"oirs":11691,"ĠFriedrich":11692,"Ġinfection":11693,"ĠMalta":11694,"Hg":11695,"asp":11696,"Ġunt":11697,"ĠYugoslavia":11698,"ĠTint":11699,"ĠPay":11700,"ĠJake":11701,"ocol":11702,"ĠKaz":11703,"Ġreleasing":11704,"Ġphoto":11705,"Ġcollaborated":11706,"Ġthorough":11707,"ĠRear":11708,"ĠAncient":11709,"Ġthro":11710,"ĠCanu":11711,"rank":11712,"Ġfeathers":11713,"Ġabsorbed":11714,"ĠWagner":11715,"ĠChet":11716,"Ġpatient":11717,"Ġremoving":11718,"Ġconspiracy":11719,"Ġmad":11720,"Ġholes":11721,"ĠHood":11722,"ĠHull":11723,"ĠUk":11724,"Ġcentered":11725,"ĠReed":11726,"Ġpeninsula":11727,"Ġtune":11728,"ĠMaine":11729,"ĠRound":11730,"ortion":11731,"ĠShiva":11732,"ĠWaters":11733,"quiry":11734,"iga":11735,"Ġrelieved":11736,"ĠEC":11737,"Ġapolog":11738,"ework":11739,"Ġcastles":11740,"ischer":11741,"Ġcompiled":11742,"Ġgrows":11743,"ĠRobin":11744,"Ġillustrated":11745,"Ġuser":11746,"Ġexplanation":11747,"ĠFly":11748,"ubble":11749,"ĠParks":11750,"Ġknows":11751,"Ġcanceled":11752,"ĠCincinnati":11753,"Ġpig":11754,"ĠComics":11755,"Ġroadway":11756,"ĠNormandy":11757,"Ġisn":11758,"Ġ126":11759,"Ġspeeds":11760,"Ġindependently":11761,"ĠBurke":11762,"ĠOlivia":11763,"Ġsustain":11764,"ĠDud":11765,"Ġresid":11766,"Ġenorm":11767,"Ġretrie":11768,"ennial":11769,"Ġ132":11770,"ĠHispan":11771,"Ġsituations":11772,"ĠAngelou":11773,"ĠEsc":11774,"ĠShield":11775,"regular":11776,"ĠAfghanistan":11777,"ĠMaced":11778,"auge":11779,"Ġarmoured":11780,"Ġpleased":11781,"ĠVIII":11782,"Ġantib":11783,"Ġfant":11784,"ĠChang":11785,"Ġsheep":11786,"ringe":11787,"Ġbowl":11788,"Ġbreeds":11789,"ĠCort":11790,"Ġencom":11791,"ahl":11792,"ĠAlliance":11793,"Ġmarched":11794,"ĠVegas":11795,"asury":11796,"ĠKill":11797,"ritic":11798,"Ġ119":11799,"Ġ1887":11800,"music":11801,"ĠSor":11802,"ĠLords":11803,"Ġoffshore":11804,"rels":11805,"Ġlover":11806,"ĠBrid":11807,"ĠMadison":11808,"oi":11809,"Ġaest":11810,"Ġlib":11811,"ĠEdmund":11812,"Ġoutstanding":11813,"ĠTwitter":11814,"Ġpaying":11815,"Ġclergy":11816,"Ġlayers":11817,"ĠPokÃ©":11818,"ĠEld":11819,"Ġarena":11820,"Ġprosper":11821,"Ġblast":11822,"Ġcouldn":11823,"uber":11824,"Ã´":11825,"ĠRush":11826,"Ġ1863":11827,"Ġvarying":11828,"Ġmild":11829,"Ġclosure":11830,"ĠConservative":11831,"hall":11832,"oom":11833,"Ġexpanding":11834,"Ġviewing":11835,"Ġdisappeared":11836,"ĠRevolutionary":11837,"Ġlocomotives":11838,"ulates":11839,"Ġbutter":11840,"Ġbackst":11841,"Ġsentiment":11842,"Ġ1886":11843,"ĠGregory":11844,"£o":11845,"icular":11846,"Ġmask":11847,"ĠSad":11848,"ĠKra":11849,"Ġgenres":11850,"ĠFormer":11851,"bu":11852,"ĠLud":11853,"Ġperc":11854,"overty":11855,"ĠTechnology":11856,"Ġcolored":11857,"Ġdropping":11858,"gus":11859,"ĠLeeds":11860,"found":11861,"ĠJNA":11862,"Ġreporting":11863,"hart":11864,"avan":11865,"Ġsuggestion":11866,"imony":11867,"ribution":11868,"Ġcelebrate":11869,"umberland":11870,"instein":11871,"ĠCoal":11872,"ĠSerge":11873,"ĠMercury":11874,"ĠSchumacher":11875,"WA":11876,"ĠHus":11877,"Ġatop":11878,"Ġspir":11879,"izard":11880,"aneous":11881,"Ġnevertheless":11882,"ĠBrooklyn":11883,"Ġbapt":11884,"ĠHubb":11885,"Ġflour":11886,"Ġregulations":11887,"Ġfungus":11888,"ĠOrton":11889,"Ġsubmarines":11890,"ĠMLB":11891,"Ġinducted":11892,"gary":11893,"ĠCou":11894,"ĠCut":11895,"ĠCond":11896,"acular":11897,"Ġgrid":11898,"ĠDennis":11899,"onnie":11900,"ĠJulian":11901,"Ġaqu":11902,"ĠNation":11903,"ipher":11904,"Ġoxid":11905,"Ġasc":11906,"issioned":11907,"Ġwitnesses":11908,"ĠCry":11909,"Ġattraction":11910,"feld":11911,"ĠËĪ":11912,"inated":11913,"ĠTalk":11914,"ĠSoph":11915,"ĠBurg":11916,"ĠRus":11917,"Ġconced":11918,"Ġrab":11919,"Ġanthem":11920,"ĠChem":11921,"Ġsubmer":11922,"Ġfaculty":11923,"ĠÃī":11924,"ĠHelen":11925,"Ġswept":11926,"AL":11927,"Ġeagle":11928,"ishn":11929,"Ġreporter":11930,"Ġcompanion":11931,"ĠPrinceton":11932,"ĠTigers":11933,"leted":11934,"ĠAub":11935,"Ġremote":11936,"ĠinHg":11937,"Ġretreated":11938,"Ġmonit":11939,"Ġpositioned":11940,"ĠBrowns":11941,"Ġromance":11942,"ĠMcKinley":11943,"zes":11944,"Ġaf":11945,"omon":11946,"ĠMut":11947,"ĠLamb":11948,"Ġrepris":11949,"ĠOrganization":11950,"Ġpseud":11951,"ĠVern":11952,"Ġorganic":11953,"Ġtent":11954,"Ġsulf":11955,"ĠNathan":11956,"Ġblamed":11957,"Ġpublicity":11958,"Ġfortifications":11959,"gett":11960,"Ġverses":11961,"ĠMonth":11962,"Ġparking":11963,"ĠHistorical":11964,"Ġstored":11965,"yan":11966,"odium":11967,"ĠLeo":11968,"Ġfundamental":11969,"flow":11970,"Ġshelter":11971,"Ġstability":11972,"Ġwhatever":11973,"ĠMusical":11974,"Ġ1884":11975,"Ġtargeted":11976,"ĠGhost":11977,"Ġcondemned":11978,"ĠHubbard":11979,"bie":11980,"ĠStal":11981,"Ġmail":11982,"Ġannex":11983,"Ġcurve":11984,"ĠSmack":11985,"eness":11986,"ĠBarcel":11987,"Ġfocusing":11988,"Ġcorresponding":11989,"Ġfossils":11990,"Ġferry":11991,"pin":11992,"Ġlung":11993,"usters":11994,"Ġrecruit":11995,"hend":11996,"Ġfract":11997,"Ġgentle":11998,"Ġprogressive":11999,"ĠSteam":12000,"yd":12001,"Ġnoise":12002,"Ġflown":12003,"ĠNASA":12004,"rity":12005,"qual":12006,"Ġtorpedoes":12007,"Ġirregular":12008,"Ġpreceding":12009,"ĠPolitical":12010,"ĠFather":12011,"Ġ103":12012,"Ġdetected":12013,"lett":12014,"Ġswing":12015,"Ġroster":12016,"Ġconfused":12017,"Ġdrunk":12018,"Ġdisbanded":12019,"ĠGlasgow":12020,"eda":12021,"ĠIsle":12022,"ĠOpera":12023,"Ġmentions":12024,"ĠCanucks":12025,"Ġfault":12026,"ĠIsab":12027,"Ġconvince":12028,"Ġmelod":12029,"ĠMak":12030,"ĠPick":12031,"ĠNass":12032,"Ġcha":12033,"Ġencourag":12034,"Ġresignation":12035,"cell":12036,"ĠTests":12037,"ĠInside":12038,"iki":12039,"ĠDevil":12040,"Ġtelephone":12041,"areness":12042,"Ġcruise":12043,"Ġchallenging":12044,"ĠNad":12045,"Ġregiments":12046,"Ġmachines":12047,"Ġmagnetic":12048,"Ġbore":12049,"Ġdirecting":12050,"Ġrebounds":12051,"ĠHolland":12052,"Ġbrings":12053,"arded":12054,"Ġquoted":12055,"Ġinsurance":12056,"Ġwinners":12057,"auded":12058,"Ġcalculated":12059,"Ġsolely":12060,"ËĲ":12061,"Ġterminal":12062,"ĠSolar":12063,"Ġrice":12064,"ĠStrong":12065,"Ġscrap":12066,"Ġstudios":12067,"ĠAustro":12068,"Ġtourist":12069,"ĠPhillies":12070,"ĠFifth":12071,"ĠTheodore":12072,"igation":12073,"ĠRI":12074,"ĠInsp":12075,"ĠMontana":12076,"Ġdiversity":12077,"Ġtriumph":12078,"ĠMillennium":12079,"ĠHerbert":12080,"Ġworse":12081,"ĠUB":12082,"Ġthanks":12083,"ĠCeltic":12084,"Ġtap":12085,"elin":12086,"ewise":12087,"ĠSeb":12088,"ĠWestminster":12089,"Ġjudicial":12090,"Ġcreature":12091,"Ġconcepts":12092,"ĠDenver":12093,"ĠNam":12094,"ĠKil":12095,"Ġfavored":12096,"Ġdarker":12097,"ĠBCE":12098,"onso":12099,"isk":12100,"Ġhide":12101,"ĠMorning":12102,"Ġrouting":12103,"ĠTintin":12104,"vor":12105,"avian":12106,"roscop":12107,"Ġscholarship":12108,"ĠCEO":12109,"Ġnice":12110,"ishops":12111,"Ġrotation":12112,"ampa":12113,"Ġ1877":12114,"ĠBasketball":12115,"Ġ129":12116,"Ġhistorically":12117,"inter":12118,"Ġmyself":12119,"ourable":12120,"ĠAdventure":12121,"Ġfo":12122,"ĠMig":12123,"ĠWel":12124,"Ġ138":12125,"Ġ230":12126,"Ġrounded":12127,"Ġprompting":12128,"ĠEpis":12129,"Ġcemetery":12130,"Ġgear":12131,"atty":12132,"Ġ1876":12133,"Ġcotton":12134,"ĠBour":12135,"Ġagencies":12136,"overy":12137,"hentic":12138,"Ġ122":12139,"Ġzero":12140,"Ġexamined":12141,"Ġsteadily":12142,"Ġghost":12143,"Ġjersey":12144,"Ġconfig":12145,"ĠExpl":12146,"Ġcommitment":12147,"Ġreconstruction":12148,"ĠMercedes":12149,"ĠRav":12150,"Ġjew":12151,"ĠBarn":12152,"ĠBrah":12153,"ulu":12154,"ĠYard":12155,"Ġ116":12156,"Ġtroop":12157,"Ġbattlefield":12158,"nda":12159,"ĠPoe":12160,"ĠOcc":12161,"lude":12162,"Ġacclaimed":12163,"iors":12164,"Ġmasc":12165,"ĠTheater":12166,"Ġtrio":12167,"ĠGlou":12168,"Ġmotif":12169,"ĠBulgarian":12170,"Ġspacecraft":12171,"ĠNevada":12172,"Ġwartime":12173,"umi":12174,"Ġsharing":12175,"ĠAthen":12176,"works":12177,"ĠCox":12178,"ĠRivers":12179,"Ġmessages":12180,"ĠAlbany":12181,"Ġgusts":12182,"ĠAdditional":12183,"rians":12184,"Ġ134":12185,"Ġagrees":12186,"Ġballs":12187,"Ġmeasuring":12188,"ĠSalv":12189,"ĠRonald":12190,"sis":12191,"ĠCany":12192,"acer":12193,"Ġincidents":12194,"Ġguards":12195,"Ġpostp":12196,"ĠPercy":12197,"Ġconnects":12198,"Ġwalked":12199,"ĠGothic":12200,"Ġmonastery":12201,"atisf":12202,"ĠSri":12203,"ĠSquad":12204,"Ġdecisive":12205,"Ġpresents":12206,"Ġposter":12207,"Ġconducting":12208,"Ġelevated":12209,"Ġamphib":12210,"ĠLed":12211,"Ġrefuses":12212,"Ġradius":12213,"Ġwalks":12214,"ĠCarlos":12215,"ĠCurrent":12216,"lined":12217,"Ġdistinction":12218,"ĠCaes":12219,"Ġeligible":12220,"Ġscreens":12221,"omical":12222,"ĠBris":12223,"ĠHok":12224,"Ġthemed":12225,"Ġcurved":12226,"Ġflower":12227,"eta":12228,"Ã¶r":12229,"Ġkilometers":12230,"ĠOttawa":12231,"Ġclouds":12232,"ĠTerritory":12233,"Ġlinear":12234,"Ġproclaimed":12235,"Ġoct":12236,"Ġloose":12237,"ĠRosen":12238,"istical":12239,"Ġtrig":12240,"Ġconsequence":12241,"Ġrevenge":12242,"Music":12243,"bi":12244,"aton":12245,"Ġhosp":12246,"Ġconvey":12247,"Ġexterior":12248,"aults":12249,"Ġaccomplished":12250,"Ġtough":12251,"Ġstall":12252,"opard":12253,"Ġkids":12254,"ĠVerm":12255,"á»ĩ":12256,"arians":12257,"Ġecho":12258,"ĠPack":12259,"ettes":12260,"Ġ1830":12261,"Ġintegrated":12262,"ht":12263,"aku":12264,"Ġfinest":12265,"Ġarguments":12266,"Ġphysically":12267,"Ġopined":12268,"Ġritual":12269,"cont":12270,"ĠChuck":12271,"Ġrebel":12272,"ĠBerm":12273,"olan":12274,"Ġcomed":12275,"izers":12276,"Ġcentimet":12277,"Ġcreatures":12278,"Ġparticipating":12279,"Ġcosm":12280,"Ġlakes":12281,"unge":12282,"ĠMega":12283,"atar":12284,"aba":12285,"ĠMarl":12286,"ĠAbra":12287,"Ġtheaters":12288,"Ġvenues":12289,"arthy":12290,"ĠPokÃ©mon":12291,"ĠBarcelona":12292,"ĠDuc":12293,"iffer":12294,"Ġscout":12295,"Ġairborne":12296,"Ġrunner":12297,"Ġ1875":12298,"Ġencompass":12299,"Ġintend":12300,"ĠFun":12301,"Ġspell":12302,"ĠCardinals":12303,"Ġmartial":12304,"ĠMichaels":12305,"ĠTas":12306,"abad":12307,"assic":12308,"ĠArc":12309,"Ġindirect":12310,"ĠMilan":12311,"itars":12312,"ighed":12313,"Ġunh":12314,"Ġinstructions":12315,"Down":12316,"ĠChan":12317,"ogs":12318,"Ġcanon":12319,"Ġinsuff":12320,"Ġdeliberately":12321,"Ġtouc":12322,"Ġspots":12323,"reeks":12324,"Ġdemographic":12325,"ĠMetac":12326,"Ġceremonies":12327,"ĠHi":12328,"Ġchann":12329,"Ġ128":12330,"ĠParkway":12331,"Ġwidth":12332,"Ġenhanced":12333,"Ġmansion":12334,"Ġintermediate":12335,"Ġreminisc":12336,"season":12337,"Ġyd":12338,"ubs":12339,"Ġproperly":12340,"Ġcontribute":12341,"Ġcomplimented":12342,"ĠWis":12343,"ĠEnix":12344,"ĠColin":12345,"Ġlesser":12346,"ĠSmackDown":12347,"sch":12348,"Ġcontrad":12349,"Ġprince":12350,"ĠParaly":12351,"ĠOperations":12352,"Ġtelesc":12353,"Ġgram":12354,"Ġpeoples":12355,"Ġmarg":12356,"Ġpossessed":12357,"ĠRaymond":12358,"Ġpreparations":12359,"Ġextends":12360,"Ġweakness":12361,"anka":12362,"Ġvaries":12363,"Ġtransformed":12364,"Ġheavier":12365,"Ġborough":12366,"ĠHenderson":12367,"ĠDrake":12368,"ĠFoster":12369,"ĠHein":12370,"Ġministers":12371,"ĠArchae":12372,"ĠCircle":12373,"Ġharsh":12374,"Ġonwards":12375,"Ġsouthwestern":12376,"Ġbowled":12377,"Ġprospect":12378,"inus":12379,"ĠRBI":12380,"ĠEmma":12381,"Ġ1883":12382,"Ä«":12383,"rium":12384,"Ġremake":12385,"ĠSpeed":12386,"ĠRomanian":12387,"GM":12388,"asia":12389,"ĠBod":12390,"Ġsensitive":12391,"Ġassassination":12392,"ĠManuel":12393,"ĠMiddles":12394,"herent":12395,"ĠWings":12396,"Ġoutcome":12397,"Ġcoaches":12398,"Ġ1881":12399,"rush":12400,"ĠâĻ":12401,"Ġplayable":12402,"Ġachievements":12403,"Ġinitiative":12404,"ĠSciences":12405,"ĠComputer":12406,"Ġoptim":12407,"Ġvegetation":12408,"Ġaided":12409,"Ġcontinental":12410,"Ġcritically":12411,"ĠWeather":12412,"Ġupdated":12413,"HC":12414,"Ġhurt":12415,"Ġhomosexual":12416,"Ġfru":12417,"Ġdisabled":12418,"ĠShin":12419,"Ġtransmission":12420,"ĠAngle":12421,"ĠBelie":12422,"ĠTotal":12423,"Ġrook":12424,"Ġallied":12425,"ashire":12426,"lake":12427,"Ġwit":12428,"arus":12429,"Ġbin":12430,"ĠRNA":12431,"Ġlogo":12432,"ĠDiamond":12433,"yc":12434,"ĠVoy":12435,"atorial":12436,"ironments":12437,"Ġpropaganda":12438,"ĠParalymp":12439,"agi":12440,"ĠAlam":12441,"ĠBlair":12442,"Ġconsideration":12443,"ĠVenice":12444,"Ġmoist":12445,"chw":12446,"ĠNorthwest":12447,"Ġrider":12448,"Ġvariable":12449,"Ġdeposits":12450,"ĠJamaica":12451,"Ġdepiction":12452,"Ġtourists":12453,"ĠFerdin":12454,"Ġconsciousness":12455,"core":12456,"ĠBass":12457,"ĠFa":12458,"Ġlandmark":12459,"appa":12460,"Ġ1869":12461,"Ġestimate":12462,"Ġemerging":12463,"Ġsailors":12464,"Ġexercises":12465,"Ġreh":12466,"Ġmonster":12467,"ĠRichardson":12468,"ĠBody":12469,"Ġunanim":12470,"actic":12471,"ĠUnit":12472,"Ġworker":12473,"Ġdamaging":12474,"ĠComposition":12475,"ĠContem":12476,"ĠPowell":12477,"Ġsubtropical":12478,"Ġautobiography":12479,"Ġtom":12480,"ĠDelta":12481,"cht":12482,"Ġ151":12483,"ĠCalgary":12484,"alties":12485,"ĠAqu":12486,"ĠDuncan":12487,"Ġorchestral":12488,"ĠLancashire":12489,"Ġmunicipal":12490,"Ġarchaeological":12491,"ĠArena":12492,"ĠIb":12493,"rip":12494,"Ġseal":12495,"Ġspite":12496,"Ġnortheastern":12497,"Ġhonors":12498,"Ġconsistently":12499,"Ġpunishment":12500,"Ġpermanently":12501,"ĠIsles":12502,"Ġenvironments":12503,"Ġcomprising":12504,"Ġlatest":12505,"Ġascend":12506,"Ġstaged":12507,"Ġpref":12508,"Ġroutine":12509,"Ġborders":12510,"Ġstom":12511,"Ġ1866":12512,"Ġdoctrine":12513,"Ġepit":12514,"ĠSprings":12515,"Ġrevealing":12516,"ĠVeronica":12517,"ĠCu":12518,"ĠRange":12519,"Ġsummon":12520,"Ġdock":12521,"riages":12522,"Ġpresidency":12523,"Ġcarved":12524,"ĠFloyd":12525,"Ġcoaching":12526,"Ġsearching":12527,"ĠPlanet":12528,"ĠPsych":12529,"Ġperformers":12530,"rington":12531,"Ġachievement":12532,"Ġjournalists":12533,"ĠRif":12534,"ĠXI":12535,"Ġmanaging":12536,"ĠMills":12537,"Ġ750":12538,"ĠCarn":12539,"ĠMedic":12540,"Ġdispatched":12541,"Ġbelonging":12542,"Ġunsuccessfully":12543,"Ġion":12544,"iang":12545,"Ġpriority":12546,"Ġpayment":12547,"ijing":12548,"ĠRodrig":12549,"ĠUsing":12550,"Ġwitnessed":12551,"Ġdelegates":12552,"Ġmysterious":12553,"Ġinput":12554,"Ġmarsh":12555,"ĠFrances":12556,"ĠEllen":12557,"ĠCanyon":12558,"the":12559,"lex":12560,"ido":12561,"ĠPon":12562,"Ġconfer":12563,"ĠCloud":12564,"ĠHeadquarters":12565,"Ġpsychiat":12566,"Ġenlar":12567,"Ġcomplement":12568,"Ġversus":12569,"ĠBerg":12570,"Ġpreventing":12571,"Ġreluctant":12572,"Ġsilent":12573,"ĠConserv":12574,"Ġencourage":12575,"Ġodd":12576,"Ġfrigate":12577,"ĠTab":12578,"ĠPra":12579,"ĠCrawford":12580,"gor":12581,"Ġmilk":12582,"Ġventure":12583,"ĠCrystal":12584,"RS":12585,"zig":12586,"Ġ124":12587,"Ġphilosopher":12588,"ĠIntellig":12589,"Ġphenomenon":12590,"ĠTib":12591,"Ġgates":12592,"ĠFlanders":12593,"ĠTelegraph":12594,"Ġargue":12595,"Ġlengths":12596,"stown":12597,"Ġanarch":12598,"Ġactively":12599,"Ġceiling":12600,"ĠButler":12601,"Ġbelonged":12602,"Ġdistinguish":12603,"ĠPalestine":12604,"Brien":12605,"omys":12606,"olars":12607,"Ġstrange":12608,"Ġplum":12609,"ĠGrove":12610,"ĠLeicester":12611,"ĠPunk":12612,"ĠDj":12613,"arma":12614,"Ġdisputed":12615,"Ġswitched":12616,"Ġmant":12617,"ĠFood":12618,"ĠVic":12619,"assed":12620,"Ġexecutives":12621,"Ġhypothesis":12622,"Ġpoverty":12623,"Ġgest":12624,"ĠMarqu":12625,"ĠGuadal":12626,"Ġicon":12627,"oric":12628,"isations":12629,"asi":12630,"adows":12631,"ĠMull":12632,"idge":12633,"rained":12634,"Ġshaft":12635,"Ġeighteen":12636,"Ġ1873":12637,"Ġmechanics":12638,"Ġfinance":12639,"ĠPlat":12640,"Ġexploration":12641,"Ġcorruption":12642,"ĠAssist":12643,"Ġawareness":12644,"ĠMile":12645,"Ġlistening":12646,"boat":12647,"Ġ1882":12648,"Ġscientist":12649,"ĠNewman":12650,"Ġdirections":12651,"Ġintroduce":12652,"Ġmystery":12653,"alia":12654,"Ġmbar":12655,"Ġroot":12656,"Ġcontributing":12657,"Ġexpectations":12658,"Tunes":12659,"ĠTucker":12660,"Ġabst":12661,"Ġaccus":12662,"ĠSH":12663,"ĠFur":12664,"ĠFischer":12665,"Ġvamp":12666,"Ġrational":12667,"usty":12668,"Ġformations":12669,"ĠBeijing":12670,"Ġinternationally":12671,"Ġ1871":12672,"Ġadjust":12673,"eches":12674,"ĠAnat":12675,"Ġshipped":12676,"ĠFilms":12677,"ĠWatson":12678,"Ġov":12679,"immer":12680,"Ġguitars":12681,"ĠRegion":12682,"Ġ1867":12683,"Ġobjectives":12684,"rud":12685,"ĠBea":12686,"nery":12687,"Ġtemples":12688,"Ġmolecular":12689,"Ġdimensional":12690,"Ġhoney":12691,"ĠPly":12692,"Ġwhales":12693,"Ġleagues":12694,"ĠWhy":12695,"rews":12696,"Ġprocessing":12697,"Ġprocedure":12698,"Ġsib":12699,"Ġsheet":12700,"Ġmetals":12701,"Ġsurpassed":12702,"Ġsubmerged":12703,"ĠSyl":12704,"ĠRaid":12705,"Ġ202":12706,"Ġdesired":12707,"Ġphosph":12708,"Ġimproving":12709,"ĠKepler":12710,"Ġtribut":12711,"Ġnaturally":12712,"BO":12713,"asaki":12714,"ulture":12715,"Ġadvocated":12716,"Ġassociate":12717,"ĠMcCarthy":12718,"Ġoverwhelming":12719,"ĠPine":12720,"ĠKy":12721,"ĠTrue":12722,"Ġprivile":12723,"Ġsaving":12724,"ĠLore":12725,"ĠSeas":12726,"Ġremind":12727,"Ãł":12728,"ĠTruman":12729,"Ġdiscussing":12730,"Ġreop":12731,"Ġstaying":12732,"Ġconvert":12733,"Ġunrel":12734,"ierra":12735,"Ġeleph":12736,"ĠDesert":12737,"ĠStandard":12738,"Ġdive":12739,"ĠHass":12740,"ĠCommons":12741,"Ġacceptance":12742,"Ġloaded":12743,"Ġcomprised":12744,"Ġabundant":12745,"ĠDudley":12746,"LA":12747,"ĠHil":12748,"ĠCommerc":12749,"ĠMalay":12750,"Ġhorsepower":12751,"Ġrequirement":12752,"Ġcubic":12753,"CO":12754,"eded":12755,"orig":12756,"istocr":12757,"ogg":12758,"erness":12759,"Ġtasks":12760,"ĠNak":12761,"Ġreson":12762,"Ġcameo":12763,"Ġ1878":12764,"ĠDeputy":12765,"Ã¨re":12766,"Ġrefugees":12767,"Ġhaz":12768,"amation":12769,"ĠVlad":12770,"Ġperf":12771,"Ġpartners":12772,"Ġestates":12773,"ĠExped":12774,"Ġcrucial":12775,"waffe":12776,"ouch":12777,"ĠMail":12778,"imer":12779,"Ġ137":12780,"ĠAdela":12781,"ĠMasters":12782,"Ġrushed":12783,"Ġblockade":12784,"Ġnervous":12785,"Ġcro":12786,"Ġgran":12787,"acking":12788,"Ġjaw":12789,"angered":12790,"Ġexplored":12791,"Ġkeyboard":12792,"ĠSurv":12793,"Ġfragments":12794,"Ġgenera":12795,"Ġcollecting":12796,"Ġcomposers":12797,"Ġopinions":12798,"ĠGibson":12799,"Ġnavigation":12800,"Ġadequ":12801,"Ġgenes":12802,"Ġironcl":12803,"ĠByzant":12804,"ĠCulture":12805,"Ġpump":12806,"Ġmemb":12807,"isting":12808,"Ġspeculated":12809,"Ġauthentic":12810,"suing":12811,"Ġresemble":12812,"utely":12813,"Ġunre":12814,"heads":12815,"Ġchannels":12816,"inqu":12817,"Ġrepublic":12818,"ĠColomb":12819,"ĠTrinity":12820,"ĠiTunes":12821,"Ġundertook":12822,"ĠBran":12823,"ĠSche":12824,"ĠProfessional":12825,"Ġpercussion":12826,"Ġsuffer":12827,"Ġturbines":12828,"GB":12829,"elia":12830,"Ġstair":12831,"ĠEagle":12832,"Ġaveraged":12833,"Ġcompromise":12834,"thlete":12835,"Ġseeds":12836,"Ġphotos":12837,"Ġimmigrants":12838,"Ġbars":12839,"ĠAlpha":12840,"Ġfemin":12841,"rehensive":12842,"icus":12843,"utter":12844,"ĠClif":12845,"Ġposthum":12846,"Ġhomeless":12847,"Ġhabitats":12848,"Ġgam":12849,"avil":12850,"ĠKem":12851,"Ġassets":12852,"Ġrepet":12853,"Ġsummar":12854,"cour":12855,"lia":12856,"unar":12857,"Ġunderwater":12858,"Ġdefenses":12859,"Ġcomplaints":12860,"Ġmanufactured":12861,"RC":12862,"ĠMick":12863,"ĠMobile":12864,"ĠMeyer":12865,"Ġwhale":12866,"opol":12867,"Ġensuing":12868,"Ġfaction":12869,"Ġbench":12870,"ho":12871,"rection":12872,"enz":12873,"ĠAaron":12874,"Ġants":12875,"Ġmanages":12876,"ikes":12877,"ĠMonster":12878,"ĠMethod":12879,"Ġsic":12880,"ĠLuther":12881,"Ġmetall":12882,"ĠAppro":12883,"Ġsymbols":12884,"Ġpsychological":12885,"ĠWellington":12886,"Ġreconstruct":12887,"Ġlesb":12888,"ĠBaptist":12889,"ĠMetacritic":12890,"yll":12891,"Ġups":12892,"oves":12893,"amped":12894,"Ġrelied":12895,"Ġcoastline":12896,"Ġdissolved":12897,"Ġnetworks":12898,"Ġconsequences":12899,"otypes":12900,"wyn":12901,"ylum":12902,"Ġimprov":12903,"Ġhonorary":12904,"employ":12905,"ĠShan":12906,"Ġlandings":12907,"Ġlengthy":12908,"Ġabsolute":12909,"ĠWrest":12910,"Ġconsensus":12911,"Ġbuff":12912,"Ġbrut":12913,"Ġcontempor":12914,"Ġcave":12915,"Ġgauge":12916,"ĠWant":12917,"Ġfraud":12918,"ĠLuftwaffe":12919,"di":12920,"mother":12921,"Ġadds":12922,"Ġemig":12923,"Ġultimate":12924,"Ġambassador":12925,"Ġqualities":12926,"ographed":12927,"iggins":12928,"Ġreserves":12929,"Ġpounder":12930,"ĠShelley":12931,"Ġeruption":12932,"Ġintact":12933,"ugs":12934,"Ġsymph":12935,"Ġgoddess":12936,"Ġloyalty":12937,"ĠBermuda":12938,"iden":12939,"Ġvariant":12940,"Ġessay":12941,"Ġprinting":12942,"ĠUrban":12943,"Ġfears":12944,"ĠMC":12945,"ĠGenesis":12946,"Ġsignals":12947,"ĠMonroe":12948,"ĠTimber":12949,"Ġpatrols":12950,"Ãª":12951,"usive":12952,"through":12953,"Ġsingers":12954,"otto":12955,"Ġlemurs":12956,"fr":12957,"Ġol":12958,"olith":12959,"ĠMachine":12960,"Ġassessment":12961,"Ġunveiled":12962,"ĠCM":12963,"ĠCool":12964,"ĠHerm":12965,"ĠShar":12966,"ĠWoods":12967,"Ġdisappoint":12968,"Ġinterf":12969,"Ġ1868":12970,"Ġ1872":12971,"Ġlifted":12972,"Ġgrossed":12973,"ĠWolver":12974,"ĠRPG":12975,"ĠAguiler":12976,"Ġflesh":12977,"ema":12978,"Ġweighed":12979,"Ġ123":12980,"aurus":12981,"Ġrocket":12982,"Ġexplosive":12983,"Ġdoctors":12984,"Ġeldest":12985,"ĠMarx":12986,"licted":12987,"Ġteachers":12988,"ĠOtto":12989,"ĠHat":12990,"Ġsear":12991,"Ġaristocr":12992,"ĠHenri":12993,"Ġemotions":12994,"ĠVarious":12995,"ĠSelena":12996,"ĠAguilera":12997,"ED":12998,"Ġduck":12999,"ĠMom":13000,"Ġamid":13001,"Ġmillions":13002,"Ġdelight":13003,"ĠNotable":13004,"Ġbattlecruisers":13005,"ĠChoice":13006,"Ġcomparing":13007,"Ġspectators":13008,"Ġinteractions":13009,"ĠEngineering":13010,"orge":13011,"Ġowing":13012,"ĠPi":13013,"eward":13014,"ovsky":13015,"Ġclip":13016,"endar":13017,"Ġtwentieth":13018,"Ġtradem":13019,"auna":13020,"Ġliterally":13021,"Ġenormous":13022,"imity":13023,"igo":13024,"ĠRah":13025,"Ġpolitically":13026,"Ġinsufficient":13027,"edar":13028,"Ġhier":13029,"ĠMk":13030,"Ġstabil":13031,"Ġchlor":13032,"ĠChin":13033,"Ġsongwriting":13034,"Ġbatsman":13035,"stad":13036,"ĠEsp":13037,"ĠNewport":13038,"Ġengaging":13039,"ĠFemale":13040,"Ġhorizontal":13041,"ĠFlames":13042,"Ġcostumes":13043,"ĠEllis":13044,"ĠDakota":13045,"iri":13046,"ĠFab":13047,"ĠStage":13048,"ebe":13049,"Ġinstructed":13050,"ĠMoney":13051,"Ġdealt":13052,"Ġrelating":13053,"Ġappealed":13054,"Ġrevived":13055,"ci":13056,"Ġtensions":13057,"ĠWool":13058,"Ġrally":13059,"Ġdeals":13060,"Ġenrolled":13061,"issa":13062,"monton":13063,"Ġdigit":13064,"Ġintelligent":13065,"ĠCabinet":13066,"ĠMVP":13067,"ĠPent":13068,"ĠRiley":13069,"Ġsuited":13070,"Ġtelev":13071,"cock":13072,"uits":13073,"Ġtrips":13074,"Ġreader":13075,"Ġvocalist":13076,"ĠChandler":13077,"Ġbacteria":13078,"ĠExpedition":13079,"iche":13080,"star":13081,"ĠLeigh":13082,"ĠRenaissance":13083,"ĠGaz":13084,"Ġstrings":13085,"ĠKnights":13086,"ĠAdelaide":13087,"Ġreferee":13088,"dam":13089,"keley":13090,"Ġsubd":13091,"ĠDrum":13092,"Ġbitter":13093,"Ġinstrumentation":13094,"orus":13095,"Ġfrog":13096,"Ġstroke":13097,"ĠLie":13098,"Ġsubordin":13099,"ĠSoviets":13100,"ĠWWF":13101,"Ġallegations":13102,"Ġincomple":13103,"force":13104,"Ġliv":13105,"ĠHanc":13106,"odon":13107,"bery":13108,"ĠNept":13109,"Ġslower":13110,"Ġintersections":13111,"Ġgraphic":13112,"ĠPhillips":13113,"ĠFerdinand":13114,"Ġanx":13115,"Ġdeclaration":13116,"Ġdiseases":13117,"ĠGeoffrey":13118,"hand":13119,"nal":13120,"ĠCome":13121,"ichi":13122,"Ġexhibited":13123,"ĠMaxwell":13124,"Ġextraordin":13125,"Ġreminiscent":13126,"Ġcats":13127,"Ġhurricanes":13128,"ĠSans":13129,"ĠNL":13130,"ĠScreen":13131,"ĠSurrey":13132,"Ġmushroom":13133,"ĠMol":13134,"Ġclan":13135,"ĠHeaven":13136,"Ġwoods":13137,"rav":13138,"ologically":13139,"Ġtermed":13140,"ĠTherefore":13141,"Ġwidow":13142,"Ġchapters":13143,"ĠView":13144,"ĠCurtis":13145,"Ġmissile":13146,"Ġwishes":13147,"Ġhung":13148,"otilla":13149,"ĠCombat":13150,"Ġincred":13151,"Ġovercome":13152,"ĠLead":13153,"Ġinvolve":13154,"Ġetc":13155,"Ġgallery":13156,"ĠMarcus":13157,"pect":13158,"Ġá":13159,"ĠWald":13160,"ĠBarrett":13161,"Ġcounsel":13162,"Ġdiscipline":13163,"utonium":13164,"ĠCapital":13165,"ĠMetal":13166,"Ġthickness":13167,"Ġmistake":13168,"Ġtactical":13169,"ĠEssex":13170,"Ġsacrifice":13171,"ĠAbraham":13172,"ĠFellow":13173,"ĠSpencer":13174,"ĠMovement":13175,"Ġdisliked":13176,"ĠPlymouth":13177,"ĠPrison":13178,"Ġmodest":13179,"ĠRomans":13180,"Ġquantities":13181,"zi":13182,"ĠHeath":13183,"Ġinterference":13184,"ĠMadrid":13185,"Ġmathematics":13186,"Ġmisc":13187,"ĠRight":13188,"Ġtransit":13189,"ungle":13190,"Ġathletic":13191,"ĠSA":13192,"Ġshirt":13193,"ĠâĢ²":13194,"ĠFranco":13195,"Ġjoins":13196,"Ġcultures":13197,"ĠGameSpot":13198,"odied":13199,"Ġrepaired":13200,"ĠBlake":13201,"Ġrulers":13202,"ĠBurger":13203,"Ġshopping":13204,"Ġhunt":13205,"othe":13206,"Ġshar":13207,"Ġexpense":13208,"Ġmachinery":13209,"Ġnomine":13210,"Ġresur":13211,"ĠPoll":13212,"Ġrifle":13213,"Ġpanels":13214,"Ġsupporter":13215,"Ġproceeds":13216,"Ġfinger":13217,"lend":13218,"ĠTall":13219,"ĠHond":13220,"enne":13221,"Ġcircles":13222,"ĠResident":13223,"ĠVienna":13224,"Ġnicknamed":13225,"Ġsyndrome":13226,"ĠEqu":13227,"Ġassign":13228,"wind":13229,"Ġbol":13230,"stand":13231,"urers":13232,"ulk":13233,"ĠSpit":13234,"Ġcontinent":13235,"Ġfights":13236,"Ġcaliber":13237,"ĠContemporary":13238,"Ġhect":13239,"ĠAdrian":13240,"ĠContin":13241,"ĠBrigadier":13242,"Ġimported":13243,"kinson":13244,"ĠDaniels":13245,"ĠBosnia":13246,"ĠHancock":13247,"itects":13248,"ĠAviation":13249,"ĠBri":13250,"opsis":13251,"Ġcommentators":13252,"Ġmigration":13253,"ĠFlorence":13254,"alid":13255,"Ġwashed":13256,"Ġspores":13257,"ĠNorse":13258,"Ġfatal":13259,"ĠRelations":13260,"Ġfare":13261,"ĠSponge":13262,"ĠFlood":13263,"Ġinterviewed":13264,"ĠAdmiralty":13265,"Ġlocomotive":13266,"icity":13267,"raine":13268,"ĠFergus":13269,"Ġcustody":13270,"ĠTasman":13271,"Ġgaming":13272,"Ġjoke":13273,"Ġfluid":13274,"Ġproximity":13275,"OR":13276,"ĠTales":13277,"ĠSib":13278,"ĠBrew":13279,"olo":13280,"imir":13281,"Ġraw":13282,"ĠNobel":13283,"ĠBog":13284,"arted":13285,"ĠAgricult":13286,"Ġsect":13287,"ĠArchitect":13288,"Ġbankrupt":13289,"Ġpronounced":13290,"ĠPublishing":13291,"Ġredesign":13292,"Ġmim":13293,"Ġbeer":13294,"ĠNum":13295,"Ġcontested":13296,"Ġmolecules":13297,"Ġcurrency":13298,"athetic":13299,"Ġally":13300,"ĠKub":13301,"ĠGlass":13302,"ĠJeremy":13303,"cious":13304,"ĠSuz":13305,"Ġlip":13306,"Ġundergo":13307,"ĠReading":13308,"Ġacquire":13309,"ĠTwenty":13310,"ĠJennifer":13311,"Ġmaneuver":13312,"ĠBaldwin":13313,"iday":13314,"ĠPut":13315,"ikh":13316,"Ġzones":13317,"ĠUsher":13318,"nut":13319,"Ġtong":13320,"Ġpuzz":13321,"ĠCC":13322,"ĠLeban":13323,"ramid":13324,"Ġsuccessive":13325,"Ġcurves":13326,"ĠArkansas":13327,"Ġaviation":13328,"ĠBot":13329,"Ġallocated":13330,"Ġdemanding":13331,"Ġfluor":13332,"ĠLtd":13333,"ÏĤ":13334,"Ġhatch":13335,"ĠMam":13336,"aston":13337,"elfth":13338,"ashing":13339,"Ġpopulated":13340,"ĠHergÃ©":13341,"Ġknowing":13342,"ĠRomania":13343,"ĠArticle":13344,"Ġmemories":13345,"ĠMotor":13346,"pit":13347,"alysis":13348,"ĠBent":13349,"urbs":13350,"ĠManning":13351,"ĠPreston":13352,"front":13353,"xide":13354,"ĠBuch":13355,"ĠLaf":13356,"Ġunaware":13357,"ĠShadow":13358,"ĠAdri":13359,"Ġseparately":13360,"Ġ1879":13361,"Ġfloors":13362,"Ġgathering":13363,"PS":13364,"lass":13365,"ĠSuff":13366,"ĠStories":13367,"osity":13368,"ripp":13369,"Ġpreliminary":13370,"Ġpublish":13371,"Ġcease":13372,"ĠBanksia":13373,"Ġreef":13374,"umar":13375,"Ġdisgu":13376,"Ġinterrupted":13377,"Ġregardless":13378,"Ġdawn":13379,"ĠMcDonald":13380,"iary":13381,"wig":13382,"ĠJG":13383,"ĠOw":13384,"ĠAllmusic":13385,"Ġdiscussions":13386,"ĠGarc":13387,"eria":13388,"Ġgolf":13389,"Ġscrapped":13390,"ĠPall":13391,"Ġproud":13392,"Ġperpet":13393,"Ġadvances":13394,"Ġmassacre":13395,"Ġscreening":13396,"Ġcomparable":13397,"Ġdeployment":13398,"Ġnineteenth":13399,"pes":13400,"rez":13401,"ĠKes":13402,"ĠNewfound":13403,"Ġnorthwestern":13404,"Ġtourism":13405,"Ġfarms":13406,"Ġdemonstrate":13407,"ĠElectronic":13408,"ĠIndustrial":13409,"ĠIdol":13410,"Ġdiscontinued":13411,"nan":13412,"ĠHous":13413,"Ġ141":13414,"Ġdamages":13415,"ĠMinogue":13416,"guard":13417,"Ġeditorial":13418,"Ġcylind":13419,"asse":13420,"ĠChase":13421,"ĠOrthodox":13422,"ĠPerth":13423,"ĠCapitol":13424,"Ġphotographer":13425,"Ġinstallation":13426,"Ġcylinder":13427,"Ġchord":13428,"Ġunrest":13429,"ĠEdmonton":13430,"ĠCharacter":13431,"ĠStarr":13432,"Ġbills":13433,"ĠMcCain":13434,"Ġediting":13435,"Ġdynamic":13436,"Ġhalted":13437,"ĠBengal":13438,"ĠSkinner":13439,"ĠTask":13440,"Ġsubsc":13441,"ĠBowie":13442,"ĠNav":13443,"Ġsubtle":13444,"ĠHawaiian":13445,"Î½":13446,"Ġsew":13447,"Ġpaved":13448,"urse":13449,"ĠGrad":13450,"Ġprotecting":13451,"ĠPorts":13452,"list":13453,"Ġanger":13454,"istence":13455,"Ġseemingly":13456,"Ġsubsidi":13457,"ĠLancaster":13458,"tz":13459,"atha":13460,"Ġregained":13461,"Ġ270":13462,"ĠKoreans":13463,"ĠTurks":13464,"Ġharbor":13465,"Ġadministered":13466,"Ġopenly":13467,"Ġprojected":13468,"ĠSingle":13469,"ride":13470,"ĠLogan":13471,"ĠIng":13472,"Ġsporting":13473,"Ġdescendants":13474,"ĠNewfoundland":13475,"SA":13476,"bus":13477,"mel":13478,"pat":13479,"Ġtherapy":13480,"Ġgrain":13481,"ĠWinc":13482,"Ġinstruction":13483,"ĠSenior":13484,"Ġambitious":13485,"Ġfunctional":13486,"Ġgravity":13487,"eries":13488,"vern":13489,"Ġcontracted":13490,"Ġuprising":13491,"Ġcitizen":13492,"Ġlicensed":13493,"Ġneighbouring":13494,"Ġbarely":13495,"ĠJur":13496,"Ġregist":13497,"ĠSpin":13498,"Ġcreates":13499,"Ġlessons":13500,"Ġopted":13501,"Ġcrowned":13502,"ĠBeautiful":13503,"how":13504,"zac":13505,"ĠSep":13506,"ĠCN":13507,"ĠCrom":13508,"Ġbusy":13509,"Ġprivately":13510,"Ġsymmet":13511,"Ġaccomplish":13512,"ĠGonz":13513,"Ġoak":13514,"ĠMounted":13515,"Ġgamb":13516,"ĠPlaza":13517,"Ġmasses":13518,"Ġdisputes":13519,"ĠMaxim":13520,"Ġdescended":13521,"Ġdelegation":13522,"Ġjumping":13523,"irk":13524,"ĠDh":13525,"ĠFras":13526,"Ġoverh":13527,"Ġplanes":13528,"Ġcorridor":13529,"ĠBear":13530,"Ġcoloured":13531,"Ġgenerals":13532,"Ġnorthwestward":13533,"Ġtotally":13534,"ĠJen":13535,"Ġjoy":13536,"ĠProtection":13537,"ĠCircuit":13538,"Ġvolcano":13539,"Ġcooperation":13540,"Ġdeeper":13541,"Ġconting":13542,"Ġ146":13543,"Ġcaptivity":13544,"Ġhonest":13545,"ĠSenators":13546,"ait":13547,"Ġnam":13548,"ĠHoff":13549,"Ġshadow":13550,"Ġinvented":13551,"onnell":13552,"Ġcoalition":13553,"Ġorient":13554,"ĠBuddhist":13555,"tage":13556,"Ġlux":13557,"Ġquit":13558,"ervers":13559,"atem":13560,"Ġfile":13561,"ĠTiger":13562,"ĠMake":13563,"ĠFM":13564,"ĠChop":13565,"Ġatmospheric":13566,"Ġcollision":13567,"lessly":13568,"Ġsteady":13569,"Ġoutdoor":13570,"Ġsuburb":13571,"rosse":13572,"Ġdelays":13573,"Ġlacks":13574,"ĠMotion":13575,"isphere":13576,"Ġreiss":13577,"ĠHamb":13578,"ĠStore":13579,"ĠLouise":13580,"ĠCaroline":13581,"Ġnecessarily":13582,"ĠJanet":13583,"Pa":13584,"Ġrapper":13585,"ĠShank":13586,"ĠAirborne":13587,"Ġfarming":13588,"Ġroller":13589,"dan":13590,"Ġchess":13591,"ĠCos":13592,"Ġpresum":13593,"Ð°":13594,"aceous":13595,"Ġibn":13596,"50":13597,"ĠSierra":13598,"Ġeject":13599,"Ġnests":13600,"ĠRams":13601,"uchi":13602,"Ġtracking":13603,"ĠGeneration":13604,"Ġmutual":13605,"ĠAdventures":13606,"Ġexcessive":13607,"oning":13608,"ĠRoth":13609,"Ġconve":13610,"Ġdecomp":13611,"Ġcream":13612,"ĠParachute":13613,"Ġfatalities":13614,"ĠObserv":13615,"ĠNashville":13616,"ĠBron":13617,"inae":13618,"ĠMyst":13619,"Ġhur":13620,"ĠCann":13621,"abet":13622,"Ġjokes":13623,"ĠOnline":13624,"ugu":13625,"Ġ149":13626,"Ġelectro":13627,"ĠÃģ":13628,"ĠSpongeB":13629,"ĠBott":13630,"ĠKens":13631,"Ġdeveloper":13632,"Ġkeen":13633,"achelor":13634,"ĠProductions":13635,"entric":13636,"ĠIC":13637,"ĠYet":13638,"Ġcalm":13639,"ĠCommissioner":13640,"ĠHyd":13641,"Ġgreet":13642,"ĠGust":13643,"Ġshops":13644,"ĠConsequently":13645,"Ġsixty":13646,"ĠHarper":13647,"Ġdeclaring":13648,"Ġcopyright":13649,"ĠAllMusic":13650,"ficial":13651,"ĠLynch":13652,"Ġlava":13653,"ovich":13654,"ĠChall":13655,"Ġrelay":13656,"Ġteammates":13657,"ĠChairman":13658,"ĠHM":13659,"ĠPalmer":13660,"mill":13661,"Ã£o":13662,"Ġinject":13663,"Ġgains":13664,"ĠApart":13665,"Ġrecognize":13666,"Ġprohibited":13667,"Ġkitchen":13668,"Ġstruggling":13669,"ĠDrama":13670,"Ġouts":13671,"Ġoperator":13672,"ĠRegard":13673,"ĠEmily":13674,"ĠMaurice":13675,"Ġpine":13676,"lew":13677,"achi":13678,"Ġrealizes":13679,"Ġdivine":13680,"ĠMoz":13681,"ĠBusch":13682,"Ġstreams":13683,"Ġunemploy":13684,"Ġgenerate":13685,"ĠParamount":13686,"ĠTrip":13687,"ĠDamage":13688,"Ġcabin":13689,"Ġdug":13690,"Ġtrophy":13691,"Ġhonours":13692,"graduate":13693,"Ġauction":13694,"isans":13695,"ĠCant":13696,"Ġminim":13697,"Ġedges":13698,"ĠValent":13699,"ĠDevon":13700,"Ġeliminate":13701,"Ġaggregate":13702,"Ġber":13703,"eli":13704,"otus":13705,"ĠHoll":13706,"ĠDid":13707,"ocene":13708,"Ġbackup":13709,"Ġparam":13710,"Ġ210":13711,"Ġdisappear":13712,"Ġattractive":13713,"Ġruins":13714,"Ġpregnancy":13715,"yers":13716,"Ġtum":13717,"ĠNothing":13718,"Ġreserved":13719,"Ġstorylines":13720,"Ġfindings":13721,"ĠGarfield":13722,"Ġremarkable":13723,"DA":13724,"Ġunst":13725,"ĠSpy":13726,"Ġfreed":13727,"Ġriff":13728,"Ġmerchants":13729,"Ġincomplete":13730,"ĠSqu":13731,"ĠSold":13732,"ilia":13733,"ĠHip":13734,"Ġdraws":13735,"Ġphilosoph":13736,"nolds":13737,"ĠAur":13738,"ĠOst":13739,"Ġsoap":13740,"ĠGuatem":13741,"Ġexperts":13742,"Ġ1848":13743,"Ġunusually":13744,"Ġreversed":13745,"Ġmuzzle":13746,"ĠWid":13747,"Ġclay":13748,"elfare":13749,"Ġlyric":13750,"houses":13751,"ĠBast":13752,"ĠChancellor":13753,"Ġsecular":13754,"Ġoperas":13755,"legiate":13756,"Ġspo":13757,"Ġimpress":13758,"Ġtransp":13759,"Ġ1874":13760,"Ġacquisition":13761,"ĠLarge":13762,"Ġproceedings":13763,"ĠRhodesia":13764,"Ġconjunction":13765,"ĠArctic":13766,"letcher":13767,"Ġgrants":13768,"Ġsurfaces":13769,"ĠSoft":13770,"ĠPanama":13771,"Ġadaptations":13772,"holm":13773,"Ġcaution":13774,"Ġscenario":13775,"ĠKiss":13776,"Ġsketch":13777,"Ġmemorable":13778,"Ġtab":13779,"ayette":13780,"ĠJunction":13781,"Ġdecomm":13782,"Ġkeeps":13783,"Ġridic":13784,"Ġlifestyle":13785,"Ġpackage":13786,"Ġloading":13787,"ĠGriffin":13788,"net":13789,"ĠRandy":13790,"Ġsubstance":13791,"ymn":13792,"Ġunpop":13793,"Ġperfectly":13794,"mons":13795,"ĠSed":13796,"ady":13797,"istically":13798,"Ġsufficiently":13799,"Ġrestaurants":13800,"Ġpedest":13801,"pow":13802,"Ġtennis":13803,"Ġdors":13804,"Ġchances":13805,"Ġconsul":13806,"Ġprinc":13807,"Ġtransc":13808,"Ġprogression":13809,"uxili":13810,"ĠSolomon":13811,"rolling":13812,"Ġfloating":13813,"ĠArmenia":13814,"ĠStarting":13815,"hurst":13816,"ĠEU":13817,"Ġresort":13818,"Ġoverth":13819,"ĠÂµ":13820,"ĠBooth":13821,"ĠHolmes":13822,"Ġfabric":13823,"ndum":13824,"ĠDian":13825,"ĠHeat":13826,"ĠReform":13827,"Ġmetropolitan":13828,"Ġerosion":13829,"Ġtunnels":13830,"Ġemphasized":13831,"Ġshed":13832,"Ġoverd":13833,"ĠEdwin":13834,"ĠDoug":13835,"Ġallegedly":13836,"ĠFinnish":13837,"Ġveterans":13838,"Ġlobby":13839,"Ġhiding":13840,"ĠCec":13841,"omes":13842,"ĠHab":13843,"Ġdetached":13844,"anan":13845,"ĠNumber":13846,"Ġassessed":13847,"Ġ144":13848,"Ġmotorway":13849,"ĠMichelle":13850,"Ġworried":13851,"ĠWindsor":13852,"rozen":13853,"Ġmodes":13854,"ĠSerbs":13855,"ĠJacques":13856,"ĠSpongeBob":13857,"Ġdiving":13858,"ĠYok":13859,"Ġmonitor":13860,"ĠPhant":13861,"ĠLindwall":13862,"Ġmicro":13863,"ĠTunnel":13864,"Ġpled":13865,"ipping":13866,"Ġincorporates":13867,"Ġclimbing":13868,"post":13869,"Ġsin":13870,"Ġnights":13871,"Ġmobil":13872,"Ġfestivals":13873,"hero":13874,"ĠNed":13875,"ovo":13876,"ĠSpiel":13877,"Ġtopic":13878,"ĠToo":13879,"Ġdemonstration":13880,"ĠFormula":13881,"ĠAdvance":13882,"ibl":13883,"Ġescal":13884,"Ġmanifest":13885,"Ġcoc":13886,"istle":13887,"ĠArabic":13888,"ushes":13889,"ĠRup":13890,"ĠClaire":13891,"Ġinvestigated":13892,"Ġcounteratt":13893,"ĠLuis":13894,"ĠIllust":13895,"birds":13896,"Ġsupplement":13897,"HA":13898,"Å¾":13899,"ivic":13900,"Ġcentres":13901,"ĠGerald":13902,"Ġspeeches":13903,"Ġputs":13904,"Ġfloods":13905,"Ġappreciated":13906,"ĠMonday":13907,"Ġfox":13908,"imination":13909,"Ġsty":13910,"ĠAugustus":13911,"ĠEls":13912,"Ġflee":13913,"ĠBerkeley":13914,"Ġsynth":13915,"ĠStanford":13916,"Ġtended":13917,"Ġprosecut":13918,"brook":13919,"Ġhamlet":13920,"olades":13921,"Ġplutonium":13922,"rano":13923,"Ġattachment":13924,"Ġcrust":13925,"ĠSuperman":13926,"ĠLegion":13927,"Ġranged":13928,"Ġerrors":13929,"12":13930,"ĠSue":13931,"ĠWake":13932,"opters":13933,"Ġobl":13934,"ĠGuards":13935,"ĠPresley":13936,"ĠPierce":13937,"oline":13938,"Ġstance":13939,"ĠLut":13940,"Ġrays":13941,"Ġamendment":13942,"Ġinternet":13943,"Ġpleasure":13944,"rators":13945,"Ġpist":13946,"Ġhaul":13947,"Ġease":13948,"ĠMartha":13949,"Ġwarrant":13950,"ĠCollect":13951,"Ġmodifications":13952,"Ġqualify":13953,"inguished":13954,"Ġfilter":13955,"Ġdiagnosed":13956,"ĠFac":13957,"Ġupgrade":13958,"Ġimmun":13959,"ĠCuban":13960,"ocaust":13961,"anian":13962,"Ġnotion":13963,"Ġconsent":13964,"Ġmetab":13965,"ĠZh":13966,"ĠRecre":13967,"Ġintroducing":13968,"ĠBulgaria":13969,"Ġinhabited":13970,"Ġnaked":13971,"ĠOber":13972,"Ġincons":13973,"Ġsecuring":13974,"Ġmaintains":13975,"ĠSoundtrack":13976,"Ġstrengthening":13977,"ĠCommercial":13978,"ĠGam":13979,"lesi":13980,"Ġgenerations":13981,"Ġconfined":13982,"official":13983,"Ġpushing":13984,"apa":13985,"Ġnearest":13986,"Ġthoughts":13987,"Ġlineup":13988,"Ġmerger":13989,"ĠAnti":13990,"Ġcameras":13991,"ĠDere":13992,"ĠPrice":13993,"ĠManor":13994,"Ġreads":13995,"ĠBelle":13996,"Ġthrust":13997,"Ġcomfortable":13998,"lies":13999,"Ġbonds":14000,"Ġitem":14001,"Ġenable":14002,"ĠFinals":14003,"ĠJennings":14004,"ĠBroadcasting":14005,"aude":14006,"Ġbutt":14007,"Ġcompat":14008,"ĠWarwick":14009,"ĠIrving":14010,"penter":14011,"Ġ280":14012,"Ġinver":14013,"Ġrevel":14014,"igu":14015,"Ġstripped":14016,"ishi":14017,"overning":14018,"ĠYu":14019,"Ġampl":14020,"Ġorgans":14021,"Ġ1851":14022,"ĠDelhi":14023,"ĠMirror":14024,"ĠChapman":14025,"ĠGabriel":14026,"raid":14027,"quet":14028,"rann":14029,"veloped":14030,"Ġelectoral":14031,"Ġwaterline":14032,"Ġcolleges":14033,"Ġsel":14034,"Ġcere":14035,"ĠGas":14036,"Ġbetray":14037,"Ġmuscle":14038,"ĠGlenn":14039,"canal":14040,"Ġgrandson":14041,"Ġelderly":14042,"Ġfib":14043,"Ġartif":14044,"Ġspeaker":14045,"ĠSword":14046,"ĠTurnpike":14047,"Ġsus":14048,"Ġsoci":14049,"ogical":14050,"ĠBerry":14051,"Ġembarr":14052,"Ġensemble":14053,"ĠSubsequently":14054,"Ġdoubles":14055,"imid":14056,"ĠESP":14057,"ylogen":14058,"Ġdarkness":14059,"ĠHayes":14060,"ĠNab":14061,"ĠPrepar":14062,"ĠHopkins":14063,"isle":14064,"ĠMade":14065,"Ġknock":14066,"DP":14067,"ĠSr":14068,"ĠPun":14069,"Ġcarefully":14070,"Ġgraduating":14071,"Ġsacred":14072,
[...]
