{"!":0,"\"":1,"#":2,"$":3,"%":4,"&":5,"'":6,"(":7,")":8,"*":9,"+":10,",":11,"-":12,".":13,"/":14,"0":15,"1":16,"2":17,"3":18,"4":19,"5":20,"6":21,"7":22,"8":23,"9":24,":":25,";":26,"<":27,"=":28,">":29,"?":30,"@":31,"A":32,"B":33,"C":34,"D":35,"E":36,"F":37,"G":38,"H":39,"I":40,"J":41,"K":42,"L":43,"M":44,"N":45,"O":46,"P":47,"Q":48,"R":49,"S":50,"T":51,"U":52,"V":53,"W":54,"X":55,"Y":56,"Z":57,"[":58,"\\":59,"]":60,"^":61,"_":62,"`":63,"a":64,"b":65,"c":66,"d":67,"e":68,"f":69,"g":70,"h":71,"i":72,"j":73,"k":74,"l":75,"m":76,"n":77,"o":78,"p":79,"q":80,"r":81,"s":82,"t":83,"u":84,"v":85,"w":86,"x":87,"y":88,"z":89,"{":90,"|":91,"}":92,"~":93,"¡":94,"¢":95,"£":96,"¤":97,"¥":98,"¦":99,"§":100,"¨":101,"©":102,"ª":103,"«":104,"¬":105,"®":106,"¯":107,"°":108,"±":109,"²":110,"³":111,"´":112,"µ":113,"¶":114,"·":115,"¸":116,"¹":117,"º":118,"»":119,"¼":120,"½":121,"¾":122,"¿":123,"À":124,"Á":125,"Â":126,"Ã":127,"Ä":128,"Å":129,"Æ":130,"Ç":131,"È":132,"É":133,"Ê":134,"Ë":135,"Ì":136,"Í":137,"Î":138,"Ï":139,"Ð":140,"Ñ":141,"Ò":142,"Ó":143,"Ô":144,"Õ":145,"Ö":146,"×":147,"Ø":148,"Ù":149,"Ú":150,"Û":151,"Ü":152,"Ý":153,"Þ":154,"ß":155,"à":156,"á":157,"â":158,"ã":159,"ä":160,"å":161,"æ":162,"ç":163,"è":164,"é":165,"ê":166,"ë":167,"ì":168,"í":169,"î":170,"ï":171,"ð":172,"ñ":173,"ò":174,"ó":175,"ô":176,"õ":177,"ö":178,"÷":179,"ø":180,"ù":181,"ú":182,"û":183,"ü":184,"ý":185,"þ":186,"ÿ":187,"Ā":188,"ā":189,"Ă":190,"ă":191,"Ą":192,"ą":193,"Ć":194,"ć":195,"Ĉ":196,"ĉ":197,"Ċ":198,"ċ":199,"Č":200,"č":201,"Ď":202,"ď":203,"Đ":204,"đ":205,"Ē":206,"ē":207,"Ĕ":208,"ĕ":209,"Ė":210,"ė":211,"Ę":212,"ę":213,"Ě":214,"ě":215,"Ĝ":216,"ĝ":217,"Ğ":218,"ğ":219,"Ġ":220,"ġ":221,"Ģ":222,"ģ":223,"Ĥ":224,"ĥ":225,"Ħ":226,"ħ":227,"Ĩ":228,"ĩ":229,"Ī":230,"ī":231,"Ĭ":232,"ĭ":233,"Į":234,"į":235,"İ":236,"ı":237,"Ĳ":238,"ĳ":239,"Ĵ":240,"ĵ":241,"Ķ":242,"ķ":243,"ĸ":244,"Ĺ":245,"ĺ":246,"Ļ":247,"ļ":248,"Ľ":249,"ľ":250,"Ŀ":251,"ŀ":252,"Ł":253,"ł":254,"Ń":255,"Ġt":256,"he":257,"Ġa":258,"in":259,"Ġthe":260,"er":261,"on":262,"Ġ,":263,"re":264,"Ġs":265,"ed":266,"Ġw":267,"Ġo":268,"nd":269,"at":270,"Ġ.":271,"or":272,"en":273,"Ġc":274,"it":275,"Ġf":276,"is":277,"es":278,"ar":279,"Ġb":280,"Ġof":281,"an":282,"Ġin":283,"al":284,"ing":285,"Ġp":286,"as":287,"Ġand":288,"Ġto":289,"ic":290,"ro":291,"Ġm":292,"Ġd":293,"Ġh":294,"ion":295,"le":296,"ou":297,"ĠT":298,"Ġre":299,"Ġ=":300,"ĠS":301,"il":302,"ĠA":303,"ent":304,"Ġ\"":305,"Ġ1":306,"Ġth":307,"st":308,"el":309,"ĠC":310,"Ġl":311,"Ġ@":312,"om":313,"Ġe":314,"ĠĊ":315,"am":316,"Ġn":317,"ad":318,"ac":319,"Ġwas":320,"ĠM":321,"ĠB":322,"ec":323,"Ġon":324,"ĠThe":325,"ly":326,"ur":327,"Ġ'":328,"et":329,"id":330,"ol":331,"Ġg":332,"im":333,"ĠI":334,"-@":335,"Ġ@-@":336,"Ġfor":337,"ir":338,"ig":339,"iv":340,"ot":341,"ter":342,"ĠH":343,"ut":344,"Ġas":345,"us":346,"ow":347,"ith":348,"ay":349,"Ġ2":350,"ĠP":351,"Ġst":352,"Ġhe":353,"ver":354,"ation":355,"Ġwith":356,"Ġbe":357,"ĠR":358,"Ġthat":359,"ĠD":360,"ce":361,"un":362,"em":363,"ĠW":364,"Ġwh":365,"ĠF":366,"ch":367,"Ġby":368,"th":369,"Ġal":370,"Ġ)":371,"Ġ(":372,"ĠL":373,"ul":374,"ĠG":375,"Ġis":376,"Ġcon":377,"ers":378,"Ġat":379,"ct":380,"ĠN":381,"ra":382,"os":383,"Ġ19":384,"Ġan":385,"Ġit":386,"her":387,"rom":388,"and":389,"um":390,"ĠJ":391,"est":392,"00":393,"Ġhis":394,"ĠE":395,"ag":396,"av":397,"ain":398,"ri":399,"od":400,"Ġfrom":401,"ĠO":402,"ist":403,"Ġcom":404,"Ġv":405,"Ġpro":406,"op":407,"ill":408,"ore":409,"if":410,"ld":411,"up":412,"Ġr":413,"ew":414,"ere":415,"res":416,"igh":417,"ĠIn":418,"ies":419,"Ġde":420,"ber":421,"art":422,"ard":423,"ort":424,"Ġse":425,"ich":426,"Ġwere":427,"ate":428,"all":429,"ak":430,"ant":431,"oc":432,"ud":433,"ap":434,"qu":435,"Ġex":436,"ong":437,"ab":438,"Ġch":439,"Ġor":440,"ĠK":441,"gh":442,"ear":443,"ess":444,"ated":445,"Ġpl":446,"Ġsh":447,"ity":448,"ip":449,"ive":450,"ame":451,"ĠU":452,"Ġâ":453,"Ġhad":454,"ect":455,"ack":456,"ĠSt":457,"ĠâĢ":458,"Ġsu":459,"ast":460,"se":461,"red":462,"Ġk":463,"ge":464,"Ġwhich":465,"our":466,"ment":467,"Ġle":468,"und":469,"Ġare":470,"ian":471,"ov":472,"ial":473,"Ġnot":474,"ell":475,"Ġsp":476,"ost":477,"Ġy":478,"ight":479,"ia":480,"ord":481,"ust":482,"ary":483,"ine":484,"ther":485,"pt":486,"rit":487,"Ġ3":488,"oun":489,"pp":490,"ical":491,"ĠCh":492,"ave":493,"Ġun":494,"Ġ200":495,"cc":496,"Ġinc":497,"fter":498,"ould":499,"ĠV":500,"Ġbut":501,"irst":502,"ish":503,"ous":504,"te":505,"ff":506,"ions":507,"so":508,"Ġcomp":509,"Ġ20":510,"ide":511,"Ġro":512,"ure":513,"Ġwhe":514,"Ġar":515,"ub":516,"Ġcont":517,"ie":518,"Ġ;":519,"og":520,"ign":521,"Ġfirst":522,"Ġcl":523,"wo":524,"Ġher":525,"ry":526,"ue":527,"Ġits":528,"ass":529,"Ġtheir":530,"orm":531,"ĠâĢĵ":532,"ok":533,"ork":534,"Ġint":535,"Ġres":536,"ĠHe":537,"Ġ:":538,"ater":539,"Ġalso":540,"Ġab":541,"ond":542,"Ġad":543,"ome":544,"out":545,"ran":546,"mer":547,"ire":548,"hed":549,"ru":550,"Ġus":551,"age":552,"du":553,"Ġ4":554,"ime":555,"low":556,"Ġper":557,"per":558,"Ġwho":559,"Ġ5":560,"ĠTh":561,"Ġone":562,"Ġhave":563,"Ġsc":564,"pl":565,"ally":566,"own":567,"ile":568,"Ġrec":569,"ted":570,"Ġ18":571,".@":572,"Ġ@.@":573,"Ġtwo":574,"ition":575,"ugh":576,"iz":577,"ree":578,"ence":579,"uring":580,"ts":581,"port":582,"Ġbeen":583,"Ġpart":584,"Ġbec":585,"ice":586,"Ġhas":587,"Ġag":588,"ĠAl":589,"Ġapp":590,"Ġ201":591,",@":592,"Ġ@,@":593,"ough":594,"Ġj":595,"Ġen":596,"Ġdis":597,"lud":598,"ke":599,"Ġover":600,"Ġser":601,"Ġthis":602,"ory":603,"ely":604,"Ġyear":605,"ations":606,"ember":607,"ren":608,"ction":609,"ound":610,"ach":611,"Ġoff":612,"Ġafter":613,"ric":614,"Ġup":615,"land":616,"Ġdes":617,"ace":618,"Ġplay":619,"ĠIt":620,"ark":621,"over":622,"ance":623,"Ġout":624,"Ġthey":625,"Ġman":626,"ade":627,"Ġte":628,"act":629,"Ġother":630,"ib":631,"man":632,"ult":633,"Ġim":634,"ĠY":635,"ph":636,"ress":637,"Ġinclud":638,"ced":639,"ens":640,"urn":641,"wn":642,"Ġwould":643,"ind":644,"Ġtime":645,"one":646,"Ġinto":647,"Ġpre":648,"vel":649,"ĠOn":650,"ĠUn":651,"ward":652,"we":653,"Ġwe":654,"Ġhim":655,"ite":656,"oin":657,"ates":658,"Ġ6":659,"Ġshe":660,"les":661,"Ġev":662,"Ġatt":663,"ilm":664,"ased":665,"Ġne":666,"ited":667,"able":668,"end":669,"ied":670,"ase":671,"amp":672,"Ġcomm":673,"ors":674,"Ġinter":675,"are":676,"rough":677,"oy":678,"ons":679,"ount":680,"ep":681,"form":682,"Ġall":683,"ose":684,"ood":685,"ang":686,"Ġmore":687,"ces":688,"Ġwork":689,"Ġ7":690,"ail":691,"old":692,"aw":693,"ered":694,"ings":695,"ve":696,"ĠAn":697,"ild":698,"Ġnew":699,"Ġsec":700,"Ġbet":701,"Ġwhen":702,"inal":703,"Ġfe":704,"Ġfilm":705,"ick":706,"vi":707,"ents":708,"ĠSe":709,"att":710,"way":711,"ft":712,"iss":713,"aus":714,"Ġ8":715,"fer":716,"gan":717,"ĠMar":718,"reat":719,"Ġcons":720,"rib":721,"ĠAr":722,"round":723,"ake":724,"Ġrem":725,"ved":726,"Ġtr":727,"Ġdec":728,"ason":729,"ans":730,"Ġduring":731,"orth":732,"Ġund":733,"Ġ9":734,"ubl":735,"hip":736,"Ġagain":737,"ĠAs":738,"Ġmost":739,"Ġgame":740,"oth":741,"Ġthem":742,"Ġ199":743,"Ġonly":744,"Ġpr":745,"ween":746,"ath":747,"ix":748,"Ġear":749,"ollow":750,"Ġthan":751,"ob":752,"rop":753,"Ġsup":754,"ational":755,"ĠNew":756,"fore":757,"Ġabout":758,"Ġprodu":759,"ug":760,"Ġcent":761,"tern":762,"Ġkn":763,"Ġret":764,"ey":765,"Ġchar":766,"Ġsong":767,"Ġcan":768,"outh":769,"Ġbetween":770,"Ġlater":771,"orn":772,"Ġrele":773,"Ġunder":774,"ict":775,"Ġthree":776,"ton":777,"hn":778,"ron":779,"Ġcol":780,"Ġact":781,"Ġ00":782,"als":783,"Ġqu":784,"Ġthrough":785,"ĠEn":786,"orld":787,"ook":788,"Ġnum":789,"Ġso":790,"Ġme":791,"Ġacc":792,"Ġrel":793,"Ġwhile":794,"Ġra":795,"Ġend":796,"meric":797,"ĠAmeric":798,"lect":799,"Ġfl":800,"ĠLe":801,"ters":802,"ock":803,"ral":804,"Ġpos":805,"Ġsub":806,"ever":807,"Ġass":808,"ular":809,"ating":810,"Ġwhere":811,"Ġver":812,"Ġday":813,"ck":814,"Ġreg":815,"Ġsecond":816,"ĠCom":817,"aid":818,"ener":819,"Ġbu":820,"ision":821,"Ġmade":822,"ames":823,"ived":824,"ĠRe":825,"Ġpe":826,"hes":827,"Ġrecord":828,"son":829,"Ġdef":830,"bum":831,"Ġfour":832,"Ġgro":833,"Ġfollow":834,"Ġseason":835,"Ġ000":836,"Ġep":837,"Ġform":838,"Ġsome":839,"Ġsuch":840,"Ġam":841,"ool":842,"ished":843,"Ġmov":844,"Ġbefore":845,"Ġtra":846,"ĠSp":847,"Ġmus":848,"Ġthere":849,"Ġwrit":850,"hen":851,"ics":852,"io":853,"ĠJo":854,"Ġspec":855,"iel":856,"Ġ10":857,"ike":858,"Ġsy":859,"Ġyears":860,"Ġteam":861,"ĠAt":862,"ode":863,"ual":864,"ĠThis":865,"Ġ/":866,"ident":867,"Ġlar":868,"ĠSh":869,"Ġalbum":870,"Ġind":871,"ros":872,"ily":873,"owever":874,"Ġent":875,"ning":876,"Ġused":877,"ank":878,"Ġcall":879,"Ġsur":880,"ific":881,"Ġac":882,"Ġhigh":883,"ury":884,"Ġpubl":885,"Ġbeing":886,"Ġepis":887,"ained":888,"Ġthen":889,"led":890,"ten":891,"aj":892,"velop":893,"Ġloc":894,"Ġdo":895,"Ġexp":896,"ife":897,"ris":898,"Ġagainst":899,"Ġ17":900,"Ġinv":901,"Ġ0":902,"Ġbl":903,"Ġpres":904,"Ġnumber":905,"other":906,"ĠAfter":907,"Ġshow":908,"Ġcharac":909,"ious":910,"Ġsever":911,"Ġadd":912,"Ġco":913,"ek":914,"Ġset":915,"ince":916,"ject":917,"ĠBrit":918,"ars":919,"Ġbecame":920,"Ġrece":921,"ause":922,"Ġperform":923,"Ġlead":924,"Ġincluding":925,"ines":926,"Ġno":927,"ĠâĢĶ":928,"Ġsing":929,"ather":930,"ins":931,"rans":932,"ĠUnited":933,"Ġfound":934,"air":935,"Ġwell":936,"Ġmon":937,"Ġrep":938,"ĠSc":939,"ale":940,"Ġpol":941,"Ġback":942,"Ġboth":943,"Ġcap":944,"ier":945,"Ġ198":946,"Ġ15":947,"Ġseries":948,"Ġ12":949,"ober":950,"ram":951,"ik":952,"Ġship":953,"ĠCon":954,"ower":955,"ement":956,"its":957,"ert":958,"ures":959,"ired":960,"ley":961,"ĠWh":962,"ĠShe":963,"ivers":964,"Ġmain":965,"Ġ194":966,"pen":967,"Ġmin":968,"iet":969,"der":970,"overn":971,"Ġdid":972,"ven":973,"olog":974,"Ġgo":975,"elf":976,"Ġcre":977,"Ġimp":978,"Ġdevelop":979,"az":980,"Ġmet":981,"ities":982,"iver":983,"ĠEng":984,"Ġlong":985,"any":986,"ll":987,"ised":988,"erm":989,"ting":990,"uch":991,"ared":992,"Ġem":993,"ann":994,"ane":995,"Ġmill":996,"ird":997,"ful":998,"ĠJohn":999,"Ġmat":1000,"Ġair":1001,"Ġepisode":1002,"tend":1003,"irect":1004,"Ġsaid":1005,"Ġstud":1006,"Ġmany":1007,"ute":1008,"Ġbro":1009,"Ġdep":1010,"Ġcar":1011,"ative":1012,"ash":1013,"Ġcould":1014,"Ġ16":1015,"Ġwar":1016,"Ġorig":1017,"Ġcontin":1018,"ĠCl":1019,"Ġseveral":1020,"ĠAmerican":1021,"though":1022,"ĠInd":1023,"Ġdif":1024,"ield":1025,"ah":1026,"Ġpop":1027,"Ġinst":1028,"ouse":1029,"ise":1030,"emb":1031,"Ġknown":1032,"Ġ197":1033,"ĠAust":1034,"ty":1035,"ually":1036,"Ġ196":1037,"Ġ11":1038,"Ġconc":1039,"til":1040,"iam":1041,"ĠWar":1042,"view":1043,"erson":1044,"Ġob":1045,"ĠGer":1046,"ued":1047,"Ġsm":1048,"Ġreturn":1049,"Ġbegan":1050,"ĠZ":1051,"Ġany":1052,"Ġcomple":1053,"Ġdesign":1054,"ern":1055,"ĠDe":1056,"Ġdesc":1057,"Ġsign":1058,"ross":1059,"ople":1060,"chool":1061,"my":1062,"Ġest":1063,"ism":1064,"oot":1065,"Ġtrans":1066,"ccess":1067,"Ġprov":1068,"aking":1069,"Ġfeat":1070,"ĠBl":1071,"ided":1072,"Ġinf":1073,"anc":1074,"Ġrun":1075,"Ġearly":1076,"Ġart":1077,"ized":1078,"Ġdist":1079,"Ġnear":1080,"Ġmusic":1081,"Ġown":1082,"Ġreleased":1083,"Ġuntil":1084,"Ġcalled":1085,"ĠCol":1086,"Ġeff":1087,"ĠUS":1088,"imes":1089,"ists":1090,"rid":1091,"une":1092,"Ġresp":1093,"Ġbel":1094,"enn":1095,"Ġpass":1096,"ured":1097,"stem":1098,"Ġfin":1099,"ĠMay":1100,"ially":1101,"Ġdown":1102,"Ġph":1103,"ution":1104,"Ġdisc":1105,"ments":1106,"Ġcrit":1107,"xt":1108,"osed":1109,"Ġdirect":1110,"Ġgener":1111,"Ġalong":1112,"Ġins":1113,"ium":1114,"Ġmillion":1115,"ĠBritish":1116,"ger":1117,"ull":1118,"ax":1119,"ĠGerman":1120,"Ġgroup":1121,"Ġoffic":1122,"vent":1123,"Ġ13":1124,"Ġfam":1125,"eb":1126,"Ġthese":1127,"ajor":1128,"Ġmod":1129,"Ġmay":1130,"Ġ$":1131,"cept":1132,"Ġopen":1133,"ĠAd":1134,"Ġmil":1135,"ange":1136,"ĠBe":1137,"Ġpoin":1138,"uc":1139,"Ġland":1140,"gg":1141,"Ġhist":1142,"ĠAug":1143,"Ġgovern":1144,"Ġsim":1145,"ĠSept":1146,"Ã©":1147,"Ġsuccess":1148,"ĠSeptember":1149,"ĠAugust":1150,"ets":1151,"Ġoper":1152,"ĠWorld":1153,"erv":1154,"Ġattack":1155,"Ġgu":1156,"ible":1157,"ĠAp":1158,"ĠStates":1159,"ink":1160,"Ġcount":1161,"Ġuse":1162,"Ġsame":1163,"wards":1164,"ys":1165,"Ġdescrib":1166,"Ġpeople":1167,"aced":1168,"ĠFor":1169,"ĠIs":1170,"amed":1171,"yp":1172,"Ġcharacter":1173,"ĠAll":1174,"Ġbecause":1175,"els":1176,"Ġ14":1177,"Ġvi":1178,"Ġlike":1179,"Ġserv":1180,"ĠJu":1181,"ĠFran":1182,"Ġaround":1183,"ged":1184,"Ġstart":1185,"Ġthough":1186,"Ġed":1187,"Ġkm":1188,"ĠPl":1189,"Ġ195":1190,"ĠQ":1191,"ner":1192,"Ġwin":1193,"ĠAustral":1194,"Ġconst":1195,"ues":1196,"ring":1197,"Ġtook":1198,"ruct":1199,"Ġocc":1200,"Ġbatt":1201,"aving":1202,"ĠOct":1203,"Ġann":1204,"Ġsupport":1205,"ĠNov":1206,"ove":1207,"Ġnorth":1208,"Ġfollowing":1209,"Ġsix":1210,"Ġele":1211,"ĠCar":1212,"Ġ193":1213,"ĠHowever":1214,"Ġsystem":1215,"uss":1216,"Ġappear":1217,"Ġfinal":1218,"Ġclass":1219,"Ġreceived":1220,"Ġhead":1221,"ined":1222,"ĠOctober":1223,"ives":1224,"Ġprom":1225,"Ġconsid":1226,"ene":1227,"ants":1228,"rad":1229,"ling":1230,"ility":1231,"ically":1232,"ĠDec":1233,"ĠPro":1234,"Ġ191":1235,"Ġstate":1236,"Ġever":1237,"Ġbuild":1238,"Ġeach":1239,"ret":1240,"anu":1241,"Ġext":1242,"Ġfive":1243,"rist":1244,"Ġaut":1245,"rol":1246,"Ġcentury":1247,"ĠYork":1248,"ina":1249,"Ġbo":1250,"Ġarea":1251,"Ġvar":1252,"ĠThey":1253,"Ġsmall":1254,"ately":1255,"Ġwill":1256,"oss":1257,"ĠNorth":1258,"Ġpartic":1259,"get":1260,"Ġlife":1261,"iving":1262,"Ġreport":1263,"ril":1264,"ĠMe":1265,"Ġ]":1266,"Ġ[":1267,"tle":1268,"ored":1269,"ians":1270,"ĠJune":1271,"ĠBy":1272,"Ġcity":1273,"ording":1274,"ped":1275,"gin":1276,"Ġmar":1277,"Ġmajor":1278,"Ġpublic":1279,"Ġweek":1280,"ĠKing":1281,"ission":1282,"ĠJuly":1283,"Ġ%":1284,"Ġconf":1285,"ection":1286,"Ġband":1287,"ĠHar":1288,"Ġref":1289,"med":1290,"ĠNovember":1291,"urch":1292,"inc":1293,"ĠComm":1294,"Ġrest":1295,"ĠPh":1296,"ĠWill":1297,"Ġsince":1298,"Ġworld":1299,"Ġmed":1300,"esp":1301,"raft":1302,"Ġsingle":1303,"raph":1304,"por":1305,"ĠApril":1306,"ble":1307,"ains":1308,"ĠMc":1309,"ried":1310,"Ġdet":1311,"omet":1312,"lish":1313,"ĠMarch":1314,"Ġjust":1315,"ected":1316,"Ġlast":1317,"ĠEd":1318,"ural":1319,"ional":1320,"hest":1321,"aim":1322,"cl":1323,"Ġturn":1324,"ively":1325,"Ġpo":1326,"ilt":1327,"Ġhel":1328,"ient":1329,"Ġallow":1330,"Ġ30":1331,"ĠCan":1332,"vious":1333,"ĠGe":1334,"Ġleft":1335,"Ġlarge":1336,"ats":1337,"Ġline":1338,"ĠSouth":1339,"Ġdiffer":1340,"ales":1341,"Ġcare":1342,"Ġsouth":1343,"Ġadv":1344,"ified":1345,"ĠDuring":1346,"Ġstr":1347,"Ġdr":1348,"empt":1349,"Ġbook":1350,"Ġvers":1351,"Ġsl":1352,"Ġschool":1353,"avy":1354,"ĠDecember":1355,"Ġthird":1356,"ague":1357,"Ġincre":1358,"Ġ25":1359,"Ġmonth":1360,"Ġdue":1361,"Ġappro":1362,"Ġplayed":1363,"..":1364,"Ġmuch":1365,"Ġevent":1366,"row":1367,"Ġif":1368,"Ġanother":1369,"ĠJanu":1370,"rote":1371,"ĠJanuary":1372,"ĠPr":1373,"Ġincluded":1374,"Ġ192":1375,"Ġwhat":1376,"Ġplace":1377,"Ġbased":1378,"ne":1379,"Ġshort":1380,"ĠII":1381,"Ġgovernment":1382,"ony":1383,"ball":1384,"apan":1385,"Ġexpl":1386,"Ġperson":1387,"Ġwrote":1388,"Ġtrack":1389,"ĠWhen":1390,"Ġcamp":1391,"Ġtit":1392,"Ġold":1393,"alf":1394,"Ġport":1395,"Ġbre":1396,"ĠEu":1397,"Ġdeath":1398,"Ġname":1399,"ently":1400,"ĠJapan":1401,"Ġelect":1402,"ple":1403,"rent":1404,"Ġ...":1405,"Ġeng":1406,"Ġwon":1407,"by":1408,"ience":1409,"ĠOr":1410,"Ġprot":1411,"Ġchild":1412,"Ġlit":1413,"oad":1414,"Ġkill":1415,"Ġprog":1416,"ideo":1417,"Ġpower":1418,"ages":1419,"Ġstory":1420,"ĠTe":1421,"ĠBro":1422,"Ġreview":1423,"ital":1424,"ody":1425,"Ġvis":1426,"Ġhome":1427,"ott":1428,"Ġled":1429,"ps":1430,"Ġgun":1431,"Ġrequ":1432,"Ġdescribed":1433,"Ġprevious":1434,"eng":1435,"oman":1436,"Ġfamily":1437,"yl":1438,"rand":1439,"tain":1440,"Ġway":1441,"Ġnamed":1442,"Ġnow":1443,"Ġright":1444,"ĠMus":1445,"Ġdem":1446,"urther":1447,"iod":1448,"iven":1449,"Ġmen":1450,"Ġeven":1451,"embers":1452,"ilar":1453,"ĠGu":1454,"Ġorgan":1455,"Ġmake":1456,"reen":1457,"ont":1458,"ister":1459,"cy":1460,"iversity":1461,"Ġattempt":1462,"omin":1463,"ivision":1464,"itions":1465,"Ġbest":1466,"Ġcour":1467,"Ġ100":1468,"Ġrepl":1469,"rench":1470,"ĠÂ":1471,"Ġopp":1472,"Ġleg":1473,"ior":1474,"Ġgames":1475,"ached":1476,"Ġcommand":1477,"Ġterm":1478,"Ġhand":1479,"ĠAnd":1480,"ival":1481,"ĠFl":1482,"mp":1483,"Ġposs":1484,"Ġdam":1485,"Ġbelie":1486,"Ġvery":1487,"ox":1488,"ĠHis":1489,"Ġthose":1490,"ĠFeb":1491,"ĠEurop":1492,"Ġpar":1493,"ĠFebru":1494,"ĠFebruary":1495,"sh":1496,"Ġiss":1497,"Ġstill":1498,"Ġnext":1499,"Ġtop":1500,"Ġspecies":1501,"ĠChrist":1502,"Ġeffect":1503,"ched":1504,"riend":1505,"Ġview":1506,"ĠThere":1507,"ĠNational":1508,"oci":1509,"aken":1510,"Ġoriginal":1511,"Ġspe":1512,"ĠWe":1513,"ences":1514,"ature":1515,"lu":1516,"Ġwater":1517,"ness":1518,"Ġjoin":1519,"Ġaddition":1520,"ĠEurope":1521,"au":1522,"Ġlist":1523,"ĠBar":1524,"Ġwithin":1525,"Ġperiod":1526,"eter":1527,"alk":1528,"Ġmembers":1529,"Ġbuilt":1530,"ĠFrench":1531,"Ġmark":1532,"Ġheld":1533,"Ġdeb":1534,"ĠAm":1535,"Ġexper":1536,"hor":1537,"Ġ2010":1538,"af":1539,"Ġalthough":1540,"Ġmatch":1541,"Ġlate":1542,"Ġformer":1543,"Ġrelease":1544,"ĠPar":1545,"rew":1546,"Ġgreat":1547,"ridge":1548,"augh":1549,"Ġdest":1550,"Ġsold":1551,"Ġcur":1552,"ney":1553,"uted":1554,"tended":1555,"Ġvideo":1556,"Ġ21":1557,"ards":1558,"Ġcaus":1559,"Ġstorm":1560,"ropical":1561,"ĠWest":1562,"line":1563,"ves":1564,"Ġcover":1565,"ech":1566,"Ġtri":1567,"Ġinit":1568,"Ġrole":1569,"ĠX":1570,"ĠWilliam":1571,"self":1572,"Ġcame":1573,"Ġestab":1574,"Ġdays":1575,"hel":1576,"ances":1577,"ĠHer":1578,"Ġresult":1579,"Ġmid":1580,"oon":1581,"Ġpresent":1582,"na":1583,"lev":1584,"aged":1585,"Ġcontrol":1586,"ulation":1587,"ption":1588,"Ġpolit":1589,"Ġstand":1590,"Ġreal":1591,"Ġhowever":1592,"itary":1593,"ham":1594,"ĠMan":1595,"ĠMin":1596,"aster":1597,"Ġ2008":1598,"Ġprop":1599,"let":1600,"Ġwind":1601,"ense":1602,"ides":1603,"Ġfew":1604,"atic":1605,"Ġ2009":1606,"Ġ24":1607,"Ġtown":1608,"ĠGeor":1609,"omb":1610,"Ġside":1611,"Ġyou":1612,"ograph":1613,"Ġtw":1614,"Ġsk":1615,"Ġcontinued":1616,"Ġpost":1617,"Ġequ":1618,"Ġoften":1619,"ays":1620,"ĠEar":1621,"Ġlocal":1622,"Ġ2011":1623,"elt":1624,"ĠChar":1625,"ator":1626,"ĠAir":1627,"Ġamong":1628,"ruction":1629,"Ġsimilar":1630,"ches":1631,"ĠMich":1632,"ead":1633,"ract":1634,"ĠNo":1635,"Ġhum":1636,"Ġav":1637,"Ġclaim":1638,"estern":1639,"ung":1640,"omen":1641,"ese":1642,"ĠEngland":1643,"reet":1644,"Ġ&":1645,"read":1646,"ops":1647,"akes":1648,"ler":1649,"ology":1650,"side":1651,"Ġdifferent":1652,"Ġdel":1653,"Ġbeh":1654,"Ġmy":1655,"ĠRec":1656,"par":1657,"Ġfurther":1658,"Ġ22":1659,"Ġsent":1660,"Ġtyp":1661,"esc":1662,"ots":1663,"ested":1664,"urs":1665,"Ġlevel":1666,"Ġfre":1667,"ĠDav":1668,"ery":1669,"Ġconsidered":1670,"Ġtake":1671,"Ġlaw":1672,"tal":1673,"ĠEl":1674,"Ġ2007":1675,"Ġcareer":1676,"gy":1677,"ĠOne":1678,"Ġproduction":1679,"me":1680,"Ġhalf":1681,"arm":1682,"ĠPark":1683,"ĠCo":1684,"ices":1685,"ampions":1686,"ĠCity":1687,"Ġhaving":1688,"Ġant":1689,"bo":1690,"ĠAcc":1691,"ĠEnglish":1692,"Ġeast":1693,"Ġroad":1694,"Ġmag":1695,"Ġmoved":1696,"Ġdra":1697,"Ġwest":1698,"ering":1699,"Ġevery":1700,"Ġwithout":1701,"ĠAlthough":1702,"Ġcr":1703,"rodu":1704,"ĠCent":1705,"Ġposition":1706,"Ġ2012":1707,"Ġappe":1708,"Ġplan":1709,"Ġtro":1710,"ining":1711,"Ġplayer":1712,"ront":1713,"Ġarr":1714,"ĠAng":1715,"Ġhistory":1716,"Ġcor":1717,"Ġbecome":1718,"ones":1719,"vers":1720,"ĠCal":1721,"Ġversion":1722,"Ġarm":1723,"ĠCount":1724,"ford":1725,"ondon":1726,"Ġcast":1727,"Ġel":1728,"Ġinflu":1729,"Ġ23":1730,"ize":1731,"ĠLondon":1732,"ĠBatt":1733,"yle":1734,"Ġhouse":1735,"rig":1736,"Ġfore":1737,"Ġcommun":1738,"Ġsound":1739,"resent":1740,"irc":1741,"app":1742,"roy":1743,"aul":1744,"atter":1745,"Ġinvol":1746,"Ġstrong":1747,"Ġgr":1748,"Ġsugg":1749,"ai":1750,"Ġclub":1751,"Ġwritten":1752,"Ġ190":1753,"aining":1754,"Ġbas":1755,"ĠWith":1756,"Ġstat":1757,"rest":1758,"oung":1759,"Ġless":1760,"Ġannoun":1761,"ĠRiver":1762,"utes":1763,"Ġfoot":1764,"iqu":1765,"Ġorder":1766,"ald":1767,"iment":1768,"Ġrefer":1769,"iety":1770,"Ġtem":1771,"ges":1772,"craft":1773,"ae":1774,"Ġprof":1775,"ĠCanad":1776,"sequ":1777,"Ġaff":1778,"Ġpoint":1779,"Ġgiven":1780,"Ġrad":1781,"Ġlow":1782,"ĠGener":1783,"Ġtrad":1784,"Ġhig":1785,"ĠUniversity":1786,"Ġwant":1787,"ille":1788,"Ġgave":1789,"Ġke":1790,"Ġpat":1791,"isc":1792,"uck":1793,"Ġdefe":1794,"Ġimport":1795,"Ġnever":1796,"aff":1797,"ĠWhile":1798,"ĠPol":1799,"Ġchang":1800,"Ġreturned":1801,"ories":1802,"ration":1803,"Ġsoc":1804,"Ġtotal":1805,"Ġvict":1806,"ĠAb":1807,"ĠHigh":1808,"Ġfact":1809,"Ġfire":1810,"Ġgood":1811,"ention":1812,"Ġcomb":1813,"ĠTr":1814,"Ġcompany":1815,"Ġcountry":1816,"Ġwent":1817,"ailed":1818,"ison":1819,"sp":1820,"cess":1821,"ours":1822,"Ġfriend":1823,"Ġcapt":1824,"rick":1825,"ĠEx":1826,"aun":1827,"Ġpublished":1828,"Ġproduced":1829,"aying":1830,"Ġfind":1831,"levision":1832,"Ġreported":1833,"con":1834,"Ġorigin":1835,"Ġ2006":1836,"ĠSm":1837,"Ġlost":1838,"aign":1839,"Ġstated":1840,"Ġcommon":1841,"Ġprogram":1842,"Ġlight":1843,"ington":1844,"Ġord":1845,"yn":1846,"Ġparticular":1847,"ape":1848,"echn":1849,"Ġadm":1850,"Ġinclude":1851,"ests":1852,"ĠAccording":1853,"Ġlarg":1854,"ably":1855,"Ġer":1856,"urric":1857,"ĠSte":1858,"used":1859,"Ġcompet":1860,"Ġforces":1861,"Ġrecorded":1862,"ief":1863,"Ġbuilding":1864,"Ġpress":1865,"Ġneed":1866,"Ġbus":1867,"Ġproject":1868,"Ġnort":1869,"ĠNe":1870,"hing":1871,"ument":1872,"Ġships":1873,"Ġ27":1874,"Ġshould":1875,"Ġusing":1876,"Ġeight":1877,"Ġ50":1878,"osp":1879,"Ġ28":1880,"Ġperformance":1881,"iness":1882,"ploy":1883,"Ġservice":1884,"ĠThese":1885,"bs":1886,"ĠSw":1887,"Ġpopular":1888,"Ġide":1889,"Ġtimes":1890,"Ġmaking":1891,"Ġten":1892,"Ġaircraft":1893,"oyal":1894,"Ġmilitary":1895,"ĠAustralia":1896,"Ġhimself":1897,"Ġ2013":1898,"atch":1899,"Ġauthor":1900,"Ġfun":1901,"Ġfather":1902,"Ġbattle":1903,"ampionship":1904,"ĠSec":1905,"lear":1906,"ned":1907,"Ġanim":1908,"ĠJack":1909,"Ġsit":1910,"Ġlim":1911,"ĠAss":1912,"ĠAf":1913,"Ġsongs":1914,"Ġsomet":1915,"outher":1916,"Ġread":1917,"ensive":1918,"ither":1919,"Ġcritic":1920,"ords":1921,"Ġdevelopment":1922,"ĠGeneral":1923,"Ġsw":1924,"Ġ40":1925,"Ġhow":1926,"alth":1927,"Ġgl":1928,"quad":1929,"eder":1930,"eth":1931,"itive":1932,"ĠState":1933,"Ġ26":1934,"Ġsol":1935,"ases":1936,"ĠCor":1937,"oll":1938,"Ġcross":1939,"outhern":1940,"amb":1941,"ĠJames":1942,"cer":1943,"Ġ189":1944,"Ġground":1945,"Ġrepresent":1946,"ĠSy":1947,"Ġdestroy":1948,"Ġft":1949,"acy":1950,"Ġstar":1951,"Ġste":1952,"Ġremained":1953,"astern":1954,"ĠArmy":1955,"ks":1956,"rie":1957,"Ġnational":1958,"Ġcharacters":1959,"Ġget":1960,"ries":1961,"ĠPres":1962,"Ġsuff":1963,"work":1964,"Ġmonths":1965,"ĠBo":1966,"ĠComp":1967,"aur":1968,"Ġgen":1969,"Ġdied":1970,"Ġter":1971,"ublic":1972,"ĠGl":1973,"Ġdeveloped":1974,"Ġtitle":1975,"dom":1976,"Ġsum":1977,"Ġforce":1978,"ream":1979,"fic":1980,"Ġchart":1981,"Ġcampaign":1982,"urricane":1983,"ĠLeague":1984,"Ġchildren":1985,"lands":1986,"Ġintrodu":1987,"ency":1988,"Ġpra":1989,"Ġtour":1990,"Ġpromot":1991,"itted":1992,"isted":1993,"Ġsignific":1994,"Ġacross":1995,"ael":1996,"ression":1997,"Ġson":1998,"Ġred":1999,"hern":2000,"Ġaway":2001,"ĠDivision":2002,"Ġobs":2003,"Ġrelations":2004,"Ġhistor":2005,"Ġofficial":2006,"Ġfield":2007,"Ġfav":2008,"Ġfelt":2009,"ole":2010,"ĠAmerica":2011,"lege":2012,"Ġnight":2013,"Ġfac":2014,"Ġnoted":2015,"ĠSim":2016,"alt":2017,"Ġreached":2018,"ĠRuss":2019,"most":2020,"Ġannounced":2021,"ĠSup":2022,"Ġintern":2023,"ĠJapanese":2024,"ĠCounty":2025,"Ġareas":2026,"Ġcreated":2027,"ĠRep":2028,"com":2029,"Ġcoun":2030,"ĠMon":2031,"ĠRoad":2032,"Ġtelevision":2033,"Ġ2005":2034,"ressed":2035,"Ġsuccessful":2036,"Ġstation":2037,"ĠMad":2038,"hem":2039,"Ġrock":2040,"ĠReg":2041,"imately":2042,"Ġbar":2043,"Ġval":2044,"ĠStreet":2045,"ising":2046,"ĠGr":2047,"Ġvarious":2048,"ĠâĢĻ":2049,"Ġ29":2050,"Ġpolitical":2051,"Ġseen":2052,"Ġfollowed":2053,"field":2054,"Ġaver":2055,"Ġtoo":2056,"iber":2057,"ization":2058,"iting":2059,"Ġrank":2060,"ĠEast":2061,"cast":2062,"Ġserved":2063,"ett":2064,"Ġperformed":2065,"ope":2066,"ĠRober":2067,"Ġcult":2068,"reg":2069,"Ġplayers":2070,"Ġ2014":2071,"Ġcond":2072,"Ġprim":2073,"Ġrev":2074,"Ġfull":2075,"ination":2076,"Ġdecl":2077,"ĠGeorge":2078,"ality":2079,"Ġbegin":2080,"Ġfle":2081,"Ġblack":2082,"duct":2083,"Ġconv":2084,"elling":2085,"Ġput":2086,"Ġcirc":2087,"ĠSer":2088,"ĠPer":2089,"Ġearl":2090,"ĠPhil":2091,"ĠTo":2092,"olution":2093,"Ġcost":2094,"abor":2095,"ĠHen":2096,"Ġsee":2097,"Ġdiv":2098,"idence":2099,"Ġprocess":2100,"Ġnon":2101,"Ġstyle":2102,"ying":2103,"Ġlook":2104,"Ġkilled":2105,"Ġcy":2106,"Ġvol":2107,"Ġseven":2108,"Ġaud":2109,"ĠEm":2110,"rict":2111,"Ġtropical":2112,"Ġhelp":2113,"lished":2114,"Ġlet":2115,"play":2116,"Ġthroughout":2117,"Ġtaken":2118,"ĠBill":2119,"Ġfight":2120,"Ġable":2121,"ana":2122,"Ġdiscover":2123,"Ġagre":2124,"ecut":2125,"urg":2126,"Ġwid":2127,"Ġlittle":2128,"Ġsignificant":2129,"ertain":2130,"Ġbecom":2131,"Ġage":2132,"Ġhit":2133,"ĠSch":2134,"Ġfem":2135,"Ġident":2136,"Ġmeet":2137,"ways":2138,"ĠThom":2139,"ĠAustralian":2140,"Ġtechn":2141,"Ġspecial":2142,"irl":2143,"Ġstruct":2144,"oice":2145,"Ġfront":2146,"Ġwriting":2147,"Ġcop":2148,"Ġthought":2149,"Ġmm":2150,"Ġbroad":2151,"Ġestablished":2152,"enced":2153,"aval":2154,"ĠAct":2155,"ĠDavid":2156,"ius":2157,"ĠPart":2158,"Ġappeared":2159,"ĠMor":2160,"Ġentire":2161,"Ġcoll":2162,"Ġdoes":2163,"epend":2164,"Ġmiles":2165,"cil":2166,"Ġyoung":2167,"Ġ!":2168,"Ġcoast":2169,"ĠRich":2170,"Ġpoints":2171,"Ġbody":2172,"Ġaward":2173,"less":2174,"Ġroute":2175,"odes":2176,"Ġimpro":2177,"ought":2178,"Ġmember":2179,"ript":2180,"ground":2181,"ĠMed":2182,"ivil":2183,"Ġrange":2184,"Ġactiv":2185,"ask":2186,"iron":2187,"ster":2188,"Ġwomen":2189,"iers":2190,"ĠPe":2191,"Ġstarted":2192,"Ġcaused":2193,"ĠYou":2194,"Ġdecided":2195,"int":2196,"blem":2197,"lected":2198,"ĠAfric":2199,"Ġfeatures":2200,"Ġpain":2201,"day":2202,"Ġgeneral":2203,"ĠQu":2204,"ators":2205,"Ġeventually":2206,"iec":2207,"men":2208,"umb":2209,"oph":2210,"conom":2211,"ĠRoyal":2212,"Ġarch":2213,"ogn":2214,"uk":2215,"Ġrace":2216,"den":2217,"Ġvot":2218,"itar":2219,"here":2220,"Ġfeet":2221,"Ġgrow":2222,"Ġmanag":2223,"pped":2224,"ĠHist":2225,"ush":2226,"bert":2227,"Ġadded":2228,"rison":2229,"Ġtre":2230,"Ġhold":2231,"Ġcut":2232,"Ġtoget":2233,"Ġtogether":2234,"Ġ188":2235,"ĠHouse":2236,"Ġformed":2237,"ivid":2238,"Ġlocated":2239,"Ġonce":2240,"Ġwhite":2241,"Ġstri":2242,"reek":2243,"ament":2244,"ample":2245,"Ġnov":2246,"Ġarg":2247,"Ġmodern":2248,"urb":2249,"Ġconn":2250,"Ġenc":2251,"off":2252,"ĠBlack":2253,"dle":2254,"ĠPort":2255,"Ġinstead":2256,"head":2257,"Ġround":2258,"rought":2259,"Ġ31":2260,"aces":2261,"Ġesc":2262,"ara":2263,"emy":2264,"Ġball":2265,"ĠIntern":2266,"Ġmix":2267,"Ġimportant":2268,"Ġcrew":2269,"cing":2270,"Ġpri":2271,"Ġsaw":2272,"ee":2273,"Ġaction":2274,"Ġcompleted":2275,"ĠItal":2276,"Ġredu":2277,"ĠIndian":2278,"ids":2279,"ects":2280,"Ġplaying":2281,"rated":2282,"ĠOther":2283,"cent":2284,"oney":2285,"ells":2286,"Ġ2004":2287,"Ġbase":2288,"Ġpopulation":2289,"ata":2290,"Ġsurv":2291,"Ġinsp":2292,"Ġmater":2293,"Ġmot":2294,"ĠMy":2295,"Ġstage":2296,"ĠMichael":2297,"Ġvoc":2298,"Ġguns":2299,"Ġrather":2300,"Ġask":2301,"Ġoccur":2302,"Ġbehind":2303,"Ġopened":2304,"Ġothers":2305,"Ġ186":2306,"Ġfall":2307,"Ġren":2308,"ray":2309,"asing":2310,"ceed":2311,"Ġbrother":2312,"wood":2313,"igned":2314,"ements":2315,"Ġcomment":2316,"Ġlik":2317,"lin":2318,"stit":2319,"Ġborn":2320,"Ġsite":2321,"Ġ2015":2322,"Ġfif":2323,"Ġworks":2324,"Ġloss":2325,"Ġbomb":2326,"Ġlive":2327,"Ġheavy":2328,"ĠFrance":2329,"Ġworked":2330,"ficult":2331,"Ġmiss":2332,"Ã¡":2333,"Ġpred":2334,"Ġsubsequ":2335,"medi":2336,"Ġlack":2337,"ĠSchool":2338,"rap":2339,"nder":2340,"Ġclose":2341,"Ġproblem":2342,"Ġparty":2343,"Ġdifficult":2344,"lection":2345,"Ġconstruction":2346,"ĠSome":2347,"ĠWash":2348,"ĠSan":2349,"Ġknow":2350,"ĠNor":2351,"Ġhost":2352,"arch":2353,"Ġweeks":2354,"istic":2355,"Ġrelationship":2356,"Ġoriginally":2357,"Ġsepar":2358,"Ġassoci":2359,"Ġreb":2360,"co":2361,"Ġupon":2362,"Ġpract":2363,"Ġappoin":2364,"Ġleading":2365,"Ġpeak":2366,"Ġvill":2367,"Ġaccom":2368,"ĠHenry":2369,"Ġalmost":2370,"Ġdamage":2371,"orts":2372,"Ġmer":2373,"Ġinj":2374,"lic":2375,"ĠRobert":2376,"ĠAle":2377,"unk":2378,"Ġfourth":2379,"Ġ2000":2380,"osition":2381,"Ġscored":2382,"ĠBattle":2383,"Ġinform":2384,"aps":2385,"Ġreve":2386,"ĠStar":2387,"Ġprovided":2388,"Ġcase":2389,"ĠMusic":2390,"Ġmi":2391,"ĠBest":2392,"ming":2393,"Ġclos":2394,"board":2395,"Ġengine":2396,"Ġinvest":2397,"Ġgoal":2398,"Ġaccept":2399,"ĠVir":2400,"Ġcreat":2401,"ica":2402,"Ġscene":2403,"ĠRed":2404,"oring":2405,"ĠDesp":2406,"Ġhuman":2407,"ellow":2408,"ino":2409,"ĠRou":2410,"ule":2411,"ological":2412,"angu":2413,"Ġbrought":2414,"Ġ500":2415,"aut":2416,"Ġfree":2417,"Ġindivid":2418,"Ġ187":2419,"ĠPaul":2420,"Ġfeatured":2421,"ula":2422,"Ġleast":2423,"Ġking":2424,"Ġmother":2425,"Ġlaun":2426,"Ġallowed":2427,"Ġworking":2428,"ĠPresident":2429,"ama":2430,"Ġresul":2431,"ĠMil":2432,"Ġtowards":2433,"ĠCap":2434,"Ġaverage":2435,"Ġregion":2436,"Ġwanted":2437,"Ġmult":2438,"Ġtroops":2439,"Ġindust":2440,"Ġtradition":2441,"Ġbusiness":2442,"aves":2443,"ĠAg":2444,"ĠHol":2445,"ĠWashington":2446,"iding":2447,"Ġplaced":2448,"azine":2449,"ĠQue":2450,"Ġquick":2451,"Ġve":2452,"Ġce":2453,"Ġeither":2454,"ving":2455,"Ġrespect":2456,"Ġcritics":2457,"ĠBel":2458,"Ġoffice":2459,"Ġhon":2460,"Ġavail":2461,"ky":2462,"Ġreach":2463,"Ġruns":2464,"Ġexample":2465,"antic":2466,"Ġprofess":2467,"Ġmaterial":2468,"Ġrecogn":2469,"Ġeconom":2470,"ĠÃ":2471,"Ġfar":2472,"go":2473,"ened":2474,"Ġwife":2475,"Ġestim":2476,"to":2477,"Ġarmy":2478,"Ġneg":2479,"ze":2480,"earch":2481,"chie":2482,"ential":2483,"Ġfoc":2484,"ĠDespite":2485,"right":2486,"Ġ2003":2487,"ĠFollow":2488,"Ġsex":2489,"ĠCour":2490,"quadron":2491,"Ġinterest":2492,"Ġsour":2493,"ength":2494,"Ġjoined":2495,"Ġmass":2496,"Ġrail":2497,"Ġdou":2498,"Ġgenerally":2499,"ĠAngel":2500,"ĠHill":2501,"enes":2502,"ĠHam":2503,"Ġproper":2504,"Ġcurrent":2505,"uff":2506,"Ġdev":2507,"ĠHall":2508,"ourn":2509,"Ġevents":2510,"Ġbelieved":2511,"ĠGame":2512,"Ġparticip":2513,"ĠCup":2514,"Ġ35":2515,"of":2516,"itch":2517,"Ġfig":2518,"ĠFollowing":2519,"ĠKe":2520,"ville":2521,"ĠFirst":2522,"be":2523,"rey":2524,"Ġbill":2525,"ĠMary":2526,"Ġreplaced":2527,"ĠDr":2528,"Ġz":2529,"Ġmph":2530,"ĠGreat":2531,"Ġrul":2532,"Ġvictory":2533,"artment":2534,"Ġdesigned":2535,"ĠLou":2536,"Ġgrad":2537,"Ġisland":2538,"ĠJe":2539,"iction":2540,"sc":2541,"Ġsoon":2542,"Ġnomin":2543,"xic":2544,"itte":2545,"ĠLa":2546,"ĠGro":2547,"oor":2548,"ĠMal":2549,"Ġfund":2550,"Ġhours":2551,"erous":2552,"ĠTwo":2553,"Ġemploy":2554,"ification":2555,"Ġinvolved":2556,"ĠEuropean":2557,"Ġpresident":2558,"Ġroom":2559,"uel":2560,"aled":2561,"ĠChampionship":2562,"Ġsurf":2563,"Ġstru":2564,"aper":2565,"val":2566,"Ġfinished":2567,"inf":2568,"merc":2569,"asion":2570,"west":2571,"inist":2572,"iff":2573,"emor":2574,"ĠMart":2575,"Ġbreak":2576,"inn":2577,"ĠRoman":2578,"ĠPlay":2579,"Ġhor":2580,"Ġshot":2581,"Ġcourt":2582,"rain":2583,"Ġsaying":2584,"aren":2585,"Ġthreat":2586,"arn":2587,"Ġopening":2588,"ĠDan":2589,"Ġscore":2590,"ĠBer":2591,"Ġregular":2592,"ĠRoute":2593,"Ġdesp":2594,"ĠMet":2595,"Ġdirector":2596,"ades":2597,"Ġlength":2598,"BC":2599,"ĠDon":2600,"cher":2601,"leg":2602,"Ġindic":2603,"Ġhom":2604,"Ġlargest":2605,"ĠMac":2606,"ĠScott":2607,"Ġconduct":2608,"Ġill":2609,"oul":2610,"Ġhighway":2611,"Ġcontrib":2612,"antry":2613,"Ġpossible":2614,"Ġtravel":2615,"Ġsouthern":2616,"now":2617,"ecutive":2618,"Ġdro":2619,"ki":2620,"ude":2621,"ishing":2622,"Ġminutes":2623,"ipp":2624,"ĠCro":2625,"Ġremov":2626,"Ġhy":2627,"ĠVal":2628,"ĠFrom":2629,"Ġhighest":2630,"icle":2631,"Ġearlier":2632,"Ġtest":2633,"Ġ2001":2634,"Ġinitially":2635,"Ġly":2636,"Ġavailable":2637,"ago":2638,"ĠSing":2639,"anned":2640,"ĠAtl":2641,"Ġparticularly":2642,"Ġpercent":2643,"ander":2644,"Ġhard":2645,"Ġtraining":2646,"Ġsequ":2647,"ĠWil":2648,"ĠRepublic":2649,"Ġforced":2650,"ply":2651,"Ġexist":2652,"ĠMid":2653,"ĠNavy":2654,"Ġmust":2655,"hib":2656,"ĠCharles":2657,"ĠKingdom":2658,"ĠMag":2659,"ography":2660,"asy":2661,"ĠÂ°":2662,"rian":2663,"ĠMcC":2664,"Ġpark":2665,"ĠBut":2666,"Ġrespons":2667,"ĠOff":2668,"bor":2669,"ateg":2670,"Ġended":2671,"Ġwall":2672,"rac":2673,"Ġquar":2674,"Ġturned":2675,"Ġexc":2676,"ĠThomas":2677,"ĠInternational":2678,"ems":2679,"Ġstudio":2680,"uture":2681,"Ġsocial":2682,"ĠPal":2683,"ĠDep":2684,"rag":2685,"Ġchange":2686,"iforn":2687,"ĠChurch":2688,"ios":2689,"ĠRes":2690,"heast":2691,"Ġlangu":2692,"ĠWhite":2693,"Ġpraised":2694,"Ġpassed":2695,"Ġnorthern":2696,"Ġsuper":2697,"Ġpriv":2698,"Ġpiec":2699,"Ġincreased":2700,"atural":2701,"Ġobject":2702,"ĠVirgin":2703,"rup":2704,"Ġhurricane":2705,"Ġ2002":2706,"Ġregard":2707,"Ġeduc":2708,"ĠBrown":2709,"Ġcentral":2710,"Ġkeep":2711,"ights":2712,"Ġphys":2713,"itor":2714,"Ġunits":2715,"Ġrelig":2716,"Ġnovel":2717,"Ġappearance":2718,"Ġspeed":2719,"ĠCanada":2720,"sel":2721,"rem":2722,"ĠSl":2723,"Ġpast":2724,"ĠCaliforn":2725,"ĠMer":2726,"ership":2727,"ĠRock":2728,"ĠSen":2729,"Ġstop":2730,"key":2731,"ended":2732,"Ġimmedi":2733,"Ġcou":2734,"Ġchurch":2735,"ĠBay":2736,"Ġordered":2737,"ocr":2738,"Ġdisp":2739,"uter":2740,"Ġsym":2741,"ĠSmith":2742,"ston":2743,"ĠMo":2744,"Ġmeas":2745,"ique":2746,"aughter":2747,"Ġtreat":2748,"ference":2749,"Ġtaking":2750,"rying":2751,"ĠSam":2752,"ĠRichard":2753,"ittee":2754,"Ġmove":2755,"Ġindepend":2756,"Ġsigned":2757,"ĠAlex":2758,"Ġlove":2759,"ilities":2760,"Ġachie":2761,"ĠCalifornia":2762,"Ġbetter":2763,"etwork":2764,"Ġpers":2765,"ĠUnion":2766,"itz":2767,"ump":2768,"aker":2769,"Ġwinds":2770,"ĠGovern":2771,"Ġap":2772,"ecess":2773,"arily":2774,"ĠGod":2775,"Ġinn":2776,"nel":2777,"ĠIsland":2778,"Ġwat":2779,"Ġenough":2780,"Ġcommerc":2781,"Ġpositive":2782,"ĠCourt":2783,"ears":2784,"Ġhous":2785,"ume":2786,"Ġaccording":2787,"anks":2788,"elled":2789,"Ġspent":2790,"Ġabove":2791,"Ġslow":2792,"Ġgoing":2793,"Ġpot":2794,"Ġoutside":2795,"ĠVict":2796,"ĠBra":2797,"ĠTom":2798,"Ġfilms":2799,"ĠMill":2800,"ma":2801,"uation":2802,"apt":2803,"ĠAward":2804,"Ġtold":2805,"ĠUp":2806,"Ġfeel":2807,"berg":2808,"ĠCong":2809,"Ġfootball":2810,"Ġclear":2811,"Ġpreviously":2812,"quare":2813,"Ġstates":2814,"Ġ1990":2815,"ĠAc":2816,"Ġ60":2817,"Ġmean":2818,"anding":2819,"Ġnine":2820,"Ġquest":2821,"ĠCompany":2822,"Ġrecording":2823,"ĠAssoci":2824,"alion":2825,"Ġpur":2826,"Ġsubject":2827,"atin":2828,"het":2829,"usion":2830,"ĠArt":2831,"Ġfailed":2832,"reng":2833,"Ġassist":2834,"Ġey":2835,"Ġrequired":2836,"Ġcome":2837,"ows":2838,"osing":2839,"Ġ45":2840,"Ġprob":2841,"Ġelements":2842,"ĠGermany":2843,"van":2844,"ida":2845,"Ġcru":2846,"ĠStud":2847,"Ġlower":2848,"ĠMark":2849,"ĠIndia":2850,"Ġreviews":2851,"Ġinterview":2852,"edy":2853,"Ġparts":2854,"Ġphot":2855,"ĠGold":2856,"Ġitself":2857,"ĠPeter":2858,"ship":2859,"Ġnar":2860,"Ġthink":2861,"ĠChristian":2862,"nes":2863,"Ġsil":2864,"ranch":2865,"Ġdirected":2866,"ĠNY":2867,"Ġabs":2868,"isl":2869,"ibility":2870,"Ġdespite":2871,"Ġesp":2872,"Ġflow":2873,"Ġcred":2874,"Ġcontract":2875,"amer":2876,"Ġ185":2877,"oke":2878,"ĠThat":2879,"Ġdebut":2880,"ĠPat":2881,"ĠÂ£":2882,"Ġ?":2883,"ĠTimes":2884,"ready":2885,"erved":2886,"Ġaccess":2887,"Ġbeginning":2888,"leb":2889,"Ġgroups":2890,"onna":2891,"oid":2892,"ĠCollege":2893,"ĠCast":2894,"Ġsection":2895,"Ġbi":2896,"Ġviol":2897,"ability":2898,"ĠUK":2899,"hester":2900,"Ġwhose":2901,"ĠSov":2902,"ĠBr":2903,"asons":2904,"Ġclaimed":2905,"Ġlines":2906,"Ġtransfer":2907,"ĠWestern":2908,"Ġprevent":2909,"Ġinternational":2910,"Ġasked":2911,"Ġstreng":2912,"ĠDem":2913,"Ġscreen":2914,"mar":2915,"Ġche":2916,"airs":2917,"Ġgive":2918,"onse":2919,"rief":2920,"Ġbeg":2921,"Ġkey":2922,"ĠMexic":2923,"ĠSoviet":2924,"ĠDo":2925,"Ġunc":2926,"ĠSpan":2927,"Ġadditional":2928,"ĠFilm":2929,"Ġfuture":2930,"ĠFrank":2931,"Ġfort":2932,"Ġwhom":2933,"ĠGrand":2934,"Ġleague":2935,"Ġop":2936,"ĠBen":2937,"Ġpoor":2938,"Ġgold":2939,"ĠAwards":2940,"lying":2941,"Ġdon":2942,"onst":2943,"Ġintroduced":2944,"Ġprem":2945,"Ġsea":2946,"Ġevidence":2947,"ites":2948,"Ġquickly":2949,"Ġidea":2950,"ex":2951,"Ġcal":2952,"Ġcenter":2953,"Ġalready":2954,"Ġ32":2955,"ĠForce":2956,"Ġbridge":2957,"ĠSoc":2958,"atory":2959,"eck":2960,"Ġfrequ":2961,"usp":2962,"ĠMost":2963,"Ġemb":2964,"Ġoccup":2965,"Ġelection":2966,"Ġ1970":2967,"Ġproduct":2968,"Ġexcept":2969,"Ġcycl":2970,"eum":2971,"ĠCoun":2972,"back":2973,"eal":2974,"Ġpil":2975,"Ġdeal":2976,"Ġpen":2977,"Ġarrived":2978,"irth":2979,"Ġblock":2980,"ecially":2981,"Ġwestern":2982,"Ġ1980":2983,"Ġcivil":2984,"aring":2985,"ĠBritain":2986,"ĠRob":2987,"Ġusually":2988,"Ġradio":2989,"Ġmusical":2990,"unt":2991,"ĠOver":2992,"ully":2993,"ĠDay":2994,"liam":2995,"ergy":2996,"ĠIm":2997,"ĠPac":2998,"Ġsometimes":2999,"Ġfemale":3000,"Ġdecision":3001,"Ġresponse":3002,"Ġfood":3003,"Ġstudy":3004,"Ġmagazine":3005,"ĠLater":3006,"Ġmoney":3007,"ĠVictor":3008,"Ġespecially":3009,"ĠHot":3010,"Ġissue":3011,"ĠBur":3012,"asc":3013,"Ġlab":3014,"ĠTra":3015,"Ġflood":3016,"Ġ-":3017,"liament":3018,"Ġliter":3019,"Ġsurface":3020,"Ġenv":3021,"gen":3022,"Ġcarried":3023,"rack":3024,"Ġmight":3025,"Ġestimated":3026,"ĠRh":3027,"Ġguitar":3028,"Ġcommunity":3029,"ena":3030,"aint":3031,"Ġconstruct":3032,"ĠChic":3033,"iter":3034,"Ġshows":3035,"Ġremain":3036,"Ġdefeated":3037,"Ġarran":3038,"Ġeastern":3039,"igan":3040,"Ġ1999":3041,"Ġremaining":3042,"aries":3043,"Ġminor":3044,"ĠEarly":3045,"Ġdeterm":3046,"inent":3047,"ĠMount":3048,"Ġwood":3049,"ha":3050,"raw":3051,"Ġapprox":3052,"ession":3053,"Ġlarger":3054,"Ġrap":3055,"ulf":3056,"Ġbecoming":3057,"ĠVirginia":3058,"ĠInf":3059,"Ġcomplete":3060,"Ġpolice":3061,"Ġ36":3062,"rab":3063,"ror":3064,"porary":3065,"Ġshoot":3066,"Ġ80":3067,"Ġteams":3068,"Ġentered":3069,"Ġmedia":3070,"Ġsuggested":3071,"Ġpressure":3072,"rics":3073,"Ġlatter":3074,"NA":3075,"ĠLos":3076,"Ġcommercial":3077,"ĠJust":3078,"ands":3079,"erve":3080,"Ġanal":3081,"Ġinvestig":3082,"Ġsurround":3083,"Ġdoc":3084,"Ġlo":3085,"Ġconsider":3086,"Ġmarket":3087,"Ġbrief":3088,"Ġconcern":3089,"ises":3090,"ĠSecond":3091,"Ġstudents":3092,"Ġbur":3093,"Ġpersonal":3094,"inct":3095,"Ġprison":3096,"ederal":3097,"ĠIf":3098,"ĠTex":3099,"ĠFle":3100,"Ġacqu":3101,"Ġdiscuss":3102,"Ġcertain":3103,"Ġcomplet":3104,"alled":3105,"Ġappointed":3106,"Ġeffects":3107,"ĠJackson":3108,"Ġprior":3109,"Ġder":3110,"Ġsummer":3111,"Ġhop":3112,"Ġsat":3113,"change":3114,"ĠCont":3115,"incip":3116,"Ġepisodes":3117,"Ġtar":3118,"Ġriver":3119,"ĠFlor":3120,"Ġstaff":3121,"enth":3122,"Ġemer":3123,"Ġsize":3124,"lymp":3125,"Ġdestroyed":3126,"ĠLouis":3127,"Ġchanges":3128,"ores":3129,"ulated":3130,"Ġcommission":3131,"Ġrid":3132,"imate":3133,"Ġscenes":3134,"Ġwinning":3135,"Ġfleet":3136,"sy":3137,"Ġlimited":3138,"omm":3139,"iser":3140,"Ġleaving":3141,"ĠSpanish":3142,"Ġdeg":3143,"ĠOlymp":3144,"tt":3145,"ĠClub":3146,"Ġpay":3147,"II":3148,"Ġden":3149,"Ġ75":3150,"Ġdraw":3151,"ga":3152,"que":3153,"su":3154,"lo":3155,"rigade":3156,"Ġself":3157,"Ġprovide":3158,"idents":3159,"Ġrights":3160,"Ġpolic":3161,"Ġtrib":3162,"ties":3163,"ournal":3164,"Ġtype":3165,"ires":3166,"Ġdate":3167,"ension":3168,"rd":3169,"Ġwriter":3170,"Ġfail":3171,"sen":3172,"ĠDu":3173,"Ġterrit":3174,"ari":3175,"Ġkil":3176,"Ġtransport":3177,"Ġproposed":3178,"Ġinfluence":3179,"Ġoverall":3180,"Ġdivision":3181,"Ġgirl":3182,"oms":3183,"ĠKh":3184,"Ġstructure":3185,"ĠGreen":3186,"inese":3187,"ĠParty":3188,"Ġtax":3189,"Ġ1960":3190,"Ġequip":3191,"Ġcontro":3192,"Ġ184":3193,"Ġscript":3194,"iral":3195,"Ġ300":3196,"ĠTer":3197,"Ġbr":3198,"ÃŃ":3199,"Ġagreed":3200,"ĠAssociation":3201,"Ġintended":3202,"atives":3203,"Ġanti":3204,"AA":3205,"Ġjud":3206,"Ġrunning":3207,"ĠPri":3208,"ift":3209,"ending":3210,"ĠEdward":3211,"icles":3212,"ĠAdm":3213,"Ġdaughter":3214,"Ġdeep":3215,"Ġsupported":3216,"Ġwide":3217,"Ġbow":3218,"Ġpurch":3219,"Ġnearly":3220,"Ġbig":3221,"ĠChicago":3222,"Ġbroadcast":3223,"ĠMany":3224,"imum":3225,"ĠChinese":3226,"Ġestablish":3227,"ĠOper":3228,"Ġdi":3229,"Ġresearch":3230,"Ġhelped":3231,"Ġmovement":3232,"Ġ1998":3233,"ĠRo":3234,"Ġmarried":3235,"Ġawarded":3236,"ili":3237,"Ġintens":3238,"Ġmultip":3239,"ĠIr":3240,"ĠCouncil":3241,"ĠSong":3242,"iles":3243,"atively":3244,"acing":3245,"Ġfavor":3246,"Ġdiss":3247,"Ġcreate":3248,"irm":3249,"Ġdark":3250,"ĠSal":3251,"Ġsusp":3252,"ny":3253,"pris":3254,"teen":3255,"omer":3256,"ĠKore":3257,"Ġbird":3258,"ĠEnter":3259,"Ġstars":3260,"Ġlonger":3261,"Ã¶":3262,"Ġlanguage":3263,"che":3264,"Ġcat":3265,"Ġcaptured":3266,"Ġplanned":3267,"Ġhigher":3268,"uz":3269,"Ġincreasing":3270,"mon":3271,"Ġcompared":3272,"ĠEv":3273,"Ġfans":3274,"ĠServ":3275,"ĠEmp":3276,"Ġconclud":3277,"Ġcourse":3278,"ĠSuper":3279,"Ġchanged":3280,"Ġ33":3281,"Ġapproximately":3282,"Ġexperience":3283,"Ġfeature":3284,"selves":3285,"Ġliving":3286,"ĠJohnson":3287,"ounds":3288,"Ġrelated":3289,"Ġdone":3290,"Ġfifth":3291,"Ġthemselves":3292,"enty":3293,"Ġ70":3294,"ĠHistory":3295,"abit":3296,"Ġwithd":3297,"ĠPacific":3298,"tained":3299,"bers":3300,"arent":3301,"Ġproducer":3302,"Ġmostly":3303,"Ġtemper":3304,"Ġtracks":3305,"isions":3306,"ĠBack":3307,"ss":3308,"ĠInter":3309,"Ġspace":3310,"Ġoperations":3311,"anced":3312,"ij":3313,"can":3314,"Ġdead":3315,"uth":3316,"ĠBillboard":3317,"umn":3318,"ĠApp":3319,"Ġthus":3320,"olic":3321,"ĠNot":3322,"ĠBet":3323,"Ġwoman":3324,"Ġsyn":3325,"Ġimm":3326,"Ġremains":3327,"Ġbring":3328,"ĠMont":3329,"thing":3330,"Ġquarter":3331,"Ã¼":3332,"Ġsoldiers":3333,"imin":3334,"Ġult":3335,"Ġour":3336,"Ġnatural":3337,"oint":3338,"vin":3339,"Ġwhether":3340,"Ġweap":3341,"Ġprobably":3342,"Ġface":3343,"Ġdram":3344,"Ġconcept":3345,"anded":3346,"Ġran":3347,"ĠFinal":3348,"rast":3349,"ĠScot":3350,"bour":3351,"Ġbattles":3352,"Ġbuildings":3353,"Ġcopies":3354,"Ġcomplex":3355,"Ġreact":3356,"Ġ1997":3357,"ĠSun":3358,"ĠSince":3359,"Ġforward":3360,"Ġleader":3361,"Ġdepart":3362,"ĠKn":3363,"Ġlyrics":3364,"Ġextended":3365,"Ġboy":3366,"Ġvoice":3367,"iring":3368,"itt":3369,"Ġheav":3370,"Ġboard":3371,"Ġchall":3372,"ospital":3373,"Ġissued":3374,"ĠAtlantic":3375,"Ġ37":3376,"ging":3377,"vey":3378,"Ġsuffered":3379,"Ġreally":3380,"riage":3381,"Ġcountries":3382,"rate":3383,"ĠFort":3384,"ĠLake":3385,"ĠBig":3386,"urt":3387,"Ġcm":3388,"ĠSever":3389,"ĠCongress":3390,"ĠFranc":3391,"Ġincludes":3392,"Ġimmediately":3393,"ĠLove":3394,"ĠFlorida":3395,"ĠBoth":3396,"Ġmeth":3397,"Ġgoals":3398,"Ġattend":3399,"ĠJim":3400,"ĠJew":3401,"Ġcapital":3402,"hood":3403,"Ġprivate":3404,"Ġmixed":3405,"Ġmanager":3406,"Ġofficers":3407,"iant":3408,"Ġlikely":3409,"Ġcann":3410,"Ġbreed":3411,"ĠOld":3412,"Ġremoved":3413,"Ġmach":3414,"Ġplant":3415,"ien":3416,"ĠSea":3417,"venue":3418,"bury":3419,"hold":3420,"de":3421,"Ġdistrib":3422,"Ġceleb":3423,"ĠDist":3424,"Ġincrease":3425,"Ġsubsequently":3426,"ĠTexas":3427,"Ġinitial":3428,"ĠQueen":3429,"ĠChina":3430,"Ġmount":3431,"ĠTown":3432,"ĠPet":3433,"Ġhealth":3434,"ections":3435,"ria":3436,"Ġalways":3437,"Ġleave":3438,"Ġplans":3439,"Ġcompan":3440,"Ġstatus":3441,"order":3442,"Ġfocus":3443,"rial":3444,"ĠTor":3445,"Ġlocation":3446,"Ġvia":3447,"ĠAnother":3448,"ĠTrans":3449,"Ġservices":3450,"ĠLaw":3451,"Ġnetwork":3452,"Ġvisit":3453,"Ġcoin":3454,"ĠMr":3455,"ĠAnt":3456,"ams":3457,"ĠCamp":3458,"Ġmur":3459,"Ġproblems":3460,"iation":3461,"Ġoffered":3462,"Ġflag":3463,"Ġcolon":3464,"ĠHow":3465,"well":3466,"ĠLord":3467,"ĠEarth":3468,"Ġinstr":3469,"Ġterms":3470,"Ġapproach":3471,"aily":3472,"ĠOl":3473,"ously":3474,"etic":3475,"Ġnorm":3476,"ĠConst":3477,"Ġtons":3478,"ctor":3479,"Ġvillage":3480,"ounted":3481,"Ġmodel":3482,"Ġfell":3483,"Ġsomething":3484,"wer":3485,"ills":3486,"Ġadminist":3487,"ĠBoy":3488,"Ġtor":3489,"orning":3490,"ĠTur":3491,"Ġcounter":3492,"Ġmajority":3493,"Ġsch":3494,"ĠWood":3495,"ironment":3496,"Ġprofessional":3497,"Ġ183":3498,"ĠCanadian":3499,"burg":3500,"ĠIts":3501,"Ġinters":3502,"adium":3503,"ĠAfrica":3504,"ibr":3505,"Ġgot":3506,"ĠRail":3507,"Ġdamaged":3508,"Ġconsist":3509,"Ã³":3510,"aches":3511,"ĠMur":3512,"uries":3513,"Ġcause":3514,"Ġadop":3515,"Ġmeeting":3516,"Ġjob":3517,"Ġappears":3518,"Ġminute":3519,"ĠSquadron":3520,"ĠCenter":3521,"ĠGre":3522,"Ġranked":3523,"Ġlay":3524,"Ġindividual":3525,"olk":3526,"ĠRussian":3527,"ste":3528,"cean":3529,"Ġattacks":3530,"uf":3531,"Ġcomposed":3532,"oes":3533,"ify":3534,"ĠHighway":3535,"Ġ90":3536,"itect":3537,"ĠRad":3538,"Ġrevealed":3539,"Ġflight":3540,"Ġang":3541,"Ġplot":3542,"Ġdiscovered":3543,"reak":3544,"Ġraised":3545,"umed":3546,"ĠMel":3547,"lor":3548,"Ġfinanc":3549,"ĠKent":3550,"ĠCentral":3551,"Ġrespectively":3552,"Ġmakes":3553,"ĠCarol":3554,"pan":3555,"Ġassociated":3556,"ĠMartin":3557,"ĠSir":3558,"Ġ1995":3559,"Ġnumerous":3560,"Ġdomin":3561,"ĠIII":3562,"ault":3563,"Ġanc":3564,"ĠAngeles":3565,"Ġtakes":3566,"Ġaltern":3567,"gar":3568,"Ġneeded":3569,"Ġ34":3570,"Ġinspired":3571,"Ġlived":3572,"ĠBow":3573,"Ġcoach":3574,"Ġlaunched":3575,"oe":3576,"Ġyet":3577,"Ġamb":3578,"Ġgrand":3579,"ription":3580,"Ġattacked":3581,"Ġcand":3582,"Ġpow":3583,"Ġoccurred":3584,"Ġnature":3585,"Ġgra":3586,"Ġdig":3587,"Ġattempted":3588,"uments":3589,"Ġcontains":3590,"Ġveh":3591,"Ġshown":3592,"ĠDV":3593,"Ġbene":3594,"Ġhour":3595,"ĠMiss":3596,"Ġconditions":3597,"estival":3598,"down":3599,"Ġmoving":3600,"Ġupper":3601,"uals":3602,"ĠDes":3603,"imb":3604,"iest":3605,"Ġ38":3606,"ka":3607,"ken":3608,"ĠTV":3609,"ĠYear":3610,"ĠGroup":3611,"ective":3612,"Ġcollect":3613,"Ġsales":3614,"ĠTour":3615,"joy":3616,"orce":3617,"aught":3618,"ĠDel":3619,"urity":3620,"Ġ2016":3621,"Ġissues":3622,"Ġ1996":3623,"Ġyards":3624,"Ġ1950":3625,"Ġbirth":3626,"Ġexam":3627,"Ġslight":3628,"ĠRev":3629,"ĠEmpire":3630,"izing":3631,"Ġsal":3632,"Ġwhole":3633,"Ġcer":3634,"win":3635,"Ġi":3636,"Ġinformation":3637,"uing":3638,"Ġreferred":3639,"Ġfarm":3640,"Ġmom":3641,"oly":3642,"ĠOut":3643,"Ġbox":3644,"Ġcritical":3645,"vert":3646,"ĠUnder":3647,"Ġdefeat":3648,"Ġsen":3649,"Ġpit":3650,"Ġselected":3651,"Ġsmaller":3652,"Ġresulted":3653,"Ġnumbers":3654,"Ġfinally":3655,"reme":3656,"Ġbad":3657,"Ġincor":3658,"ĠPenn":3659,"Ġelected":3660,"ĠGar":3661,"Ġstay":3662,"Ġgrant":3663,"Ġqual":3664,"Ġscient":3665,"Ġactive":3666,"Ġsinger":3667,"onic":3668,"Ġprincip":3669,"ĠItalian":3670,"Ġsecret":3671,"kin":3672,"Ġmission":3673,"itation":3674,"uated":3675,"ĠJose":3676,"Ġ1994":3677,"Ġoperation":3678,"andon":3679,"Ġstandard":3680,"enant":3681,"Ġindustry":3682,"Ġens":3683,"Ġlargely":3684,"Ġassigned":3685,"Ġsem":3686,"Ġprec":3687,"Ġlink":3688,"use":3689,"ortun":3690,"Ġthr":3691,"oura":3692,"Ġlegisl":3693,"Ġsaf":3694,"Ġearned":3695,"Ġcommented":3696,"ĠCorps":3697,"Ġexpected":3698,"Ġmale":3699,"itude":3700,"iled":3701,"Ġaudience":3702,"ĠDVD":3703,"oud":3704,"Ġsuggest":3705,"ãĥ":3706,"Ġlisted":3707,"ĠArm":3708,"Ġroy":3709,"Ġcovered":3710,"ĠDis":3711,"Ġgre":3712,"ĠCrit":3713,"Ġunable":3714,"Ġpurp":3715,"irection":3716,"Ġsched":3717,"ĠMichigan":3718,"Ġtraditional":3719,"Ġheart":3720,"ĠCr":3721,"Ġtrade":3722,"Ġartist":3723,"Ġdouble":3724,"ĠViet":3725,"Ġrefused":3726,"Ġeducation":3727,"ya":3728,"Ġclosed":3729,"Ġnewsp":3730,"gr":3731,"Ġfriends":3732,"Ġaw":3733,"Ġrecover":3734,"Ġunderst":3735,"ounts":3736,"Ġprimary":3737,"agon":3738,"ĠPre":3739,"Ġattention":3740,"Ġmethod":3741,"hips":3742,"ogue":3743,"Ġtalk":3744,"ighter":3745,"tered":3746,"Ġbelow":3747,"Ġsister":3748,"Ġkind":3749,"Ġplat":3750,"ffic":3751,"ĠWales":3752,"Ġofficer":3753,"Ġcontem":3754,"Ġreason":3755,"Ġdepression":3756,"Ġ1940":3757,"Ġperformances":3758,"Ġability":3759,"Ġenjoy":3760,"ĠMass":3761,"oo":3762,"Ġmeant":3763,"Ġwalk":3764,"Ġdeclared":3765,"ĠNort":3766,"Ġfighting":3767,"Ġ49":3768,"Ġblood":3769,"ples":3770,"ĠMore":3771,"Ġgiving":3772,"Ġ180":3773,"Ġcommander":3774,"undred":3775,"Ġword":3776,"isher":3777,"Ġmiddle":3778,"Ġletter":3779,"Ġtheat":3780,"Ġcompl":3781,"Ġreligious":3782,"ĠCath":3783,"Ġmax":3784,"Ġhot":3785,"Ġsett":3786,"ĠCle":3787,"Ġbooks":3788,"ĠOx":3789,"Ġrate":3790,"ona":3791,"ĠArch":3792,"Ġmatches":3793,"ils":3794,"Ġnames":3795,"ĠStep":3796,"ĠCare":3797,"Ġrecords":3798,"ĠLong":3799,"ĠAcad":3800,"aped":3801,"ĠDemocr":3802,"Ġconstit":3803,"ĠBec":3804,"Ġunit":3805,"ĠFer":3806,"Ġproduce":3807,"Ġquestion":3808,"ĠTest":3809,"ĠZeal":3810,"ĠTeam":3811,"Ġcentre":3812,"ounded":3813,"Ġserious":3814,"Ġcompetition":3815,"Ġtouch":3816,"ux":3817,"ĠMajor":3818,"Ġri":3819,"utch":3820,"antasy":3821,"odies":3822,"ims":3823,"Ġdisapp":3824,"Ġvocals":3825,"ector":3826,"Ġabandon":3827,"Ġmention":3828,"osh":3829,"ĠMinister":3830,"ĠSeveral":3831,"Ġrapid":3832,"iences":3833,"Ġ41":3834,"Ġ1992":3835,"road":3836,"irt":3837,"quar":3838,"icted":3839,"ĠWal":3840,"Ġaccount":3841,"ĠCons":3842,"Ġdocument":3843,"Ġnecess":3844,"Ġkilomet":3845,"ares":3846,"Ġmor":3847,"Ġenergy":3848,"ervation":3849,"echan":3850,"Ġconstructed":3851,"ĠFore":3852,"ĠKenn":3853,"Ġdut":3854,"ening":3855,"oses":3856,"Ġtheme":3857,"ĠZealand":3858,"Ġris":3859,"rug":3860,"Ġstra":3861,"ĠFox":3862,"ishop":3863,"rier":3864,"ette":3865,"Ġcas":3866,"ĠSum":3867,"Ġhighly":3868,"Ġnearby":3869,"Ġpick":3870,"ĠTime":3871,"yr":3872,"Ġseparate":3873,"Ġroyal":3874,"Ġpositions":3875,"Ġprep":3876,"ails":3877,"Ġcontinue":3878,"ĠMexico":3879,"ĠEr":3880,"Ġdrum":3881,"Ġtur":3882,"ĠSar":3883,"Ġeffort":3884,"ĠSo":3885,"Ġcombat":3886,"vention":3887,"edic":3888,"Ġchief":3889,"ĠBu":3890,"ĠAfrican":3891,"Ġ400":3892,"ĠHaw":3893,"ĠMatt":3894,"Ġpresented":3895,"Ġannual":3896,"Ġreduced":3897,"ĠMa":3898,"ĠFour":3899,"Ġcontrovers":3900,"ether":3901,"oper":3902,"emorial":3903,"ibly":3904,"ieut":3905,"Ġdirectly":3906,"ĠChris":3907,"Ġ1930":3908,"Ġlevels":3909,"Ġcle":3910,"Ġ55":3911,"Ġmeans":3912,"Ġnotes":3913,"Ġneigh":3914,"cel":3915,"Ġsevent":3916,"Ġtried":3917,"Ġattended":3918,"Ġfast":3919,"Ġpractice":3920,"Ġhar":3921,"ĠWall":3922,"ita":3923,"Ġforest":3924,"ado":3925,"Ġcompos":3926,"shire":3927,"ĠBrad":3928,"Ġedition":3929,"ĠDar":3930,"vement":3931,"ĠMadonna":3932,"uit":3933,"Ġtrain":3934,"ĠBob":3935,"Ġnuc":3936,"acher":3937,"Ġmetal":3938,"ĠChart":3939,"Ġaccepted":3940,"arents":3941,"Ġtwenty":3942,"Ġstating":3943,"Ġ1993":3944,"ĠTre":3945,"osen":3946,"Ġ1991":3947,"Ġwatch":3948,"Ġarchitect":3949,"Ġmovie":3950,"Ġconcert":3951,"Ġtext":3952,"Ġadvance":3953,"isation":3954,"Ġrepe":3955,"rical":3956,"Ġcandid":3957,"ĠHel":3958,"Ġ179":3959,"Ġpair":3960,"track":3961,"Ġfr":3962,"stitute":3963,"ĠScotland":3964,"Ġportray":3965,"irmed":3966,"Ġdirection":3967,"ih":3968,"ĠJones":3969,"Ġseem":3970,"Ġdism":3971,"illery":3972,"eway":3973,"Ġschools":3974,"Ġlegal":3975,"house":3976,"ĠTheir":3977,"Äĩ":3978,"ersey":3979,"lict":3980,"ĠAnn":3981,"ĠInfantry":3982,"Ġthick":3983,"Ġreject":3984,"fall":3985,"ĠManc":3986,"icip":3987,"wide":3988,"ĠDepartment":3989,"inem":3990,"Ġasp":3991,"ani":3992,"ĠCross":3993,"aging":3994,"Ġhorse":3995,"Ġge":3996,"light":3997,"Ġpurs":3998,"Ġrecomm":3999,"Ġefforts":4000,"Ġ+":4001,"Ġcollege":4002,"awn":4003,"Ġmanaged":4004,"ĠDou":4005,"ĠGo":4006,"Ġmarriage":4007,"ĠGreek":4008,"Ġending":4009,"Ġ39":4010,"Ġresulting":4011,"like":4012,"icient":4013,"hy":4014,"utions":4015,"Ġresponsible":4016,"ieutenant":4017,"ĠThree":4018,"irit":4019,"Ġwing":4020,"MS":4021,"Ġshowed":4022,"ĠLit":4023,"band":4024,"Ġdropped":4025,"ĠPost":4026,"Ġinside":4027,"ĠMic":4028,"Ġdisplay":4029,"ĠBost":4030,"illed":4031,"Ġcyclone":4032,"Ġ182":4033,"Ġnation":4034,"ĠFoot":4035,"Ġenvironment":4036,"Ġcases":4037,"Ġkept":4038,"Ġ48":4039,"peror":4040,"ĠCreek":4041,"ĠLad":4042,"ĠLeg":4043,"Ġmorning":4044,"Ġculture":4045,"Ġrare":4046,"Ġcust":4047,"Ġmeaning":4048,"olf":4049,"Ġ42":4050,"Ġrat":4051,"Ġbegins":4052,"Ġdom":4053,"Ġincorpor":4054,"Ġvariety":4055,"ĠStone":4056,"Ġhouses":4057,"ceeded":4058,"Ġsubst":4059,"Ġchampionship":4060,"Ġforms":4061,"pe":4062,"rane":4063,"ĠService":4064,"pass":4065,"Ġarrest":4066,"Ġwords":4067,"Ġcerem":4068,"ĠHung":4069,"Ġschol":4070,"cend":4071,"Ġoil":4072,"Ġinches":4073,"ĠWilliams":4074,"Ġcontinues":4075,"Ġmarked":4076,"Ġyard":4077,"ĠRecords":4078,"Ġspl":4079,"ĠBC":4080,"ĠSecret":4081,"Ġ181":4082,"Åį":4083,"Ġperm":4084,"ini":4085,"ĠNews":4086,"ecting":4087,"ols":4088,"Ġsymb":4089,"gl":4090,"Ġscience":4091,"Ġbank":4092,"gypt":4093,"Ġuses":4094,"ĠSur":4095,"Ġeconomic":4096,"ĠStan":4097,"writ":4098,"ĠTro":4099,"ĠHal":4100,"cle":4101,"thel":4102,"Ġdefend":4103,"ĠParliament":4104,"Ġsource":4105,"bed":4106,"ĠGames":4107,"ĠFin":4108,"Ġmetres":4109,"ĠTri":4110,"Ġlear":4111,"ras":4112,"Ġhundred":4113,"ulations":4114,"Ġquality":4115,"Ġsettle":4116,"ĠPan":4117,"Ġ1942":4118,"ĠBook":4119,"Ġstarting":4120,"Ġconducted":4121,"wh":4122,"Ġimpact":4123,"thur":4124,"Ġallowing":4125,"Ġsides":4126,"Ġspecific":4127,"ĠEgypt":4128,"Ġstrugg":4129,"Ġbeat":4130,"Ġpresence":4131,"ĠSociety":4132,"ĠOh":4133,"ĠSol":4134,"Ġamount":4135,"een":4136,"ĠJer":4137,"Ġsuppl":4138,"sych":4139,"Ġchap":4140,"Ġexhib":4141,"Ġviewers":4142,"Ġdu":4143,"Ġdance":4144,"Ġcaptain":4145,"ingu":4146,"Ġple":4147,"ĠVer":4148,"Ġrule":4149,"Ġunivers":4150,"Ġtransferred":4151,"ĠLu":4152,"Ġdistinct":4153,"ĠSouthern":4154,"ĠPrince":4155,"Ġ65":4156,"Ġmultiple":4157,"ĠStephen":4158,"ĠLatin":4159,"ding":4160,"Ġpotential":4161,"ĠSat":4162,"ĠCommittee":4163,"ĠGeorg":4164,"Ġforeign":4165,"Ġcontrast":4166,"Ġ47":4167,"Ġenemy":4168,"ĠOxford":4169,"Ġpeaked":4170,"Ġtraffic":4171,"inet":4172,"ping":4173,"ĠSpec":4174,"arian":4175,"ĠJoseph":4176,"itiz":4177,"Ġyour":4178,"Ġbecomes":4179,"ĠSil":4180,"Ġthings":4181,"Ġmess":4182,"Ġowned":4183,"Ġfounded":4184,"Ġgreater":4185,"Ġportion":4186,"ĠAdmiral":4187,"ĠLike":4188,"Ġvocal":4189,"Ġencoun":4190,"Ġconcluded":4191,"ĠCamb":4192,"Ġrespond":4193,"ĠBoston":4194,"Ġattempts":4195,"iance":4196,"kn":4197,"Ġopt":4198,"anes":4199,"Ġrelatively":4200,"rong":4201,"ym":4202,"Ġfederal":4203,"ĠClass":4204,"very":4205,"ellig":4206,"ider":4207,"ĠManchester":4208,"Ġscoring":4209,"ĠChief":4210,"Ġproperty":4211,"Ġprimarily":4212,"Ġstories":4213,"Ġcastle":4214,"Ġdemonst":4215,"ĠTw":4216,"Ġfinancial":4217,"ĠHarrison":4218,"ressive":4219,"Ġactually":4220,"ĠCaptain":4221,"ĠJeff":4222,"ĠBecause":4223,"ĠTim":4224,"ĠForm":4225,"ograp":4226,"ĠBefore":4227,"Ġanimals":4228,"Ġlif":4229,"Ġtourn":4230,"ĠBattalion":4231,"ĠWin":4232,"ĠVietn":4233,"ĠHurricane":4234,"Ġobserved":4235,"ĠSwed":4236,"Ġcollection":4237,"Ġopportun":4238,"ĠBat":4239,"Ġ46":4240,"ĠCommission":4241,"fect":4242,"ĠDen":4243,"Ġ52":4244,"istics":4245,"Ġtitled":4246,"Ġfeaturing":4247,"Ġweaken":4248,"Ġstrength":4249,"Ġ1944":4250,"ĠDef":4251,"ĠBridge":4252,"Ġwriters":4253,"Ġwa":4254,"Ġinch":4255,"eds":4256,"Ġwrite":4257,"Ġjournal":4258,"Ġsituation":4259,"ĠFred":4260,"umber":4261,"ees":4262,"Ġwor":4263,"Ġmechan":4264,"Ġpaid":4265,"Ġspot":4266,"Ġfigure":4267,"Ġdistance":4268,"Ġcompanies":4269,"stein":4270,"Ġparents":4271,"Ġ64":4272,"Ġpremi":4273,"ĠOtt":4274,"perial":4275,"ĠLittle":4276,"mas":4277,"rel":4278,"Ġindependent":4279,"Ġmel":4280,"Ġonto":4281,"Ġdivided":4282,"Ġacting":4283,"Ġ43":4284,"Ġactor":4285,"Ġshare":4286,"Ġmind":4287,"Ġslightly":4288,"aud":4289,"ĠProdu":4290,"ĠParis":4291,"astic":4292,"ĠLuc":4293,"ĠGra":4294,"ĠColumb":4295,"ĠCarl":4296,"ĠSeries":4297,"Ġcollabor":4298,"ĠLife":4299,"Ġtarget":4300,"lam":4301,"Ġpiece":4302,"Ġtorped":4303,"ĠMod":4304,"Ġpowerful":4305,"Ġ44":4306,"Ġfunction":4307,"Ġreform":4308,"anna":4309,"Ġinnings":4310,"Ġconcent":4311,"Ġselling":4312,"ĠEntertain":4313,"oration":4314,"thlet":4315,"Ġera":4316,"Ġrough":4317,"Ġrating":4318,"Ġbroke":4319,"osaur":4320,"ĠBBC":4321,"chest":4322,"ĠMax":4323,"ĠPop":4324,"mond":4325,"istry":4326,"ĠOs":4327,"Ġtoday":4328,"Ġplays":4329,"ricket":4330,"ĠHistor":4331,"uge":4332,"Ġultimately":4333,"Ġlot":4334,"Ġwaters":4335,"Ġtrial":4336,"Ġactions":4337,"Ġcho":4338,"annel":4339,"ĠCroat":4340,"Ġsquare":4341,"Ġmaximum":4342,"rown":4343,"illa":4344,"ero":4345,"ada":4346,"Ġtend":4347,"itan":4348,"load":4349,"Ġinterp":4350,"Ġdise":4351,"Ġcompletely":4352,"Ġbound":4353,"Ġsought":4354,"Ġlog":4355,"ĠAcademy":4356,"Ġpilot":4357,"Ġ1920":4358,"Ġgar":4359,"Ġblue":4360,"under":4361,"rupt":4362,"Ġess":4363,"ĠMuseum":4364,"oti":4365,"Ġ1945":4366,"mark":4367,"Ġscale":4368,"ĠHor":4369,"Ġ1941":4370,"Ġdesignated":4371,"Ġsociety":4372,"alle":4373,"Ġmainly":4374,"ĠLine":4375,"Ġstruck":4376,"Ġ150":4377,"Ġhus":4378,"ota":4379,"Ġbehav":4380,"ĠSk":4381,"Ġconver":4382,"Ġcombined":4383,"Ġofficials":4384,"ĠSaint":4385,"Ġnortheast":4386,"za":4387,"Ġactivity":4388,"Ġpolicy":4389,"Ġvess":4390,"Ġinfluenced":4391,"Ġtransl":4392,"omy":4393,"ĠVan":4394,"ylvan":4395,"cers":4396,"olved":4397,"Ġsearch":4398,"Ġsay":4399,"ented":4400,"ĠWay":4401,"Ġwear":4402,"Ġalongside":4403,"Ġsout":4404,"ĠBrigade":4405,"Ġcorn":4406,"AS":4407,"ĠItaly":4408,"ĠEntertainment":4409,"Ġcalling":4410,"racted":4411,"Ġbatter":4412,"iano":4413,"Ġthous":4414,"Ġseconds":4415,"ĠArab":4416,"while":4417,"ĠAmericans":4418,"ĠConf":4419,"ĠWind":4420,"Ġseg":4421,"Ġsources":4422,"Ġnaval":4423,"ĠLee":4424,"ĠIre":4425,"orses":4426,"Ġbackground":4427,"Ġwinter":4428,"ĠRegiment":4429,"Ġcrow":4430,"Ġice":4431,"ala":4432,"Ġplatform":4433,"Ġnews":4434,"Ġthir":4435,"rative":4436,"Ġwebs":4437,"ĠTod":4438,"phy":4439,"quarters":4440,"udd":4441,"Ġsuc":4442,"Ġrecent":4443,"Ġmem":4444,"aine":4445,"Ġgained":4446,"Ġnominated":4447,"TV":4448,"Ġtheory":4449,"ĠAlb":4450,"Ġartists":4451,"onn":4452,"ĠAvenue":4453,"Ġpromoted":4454,"Ġwidely":4455,"ube":4456,"adel":4457,"Ġconfirmed":4458,"ĠIreland":4459,"HL":4460,"Ġsystems":4461,"Ġpassing":4462,"Ġelectric":4463,"Ġreaching":4464,"Ġproved":4465,"ibrary":4466,"Ġinvasion":4467,"ĠFleet":4468,"Ġresults":4469,"pson":4470,"Ġconflict":4471,"ĠEll":4472,"Ġgreatest":4473,"Ġsubsequent":4474,"ĠGood":4475,"Ġexplained":4476,"Ġalbums":4477,"Ġiron":4478,"Ġcoming":4479,"Ġpeace":4480,"Ġnorthwest":4481,"oured":4482,"town":4483,"Ġir":4484,"Ġcontent":4485,"ĠAut":4486,"hew":4487,"Ġsn":4488,"Ġsixth":4489,"Ġresist":4490,"Ġ1989":4491,"ĠRay":4492,"Ġwick":4493,"Ġcharge":4494,"grad":4495,"Ġcounty":4496,"AF":4497,"Ġhero":4498,"Ġ1943":4499,"Ġweather":4500,"Ġshortly":4501,"ĠOrig":4502,"Ġsust":4503,"Ġsays":4504,"Ġadj":4505,"aga":4506,"ĠBus":4507,"ĠSub":4508,"Ġcausing":4509,"ĠVictoria":4510,"Ġserve":4511,"Ġversions":4512,"Ġ51":4513,"Ġpath":4514,"ĠSant":4515,"ĠLo":4516,"itness":4517,"aling":4518,"ĠTropical":4519,"Ġexpressed":4520,"Ġborder":4521,"Ġseek":4522,"Ġburn":4523,"Ġreception":4524,"ĠCharl":4525,"Ġresidents":4526,"iced":4527,"bon":4528,"ĠCatholic":4529,"ĠWork":4530,"Ġemot":4531,"Ġcities":4532,"ĠNorm":4533,"Ġchem":4534,"ĠAdd":4535,"Ġsoundtrack":4536,"ansion":4537,"ĠValley":4538,"Ġseasons":4539,"ĠNin":4540,"ĠMat":4541,"ips":4542,"infall":4543,"Ġsense":4544,"ĠLight":4545,"Ġgreen":4546,"Ġhospital":4547,"Ġappearances":4548,"Ġsexual":4549,"ategory":4550,"tation":4551,"Ġartillery":4552,"ĠDi":4553,"Ġpun":4554,"ĠMiddle":4555,"unction":4556,"Ġidentified":4557,"Ġrequire":4558,"ighth":4559,"Ġhands":4560,"Ġphysical":4561,"Ġolder":4562,"ĠThough":4563,"ĠLive":4564,"arden":4565,"Ġdedic":4566,"Ġtells":4567,"Ġtrue":4568,"Ġoffer":4569,"Ġpal":4570,"ĠRam":4571,"ĠDun":4572,"ĠCommun":4573,"ysis":4574,"Ġkg":4575,"ĠLiber":4576,"ĠThrough":4577,"ĠShow":4578,"Ġweapons":4579,"ĠRy":4580,"Ġrepresented":4581,"ancy":4582,"Ġahead":4583,"Ġgas":4584,"Ġextra":4585,"ĠMen":4586,"ĠFootball":4587,"aded":4588,"ĠTop":4589,"ĠYoung":4590,"ĠVol":4591,"eption":4592,"Ġheavily":4593,"Ġimage":4594,"ylvania":4595,"ĠJul":4596,"ronic":4597,"ĠKar":4598,"Ġeas":4599,"ĠTay":4600,"Ġdefense":4601,"ĠDirect":4602,"lers":4603,"itable":4604,"Ġchallen":4605,"Ġsupp":4606,"ĠUpon":4607,"Ġavoid":4608,"Ġagg":4609,"ĠBey":4610,"Ġapparent":4611,"abeth":4612,"ĠDutch":4613,"ĠWeek":4614,"Ġalone":4615,"Ġstudent":4616,"Ġspread":4617,"Ġstudies":4618,"known":4619,"Ġofficially":4620,"Ġdistrict":4621,"ĠIll":4622,"Ġhusband":4623,"Ġbit":4624,"Ġexecutive":4625,"ĠEliz":4626,"Ġprominent":4627,"ĠFre":4628,"Ġinstit":4629,"Ġconsisted":4630,"Ġorganization":4631,"Ġstone":4632,"essions":4633,"Ġcapture":4634,"Ġdebuted":4635,"ĠAlbert":4636,"Ġsend":4637,"Ġinjury":4638,"Ġfired":4639,"ĠBond":4640,"bur":4641,"Ġwild":4642,"ports":4643,"Ġpattern":4644,"Ġequipment":4645,"Ġpoet":4646,"Ġpack":4647,"Ġprepar":4648,"Ġresc":4649,"Ġinstrument":4650,"ĠFar":4651,"ĠRog":4652,"Ġfigures":4653,"ĠCivil":4654,"ĠBre":4655,"Ġsurpris":4656,"Ġexped":4657,"ĠDam":4658,"urban":4659,"ushed":4660,"Ġargued":4661,"Ġox":4662,"Ġaired":4663,"pool":4664,"Ġeth":4665,"Ġring":4666,"Ġpict":4667,"Ġcontemporary":4668,"Ġgrowth":4669,"Ġcouple":4670,"Ġdoing":4671,"acity":4672,"Ġreturning":4673,"Ġhun":4674,"Ġgraph":4675,"Ġfloor":4676,"rog":4677,"ĠHomer":4678,"Ġbud":4679,"Ġmagn":4680,"Ġcert":4681,"Ġpan":4682,"Ġweight":4683,"Ġlaid":4684,"Ġstep":4685,"lines":4686,"ĠStorm":4687,"ĠNorthern":4688,"Ġearth":4689,"Ġdoub":4690,"Ġpieces":4691,"Ġmatter":4692,"Ġ600":4693,"Ġleaders":4694,"Ġaffected":4695,"Ġshell":4696,"Ġtun":4697,"Ġhabit":4698,"ĠGal":4699,"appen":4700,"ĠTem":4701,"Ġrang":4702,"Ġmaintained":4703,"amber":4704,"Ġhere":4705,"inson":4706,"ias":4707,"Ġcommunic":4708,"Ġmaintain":4709,"Ġtermin":4710,"ĠHard":4711,"ifying":4712,"Ġpropos":4713,"Ġoccasion":4714,"Ġvisited":4715,"emic":4716,"Ġhyd":4717,"Ġspeech":4718,"ĠDaniel":4719,"Ġcomes":4720,"Ġrain":4721,"Ġcriticized":4722,"ental":4723,"Ġactivities":4724,"stone":4725,"ola":4726,"ĠHa":4727,"rat":4728,"Ġexec":4729,"acement":4730,"ĠCarolina":4731,"Ġtoward":4732,"Ġreign":4733,"ĠJon":4734,"Ġattract":4735,"Ġemph":4736,"ockey":4737,"Ġtournament":4738,"Ġcrowd":4739,"Ġhall":4740,"ocked":4741,"ĠOperation":4742,"uls":4743,"Ġcitiz":4744,"eed":4745,"orne":4746,"Ġsenior":4747,"Ġtrees":4748,"Ġsetting":4749,"Ġsingles":4750,"Ġreference":4751,"Ġdrug":4752,"Ġformation":4753,"Ġ53":4754,"elve":4755,"Ġadapt":4756,"Ġ1987":4757,"Ġmedical":4758,"ivity":4759,"Ġsurre":4760,"Ġmurder":4761,"ĠMarsh":4762,"ĠSystem":4763,"ners":4764,"ĠScottish":4765,"uct":4766,"Ġworldwide":4767,"ĠGovernment":4768,"Ġbul":4769,"ĠRom":4770,"Ġtrying":4771,"Ġ1988":4772,"ĠHolly":4773,"ĠDistrict":4774,"Ġterritory":4775,"ĠField":4776,"estic":4777,"ruit":4778,"Ġappl":4779,"Ġnegoti":4780,"ĠOcean":4781,"Ġstations":4782,"ĠWrit":4783,"Ġmachine":4784,"embly":4785,"ĠBackground":4786,"Ġdog":4787,"Ġrainfall":4788,"Ġload":4789,"Ġclaims":4790,"Ġdispl":4791,"ĠGovernor":4792,"Ġfellow":4793,"eller":4794,"Ġdoll":4795,"ĠHome":4796,"ĠColon":4797,"Ġgod":4798,"Ġ85":4799,"Ġbirds":4800,"ĠFantasy":4801,"ĠDev":4802,"gian":4803,"ĠRod":4804,"Ġhistorian":4805,"ĠGuard":4806,"Ġfully":4807,"ĠChe":4808,"resh":4809,"Ġaccident":4810,"Ġcell":4811,"uled":4812,"ĠPenns":4813,"Ġrisk":4814,"ote":4815,"Ġvalue":4816,"omers":4817,"Ġtherefore":4818,"Ġsplit":4819,"bit":4820,"Ġchosen":4821,"Ġsupply":4822,"Ġguest":4823,"Ġtreatment":4824,"rael":4825,"ĠShort":4826,"ĠDuke":4827,"velopment":4828,"Ġuniversity":4829,"Ġgovernor":4830,"ĠSenate":4831,"Ġsens":4832,"ampion":4833,"ĠBeat":4834,"Ġdyn":4835,"Ġtwice":4836,"Ġfrequently":4837,"Ġreports":4838,"Ġut":4839,"ayer":4840,"ordin":4841,"ĠLew":4842,"Ġleaves":4843,"stitution":4844,"gu":4845,"Ġremark":4846,"agn":4847,"ĠStudios":4848,"Ġfaced":4849,"ĠGirl":4850,"ĠPolish":4851,"Ġpaper":4852,"aly":4853,"illy":4854,"izes":4855,"ledge":4856,"ĠEastern":4857,"Ġwalls":4858,"Ġoperated":4859,"Ġlabel":4860,"ĠCorn":4861,"ĠMD":4862,"Ġwounded":4863,"Ġbillion":4864,"Ġfollows":4865,"Ġopin":4866,"ĠMean":4867,"Ġsurrounding":4868,"azz":4869,"Ġgrew":4870,"ĠBart":4871,"antly":4872,"ufact":4873,"Ġplanet":4874,"ĠAndrew":4875,"ĠRos":4876,"Ġswe":4877,"min":4878,"rect":4879,"Ġcontained":4880,"ĠChristmas":4881,"ĠAllied":4882,"orter":4883,"Ġcondition":4884,"Ġmanufact":4885,"onents":4886,"resp":4887,"antine":4888,"Ġdegree":4889,"rance":4890,"Ġbal":4891,"gend":4892,"Ġherself":4893,"isco":4894,"ĠJud":4895,"ĠNight":4896,"Ġaccompan":4897,"Ġcolor":4898,"Ġhorses":4899,"Ġsle":4900,"Ġpasses":4901,"Ġ54":4902,"tar":4903,"ety":4904,"Ġescape":4905,"Ġtypically":4906,"Ġunf":4907,"Ġreinf":4908,"mit":4909,"Ġfuel":4910,"Ġmaster":4911,"isters":4912,"Ġsimply":4913,"ĠWilson":4914,"Ġbrown":4915,"ĠTaylor":4916,"fully":4917,"utation":4918,"Ġelement":4919,"ĠInst":4920,"Ã¨":4921,"Ġorders":4922,"Ġdraft":4923,"Ġlives":4924,"Ġrailway":4925,"Ġdang":4926,"ĠPen":4927,"Ġ1986":4928,"Ġcasual":4929,"aming":4930,"Ġeditor":4931,"la":4932,"ĠHead":4933,"Ġarms":4934,"more":4935,"Ġserving":4936,"Ġcamer":4937,"uous":4938,"Ġphil":4939,"Ġconsecutive":4940,"Ġ95":4941,"Ġ97":4942,"Ġmoment":4943,"ĠElizabeth":4944,"Ġfan":4945,"Ġchose":4946,"ĠHum":4947,"Ġnothing":4948,"Ġauthority":4949,"ographer":4950,"ĠJoe":4951,"ĠAlexander":4952,"Ġcannot":4953,"Ġvote":4954,"ĠEach":4955,"Ġ56":4956,"ricult":4957,"Ġworkers":4958,"ĠOf":4959,"Ġunknown":4960,"Ġnewly":4961,"Ġnative":4962,"ĠMike":4963,"Ġopposed":4964,"ĠGi":4965,"ucky":4966,"Ġparticipated":4967,"Ġemphas":4968,"isf":4969,"ĠJac":4970,"ĠLes":4971,"ancing":4972,"Ġexperiment":4973,"Ġgrowing":4974,"rich":4975,"ĠWW":4976,"ĠÎ":4977,"ĠPers":4978,"ager":4979,"Ġattrib":4980,"Ġpsych":4981,"Ġbass":4982,"Ġwebsite":4983,"ef":4984,"ĠDet":4985,"Ġlosing":4986,"Ġnewspaper":4987,"ãĤ":4988,"Ġfair":4989,"ype":4990,"Ġproducers":4991,"Ġadopted":4992,"ĠLand":4993,"Ġadvanced":4994,"Ġbenef":4995,"ilies":4996,"Ġfilming":4997,"ĠExp":4998,"Ġoffensive":4999,"ĠCastle":5000,"Ġheard":5001,"Ã¤":5002,"imens":5003,"ĠFestival":5004,"then":5005,"Ġsevere":5006,"ĠSound":5007,"ĠRet":5008,"Ġguard":5009,"Ġspirit":5010,"ĠIslands":5011,"ĠPennsylvania":5012,"ĠWat":5013,"Ġopposition":5014,"Ġsquadron":5015,"Ġfeed":5016,"ĠWhat":5017,"Ġfirm":5018,"Ġsequence":5019,"Ġextend":5020,"pton":5021,"Ġactors":5022,"ĠHy":5023,"Ġfiction":5024,"Ġrear":5025,"Ġbasis":5026,"Ġcapacity":5027,"Ġcouncil":5028,"Ġrom":5029,"orship":5030,"ĠCard":5031,"Ġweak":5032,"TC":5033,"Ġends":5034,"Ġadvant":5035,"Ġabandoned":5036,"ĠGall":5037,"Ġ177":5038,"Ġprin":5039,"ĠFurther":5040,"anda":5041,"ĠReception":5042,"zy":5043,"uses":5044,"Ġast":5045,"Ġcompar":5046,"isers":5047,"ura":5048,"ĠIrish":5049,"aven":5050,"ĠBlue":5051,"Ġrival":5052,"Ġevac":5053,"Ġprompt":5054,"iated":5055,"Ġhonor":5056,"ables":5057,"ĠSS":5058,"ĠTech":5059,"Ġflying":5060,"Ġenter":5061,"Ġelev":5062,"ĠFam":5063,"Ġkick":5064,"ĠBab":5065,"lement":5066,"ĠSpain":5067,"ĠHarry":5068,"Ġcoal":5069,"Ġbey":5070,"Ġcreating":5071,"Ġdeploy":5072,"ocated":5073,"Ġfilmed":5074,"Ġlaunch":5075,"ĠJersey":5076,"Ġhomes":5077,"BA":5078,"Ġpoll":5079,"Ġhappen":5080,"Ġregarded":5081,"Ġeye":5082,"Ġnormal":5083,"Ġincident":5084,"onc":5085,"ĠCat":5086,"Ġexpansion":5087,"Ġindividuals":5088,"Ġ76":5089,"Ġ178":5090,"Ġcriticism":5091,"Ġagreement":5092,"Ġbeyond":5093,"ounger":5094,"Ġsail":5095,"ĠUs":5096,"eld":5097,"Ġsports":5098,"Ġspect":5099,"Ġdelay":5100,"ĠSquare":5101,"ĠCa":5102,"iner":5103,"Ġspring":5104,"Ġfailure":5105,"ĠCoast":5106,"apers":5107,"Ġchair":5108,"Ġliber":5109,"ĠAre":5110,"FA":5111,"Ġstrike":5112,"Ġdismiss":5113,"Ġfamous":5114,"ĠBul":5115,"Ġinte":5116,"Ġboat":5117,"ima":5118,"ĠLind":5119,"Ġvo":5120,"ĠUl":5121,"imet":5122,"ĠFe":5123,"Ġmeasure":5124,"Ġpossibly":5125,"Ġ1939":5126,"ĠSand":5127,"Ġhistorical":5128,"Ġbodies":5129,"Ġmob":5130,"Ġprogress":5131,"Ġnegative":5132,"ĠCD":5133,"Ġcontact":5134,"ĠPublic":5135,"Ġachieved":5136,"ifications":5137,"Ġroles":5138,"ĠBroad":5139,"Ġkilling":5140,"Ġbelieve":5141,"Ġnarrow":5142,"Ġsilver":5143,"ĠEnd":5144,"ĠWild":5145,"ĠProduction":5146,"iny":5147,"ico":5148,"ĠElect":5149,"ĠCy":5150,"Ġretired":5151,"ĠMul":5152,"ĠIsrael":5153,"ienced":5154,"Ġideas":5155,"Ġur":5156,"ĠVen":5157,"onent":5158,"Ġtorpedo":5159,"ĠLy":5160,"ĠInstitute":5161,"Ġdrive":5162,"Ġpet":5163,"Ġimag":5164,"mosp":5165,"Ġpersonnel":5166,"iana":5167,"Ġtask":5168,"Ġ61":5169,"Ġdisease":5170,"Ġ1985":5171,"Ġbriefly":5172,"ĠDoctor":5173,"ĠDue":5174,"hol":5175,"Ġarmed":5176,"war":5177,"ĠArthur":5178,"Ġdiam":5179,"Ġ1968":5180,"Ġ66":5181,"ĠRevolution":5182,"Ġtower":5183,"imal":5184,"Ġarrang":5185,"edom":5186,"Ġeffective":5187,"Ġnecessary":5188,"Ġroads":5189,"kins":5190,"ĠMeanwhile":5191,"Ġkilometres":5192,"Ġperman":5193,"ocks":5194,"Ġapplic":5195,"ĠLiver":5196,"Ġgranted":5197,"Ġrepeated":5198,"Ġinfantry":5199,"Ġtree":5200,"ĠTy":5201,"ĠAsh":5202,"ĠCub":5203,"ĠRepublican":5204,"ĠSund":5205,"Ġbudget":5206,"Ġreceive":5207,"Ġadministration":5208,"Ġcolumn":5209,"ĠMir":5210,"Ġrejected":5211,"Ġinh":5212,"kes":5213,"ĠPerson":5214,"Ġinterchange":5215,"Ġtwelve":5216,"Ġtable":5217,"Ġgross":5218,"enger":5219,"ĠAlbum":5220,"Ġimproved":5221,"Ġleadership":5222,"ĠClark":5223,"Ġturns":5224,"iments":5225,"avalry":5226,"Ġextensive":5227,"Ġstraight":5228,"ĠOhio":5229,"worth":5230,"Ġlanding":5231,"Ġyellow":5232,"Ġparalle":5233,"ourney":5234,"aved":5235,"Ġlands":5236,"Ġdata":5237,"Ġcrossing":5238,"Ġseat":5239,"Ġmanagement":5240,"Ġplants":5241,"Ġpurpose":5242,"och":5243,"zil":5244,"Ġexpress":5245,"Ġbroken":5246,"ĠBoard":5247,"Ġchoice":5248,"Ġmile":5249,"Ġdescribes":5250,"Ġexpanded":5251,"iÄĩ":5252,"Ġsuccessfully":5253,"gers":5254,"Ġdefin":5255,"ĠBell":5256,"lusion":5257,"oln":5258,"Ġintellig":5259,"Ġsolo":5260,"set":5261,"etball":5262,"Ġfranch":5263,"Ġtru":5264,"ĠSecretary":5265,"Ġfought":5266,"oma":5267,"Ġdeliver":5268,"Ġexplos":5269,"adelph":5270,"Ġlearn":5271,"Ġ1984":5272,"uate":5273,"ĠEp":5274,"Ġorganized":5275,"Ġdidn":5276,"Ġcaught":5277,"Ġanimal":5278,"ĠProt":5279,"ĠBurn":5280,"ĠSa":5281,"ĠHit":5282,"Ġ800":5283,"Ġchor":5284,"Ġroof":5285,"ĠPhiladelph":5286,"Ġexcl":5287,"Ġvehicles":5288,"Ġancient":5289,"ĠBru":5290,"Ġsuggests":5291,"erc":5292,"Ġcommissioned":5293,"ĠEven":5294,"ev":5295,"Ġplaces":5296,"haps":5297,"rif":5298,"ĠIS":5299,"stream":5300,"Ġacquired":5301,"ĠMov":5302,"Ġglob":5303,"Ġcommittee":5304,"Ġdrama":5305,"ĠNever":5306,"Ġ57":5307,"ĠGeorgia":5308,"Ġunsu":5309,"ĠCambridge":5310,"ĠSher":5311,"Ġcomedy":5312,"Ġcreation":5313,"Ġtypes":5314,"Ġarticle":5315,"Ġgives":5316,"ĠLar":5317,"appy":5318,"ms":5319,"Ġseventh":5320,"Ġfat":5321,"Ġ120":5322,"ĠPhiladelphia":5323,"Ġwave":5324,"Ġprefer":5325,"Ġsoft":5326,"akers":5327,"zer":5328,"etts":5329,"Ġheadquarters":5330,"aith":5331,"ii":5332,"Ġnuclear":5333,"ĠAlso":5334,"Ġauthorities":5335,"Ġgenus":5336,"Ġcontain":5337,"ĠCommon":5338,"ĠRel":5339,"Ġsecurity":5340,"restling":5341,"Ġdetermined":5342,"ĠSR":5343,"Ġ1967":5344,"Ġroll":5345,"Ġtrav":5346,"Ġbott":5347,"Ġislands":5348,"Ġcenturies":5349,"ĠAddition":5350,"uan":5351,"Ġbeaut":5352,"Ġcommonly":5353,"rin":5354,"Ġmentioned":5355,"ns":5356,"ĠRussia":5357,"Ġrecently":5358,"attle":5359,"Ġstreet":5360,"oted":5361,"Ġlooking":5362,"ĠWars":5363,"ipl":5364,"Ġcontrolled":5365,"Ġfavour":5366,"ĠMah":5367,"umes":5368,"Ġ62":5369,"amin":5370,"Ġencoura":5371,"ĠAmong":5372,"ĠGil":5373,"oles":5374,"Ġfamilies":5375,"Ġbattalion":5376,"Ġaim":5377,"ĠKorean":5378,"Ġhousehold":5379,"ĠArg":5380,"Ġacad":5381,"Ġsand":5382,"arts":5383,"Ġfinds":5384,"outs":5385,"Ġwithdraw":5386,"Ġadvert":5387,"Ġdecre":5388,"Ġsets":5389,"ishes":5390,"ĠNintend":5391,"uting":5392,"Ġsuppor":5393,"Ġdrop":5394,"Ġstanding":5395,"Ġillust":5396,"ĠLiverpool":5397,"gn":5398,"Ġla":5399,"va":5400,"Ġunp":5401,"ĠHay":5402,"ĠLinc":5403,"ĠNintendo":5404,"ĠJenn":5405,"Ġreflect":5406,"ĠChap":5407,"Ġsinging":5408,"Ġdeck":5409,"Ġfish":5410,"Ġven":5411,"ĠKa":5412,"Ġsac":5413,"Ġdial":5414,"ĠBad":5415,"ĠPrime":5416,"ĠEarl":5417,"itled":5418,"ĠColumbia":5419,"Ġunique":5420,"ĠAsia":5421,"Ġheight":5422,"Ġprotect":5423,"Ġentirely":5424,"Ġtouchdown":5425,"Ġcontaining":5426,"Ġcultural":5427,"Ġdefence":5428,"Ġfinish":5429,"Ġtry":5430,"water":5431,"Ġcontributed":5432,"Ġorchest":5433,"ĠSingap":5434,"oh":5435,"Ġthemes":5436,"Ġmist":5437,"ĠDevelopment":5438,"ĠLieutenant":5439,"ĠJewish":5440,"ĠLincoln":5441,"illing":5442,"Ġprovides":5443,"Ġyounger":5444,"Ġ58":5445,"Ġflooding":5446,"Ġ1983":5447,"pping":5448,"ĠBrazil":5449,"Ġpurchased":5450,"Ġ74":5451,"room":5452,"Ġdefensive":5453,"Ġmis":5454,"ĠChild":5455,"Ġawards":5456,"Ġatmosp":5457,"Ġconvers":5458,"Ġarrival":5459,"Ġtitles":5460,"Ġscheduled":5461,"inity":5462,"ĠHun":5463,"ulate":5464,"Ġpowers":5465,"ĠCarey":5466,"ĠOffice":5467,"icial":5468,"Ġresemb":5469,"Ġ1969":5470,"ĠFrancisco":5471,"Ġthing":5472,"ĠSingapore":5473,"respond":5474,"Ġaccompanied":5475,"ĠSix":5476,"Ġunus":5477,"rons":5478,"ĠPeople":5479,"Ġintensity":5480,"Ġ1964":5481,"ĠRol":5482,"Ġexpedition":5483,"Ġperfect":5484,"Ġexisting":5485,"agan":5486,"wall":5487,"ĠPot":5488,"Ġquite":5489,"wick":5490,"Ġadvantage":5491,"Ġworth":5492,"Ġ72":5493,"Ġlocations":5494,"ĠHon":5495,"atures":5496,"Ġinteract":5497,"Ġceremony":5498,"Ġdedicated":5499,"Ġperforming":5500,"Ġrequest":5501,"Ġbat":5502,"acted":5503,"ĠDark":5504,"Ġphilos":5505,"Ġsquad":5506,"Ġextrem":5507,"Ġcomputer":5508,"ĠBor":5509,"ker":5510,"ĠTam":5511,"Ġ1914":5512,"ĠTurn":5513,"ĠLis":5514,"Ġoccupied":5515,"Ġstore":5516,"ĠKey":5517,"ĠHMS":5518,"ĠDisney":5519,"Ġty":5520,"laim":5521,"Ġfresh":5522,"Ġwhy":5523,"ĠâĪ":5524,"dy":5525,"Ġmounted":5526,"Ġcarry":5527,"Ġ1918":5528,"Station":5529,"iling":5530,"Ġboats":5531,"Ġmouth":5532,"ashion":5533,"ĠOrder":5534,"Ġ1971":5535,"ĠPlayStation":5536,"ta":5537,"Ġ1982":5538,"Ġnob":5539,"Ġcurrently":5540,"Ġfix":5541,"usc":5542,"ĠKel":5543,"yles":5544,"ĠMot":5545,"Ġclosely":5546,"ĠDie":5547,"rations":5548,"Ġconsists":5549,"ĠBalt":5550,"fort":5551,"Ġtim":5552,"ĠAnderson":5553,"Ġtail":5554,"Ġ1972":5555,"Ġ1966":5556,"ĠConference":5557,"Ġ1979":5558,"ĠLewis":5559,"Ġ59":5560,"ĠSteve":5561,"mann":5562,"Ġsession":5563,"Ġmic":5564,"Ġlic":5565,"ĠBrook":5566,"ĠMiller":5567,"pper":5568,"Ġcricket":5569,"hens":5570,"Ġindustrial":5571,"ava":5572,"ĠBas":5573,"Ġsimple":5574,"ĠRadio":5575,"Ġvari":5576,"Ġegg":5577,"Ġelimin":5578,"Ġsteam":5579,"Ġcold":5580,"Ġfacilities":5581,"ĠByz":5582,"Ġsupporting":5583,"mouth":5584,"Ġprotection":5585,"ĠOnce":5586,"Ġdrawn":5587,"Ġpiano":5588,"ilton":5589,"ĠSu":5590,"Ġrow":5591,"ĠGrant":5592,"Ġbelong":5593,"ĠOlympic":5594,"Ġrise":5595,"ĠConn":5596,"Ġrated":5597,"Ġdefined":5598,"Ġsubmar":5599,"ware":5600,"ĠPu":5601,"Ġtrains":5602,"Ġselection":5603,"ĠShak":5604,"ĠEmperor":5605,"Ġpros":5606,"ĠBrian":5607,"Ġregions":5608,"Ġ1965":5609,"Ġstructures":5610,"awa":5611,"Ġaid":5612,"Ġprotected":5613,"ĠBarb":5614,"otic":5615,"Ġharm":5616,"Ġcalls":5617,"iro":5618,"Ġfocused":5619,"Ġthrow":5620,"Ġ#":5621,"Ġhair":5622,"ĠRailway":5623,"gest":5624,"Ġmotion":5625,"Ġreceiving":5626,"Ġengaged":5627,"Ġshooting":5628,"Ġcomic":5629,"verse":5630,"ĠPress":5631,"ba":5632,"Ġlabor":5633,"ĠNHL":5634,"Ġadap":5635,"Ġopportunity":5636,"Ġlap":5637,"Ġ1975":5638,"ingly":5639,"ĠGib":5640,"Ġcorrespond":5641,"Ġ99":5642,"ĠMu":5643,"iration":5644,"ĠGulf":5645,"Ġanalysis":5646,"Ġstrengthen":5647,"Ġshark":5648,"Ġmotor":5649,"ua":5650,"osa":5651,"Ġsport":5652,"ĠSummer":5653,"Ġnotable":5654,"uzz":5655,"Ġcitizens":5656,"Ġobserv":5657,"Ġexperienced":5658,"Ġmountain":5659,"Ġconference":5660,"ĠJr":5661,"Ġholding":5662,"ĠWater":5663,"sey":5664,"ĠWalter":5665,"ĠHollywood":5666,"ĠAv":5667,"ults":5668,"Ġsoutheast":5669,"Ã¸":5670,"Ġeyes":5671,"ĠGermans":5672,"ĠLab":5673,"Ġproviding":5674,"ĠInc":5675,"Ġresident":5676,"ĠOnly":5677,"inth":5678,"olid":5679,"inger":5680,"ĠHan":5681,"Ġrapidly":5682,"ĠAtt":5683,"Ġvisual":5684,"ĠSerb":5685,"Ġcasualties":5686,"Ġviewed":5687,"Ġhired":5688,"ading":5689,"Ġ1974":5690,"Ġbranch":5691,"Ġmut":5692,"FL":5693,"Ġmerch":5694,"Ġcharts":5695,"ifically":5696,"unior":5697,"ĠDavis":5698,"opher":5699,"Ġtransform":5700,"Ġalle":5701,"Ġrecognized":5702,"Ġ1973":5703,"ĠSpecial":5704,"Ġvac":5705,"heim":5706,"Ġrob":5707,"Ġ63":5708,"ĠDemocratic":5709,"ĠUN":5710,"Ġ77":5711,"Ġsites":5712,"Ġscholars":5713,"Ġvolume":5714,"iler":5715,"ĠReview":5716,"burgh":5717,"Ġsteel":5718,"Ġreaction":5719,"Ġparallel":5720,"essed":5721,"Ġ73":5722,"Ġgain":5723,"ĠRome":5724,"Ġconcer":5725,"ĠKir":5726,"ĠBetween":5727,"ĠDown":5728,"Ġshared":5729,"Ġprote":5730,"Ġteach":5731,"Ġhyp":5732,"ĠFall":5733,"Ġedge":5734,"Ġcart":5735,"Ġpublication":5736,"ĠJean":5737,"Ġ1976":5738,"Ġmoder":5739,"Ġtemperature":5740,"Ġdigital":5741,"Ġeconomy":5742,"Ġdeveloping":5743,"roll":5744,"ĠTen":5745,"Ġintersection":5746,"Ġheads":5747,"ĠBank":5748,"Ġcool":5749,"ĠProv":5750,"ĠNaz":5751,"standing":5752,"box":5753,"ĠNap":5754,"friend":5755,"Ġsymbol":5756,"Ġsecondary":5757,"zen":5758,"Ġapproved":5759,"yer":5760,"ĠGord":5761,"ĠLady":5762,"Ġlosses":5763,"Ġchance":5764,"ĠPrinc":5765,"ali":5766,"Ġvon":5767,"Ã¡n":5768,"Ġhydro":5769,"Ġrac":5770,"omew":5771,"itors":5772,"ĠMas":5773,"ĠOb":5774,"ologist":5775,"Ġwitness":5776,"Ġprepared":5777,"Ġcontest":5778,"Ġenl":5779,"Ġsubstant":5780,"oncÃ©":5781,"Ġbelief":5782,"ĠDaily":5783,"iful":5784,"rence":5785,"rant":5786,"Ġsignificantly":5787,"Ġmyth":5788,"ĠWomen":5789,"ographic":5790,"Ġletters":5791,"ĠPhilipp":5792,"ĠMusl":5793,"Ġsort":5794,"Ġbands":5795,"ĠSyd":5796,"onder":5797,"Ġdomestic":5798,"achus":5799,"Ġcard":5800,"asty":5801,"Ġ250":5802,"Ġsave":5803,"Ġinstruct":5804,"Ġdescend":5805,"Ġunsuccess":5806,"Ġknew":5807,"Ġsouthwest":5808,"ĠCommand":5809,"Ġ67":5810,"Ġfranchise":5811,"Ġtank":5812,"Ġliterature":5813,"unte":5814,"ryst":5815,"Ġgoes":5816,"Ġroughly":5817,"eral":5818,"aka":5819,"break":5820,"ĠMain":5821,"Ġpainting":5822,"Ġsemi":5823,"ĠBeyoncÃ©":5824,"Ġactress":5825,"Ġassault":5826,"Ġtechnology":5827,"ora":5828,"ĠColonel":5829,"enc":5830,"Ġurban":5831,"theless":5832,"Ġpitch":5833,"Ġadvent":5834,"range":5835,"Ġanything":5836,"Ġprojects":5837,"Ġcab":5838,"Ġcore":5839,"ĠIndust":5840,"ĠNick":5841,"Ġbrothers":5842,"Ġcars":5843,"ĠBern":5844,"ĠPoint":5845,"ĠPlan":5846,"Ġadult":5847,"Ġresistance":5848,"Ġlb":5849,"Ġshape":5850,"Ġexact":5851,"Ġgameplay":5852,"ella":5853,"ients":5854,"Ġstoryline":5855,"ĠSupreme":5856,"Ġemployed":5857,"ĠKentucky":5858,"ĠIV":5859,"ropri":5860,"ads":5861,"iminal":5862,"Ġinjured":5863,"ulpt":5864,"ĠVar":5865,"Ġreasons":5866,"Ġrules":5867,"ĠWhit":5868,"ĠIndepend":5869,"Ġdaily":5870,"Ġagent":5871,"Ġ1946":5872,"ĠStation":5873,"ĠSpring":5874,"Ġign":5875,"Ġshall":5876,"Ġ1981":5877,"ĠFair":5878,"Ġwatched":5879,"Ġ82":5880,"Ġ96":5881,"Ġpopularity":5882,"ira":5883,"Ġfit":5884,"ĠBall":5885,"Ġisol":5886,"Ġ68":5887,"agement":5888,"onym":5889,"Ġcomposition":5890,"Ġperhaps":5891,"Ġadding":5892,"Ġdeclined":5893,"ati":5894,"Ġrenamed":5895,"ĠCur":5896,"Ġgetting":5897,"ĠâĪĴ":5898,"ĠRoss":5899,"Ġenjoyed":5900,"Ġcompris":5901,"Ġopinion":5902,"ĠTheat":5903,"oz":5904,"Ġcalc":5905,"ĠNorway":5906,"Ġpoem":5907,"omic":5908,"Ġnor":5909,"Ġshaped":5910,"Ġreputation":5911,"amm":5912,"Ġundert":5913,"Ġconnected":5914,"ĠBase":5915,"Ġ1917":5916,"inking":5917,"Ġconverted":5918,"Ġlov":5919,"ĠMos":5920,"Ġestate":5921,"Ġviews":5922,"Ġmuseum":5923,"ĠMassachus":5924,"bound":5925,"Ġdry":5926,"Ġdrew":5927,"Ġrend":5928,"Ġstages":5929,"ĠOlympics":5930,"ĠPrem":5931,"oir":5932,"ĠImp":5933,"Ġretire":5934,"ceived":5935,"Ġregarding":5936,"ĠGolden":5937,"ĠDream":5938,"ĠMassachusetts":5939,"gal":5940,"osl":5941,"Ġdistingu":5942,"ĠWalk":5943,"iform":5944,"Ġsun":5945,"Ġagricult":5946,"Ġheaded":5947,"Ġallows":5948,"rets":5949,"vest":5950,"Ġbed":5951,"Ġnick":5952,"Ġ87":5953,"han":5954,"ĠSel":5955,"Ġalternative":5956,"Ġjourney":5957,"ules":5958,"Ġmissing":5959,"igg":5960,"ĠVi":5961,"Ġdepth":5962,"Ġcited":5963,"Ġturning":5964,"ĠAbb":5965,"ĠSus":5966,"Ġincreasingly":5967,"athan":5968,"ato":5969,"eper":5970,"ko":5971,"ĠLet":5972,"Ġapproached":5973,"osis":5974,"Ġplanning":5975,"ĠRon":5976,"Ġ160":5977,"Ġresponded":5978,"ĠAirport":5979,"Ġstadium":5980,"ĠHart":5981,"Ġknowledge":5982,"Ġ1948":5983,"Ġoverl":5984,"Ġexerc":5985,"ilding":5986,"eman":5987,"Ġwealth":5988,"Ġeasily":5989,"Ġ700":5990,"Ġfashion":5991,"olt":5992,"Ġescort":5993,"Ġconstitution":5994,"Ġcollected":5995,"Ġequal":5996,"ĠAbout":5997,"Ġsucceeded":5998,"Ġrebu":5999,"psons":6000,"Ġintroduction":6001,"ĠKen":6002,"Ġcells":6003,"unicip":6004,"Ġsustained":6005,"mod":6006,"Ġtrip":6007,"Ġexistence":6008,"ignment":6009,"ĠBal":6010,"Ġflu":6011,"Ġpul":6012,"Ġoccas":6013,"ĠImperial":6014,"Ġsafety":6015,"Ġauth":6016,"Ġlearned":6017,"ĠSimpsons":6018,"Ġtall":6019,"ĠRun":6020,"Ġ69":6021,"wise":6022,"Ġoperating":6023,"ĠInit":6024,"Ġmodels":6025,"Ġcolle":6026,"Ġ1978":6027,"hi":6028,"Ġcarrying":6029,"rett":6030,"Ġpromotion":6031,"mitted":6032,"Ġyouth":6033,"ĠVietnam":6034,"Ġ78":6035,"uration":6036,"Ġshowing":6037,"Ġbaseball":6038,"Ġlimit":6039,"engers":6040,"ĠMcG":6041,"Ġburied":6042,"ĠSongs":6043,"eg":6044,"iger":6045,"Ġexchange":6046,"onia":6047,"Ġ91":6048,"Ġweakened":6049,"come":6050,"leton":6051,"Ġpaint":6052,"Ġcredited":6053,"ĠAD":6054,"Ġseems":6055,"ĠLoc":6056,"Ġ1915":6057,"Ġhumans":6058,"ĠCape":6059,"Ġimprove":6060,"Ġdepend":6061,"Ġimpl":6062,"state":6063,"Ġdesigns":6064,"Ġarranged":6065,"Ġfreeway":6066,"ĠJay":6067,"Ġjoint":6068,"ĠShortly":6069,"Ġathlet":6070,"Ġlandfall":6071,"Ġrhy":6072,"Ġproducing":6073,"Ġshel":6074,"Ġearliest":6075,"ĠSydney":6076,"Ġproceed":6077,"ĠOttoman":6078,"Ġvan":6079,"Ġflat":6080,"inary":6081,"eler":6082,"oli":6083,"istan":6084,"Ġnote":6085,"Ġsculpt":6086,"Ġlasted":6087,"Ġsettlement":6088,"acts":6089,"Ġretained":6090,"ĠWho":6091,"ĠPict":6092,"Ġ1977":6093,"Ġton":6094,"ĠNaval":6095,"ĠMoore":6096,"ĠPoland":6097,"Ġacres":6098,"Ġdescription":6099,"put":6100,"Ġ94":6101,"ĠRoy":6102,"ĠRem":6103,"Ġbrand":6104,"issance":6105,"ĠMaryland":6106,"AR":6107,"ĠCra":6108,"rell":6109,"ivered":6110,"Äģ":6111,"Ġreserve":6112,"ĠMTV":6113,"ĠStew":6114,"ivalent":6115,"bell":6116,"Ġlaws":6117,"Ġappoint":6118,"Ġassistant":6119,"Ġreplace":6120,"Ġconsc":6121,"ources":6122,"Ġpatrol":6123,"Ġinstall":6124,"Ġ81":6125,"Ġgenre":6126,"insula":6127,"Ġplayoff":6128,"Ġprograms":6129,"ader":6130,"Ġvirt":6131,"Ġcatch":6132,"Ġcoastal":6133,"Ġviolence":6134,"Ġ98":6135,"Ġentrance":6136,"Ġstatement":6137,"Ġhits":6138,"Ġ1963":6139,"ĠJes":6140,"Ġapplied":6141,"ĠArts":6142,"Ġsynt":6143,"Ġconsequ":6144,"Ġneut":6145,"iege":6146,"Ġtrust":6147,"Ġscientific":6148,"othes":6149,"Ġtick":6150,"ĠPass":6151,"avig":6152,"math":6153,"pet":6154,"ĠRid":6155,"Ġexclus":6156,"tical":6157,"ĠRhodes":6158,"Ġbattery":6159,"Ġdelivered":6160,"ĠGreg":6161,"Ġ1916":6162,"Ġsections":6163,"ĠFire":6164,"Ġuns":6165,"Ġcandidate":6166,"Ġindicated":6167,"Ġstopped":6168,"time":6169,"Ġtowns":6170,"Ġgradually":6171,"Ġtact":6172,"Ġitems":6173,"izations":6174,"Ġpolitics":6175,"lan":6176,"Ġban":6177,"ĠBowl":6178,"ĠEdu":6179,"ĠAri":6180,"lee":6181,"eke":6182,"oard":6183,"Ġbask":6184,"Ġsupplies":6185,"Ġdistribution":6186,"Ġfilled":6187,"ĠIG":6188,"Ġdetails":6189,"Ġindependence":6190,"ĠConfeder":6191,"eless":6192,"AT":6193,"ela":6194,"Ġselect":6195,"mun":6196,"Ġ71":6197,"Ġstream":6198,"Ġcombination":6199,"ĠJan":6200,"Ġways":6201,"Ġemp":6202,"Å¡":6203,"ushing":6204,"ĠMulder":6205,"Ġcinem":6206,"ĠBon":6207,"Ġglass":6208,"ĠGordon":6209,"Ġengines":6210,"Ġparties":6211,"Ġcamera":6212,"reets":6213,"ĠStadium":6214,"Ġappeal":6215,"phoon":6216,"ĠBand":6217,"ender":6218,"Ġprisoners":6219,"ÅĤ":6220,"Ġ1919":6221,"Ġ1962":6222,"emies":6223,"Ġ89":6224,"Ġregister":6225,"Ġcampus":6226,"ĠAC":6227,"ĠWell":6228,"Ġsecure":6229,"Ġentitled":6230,"Ġextremely":6231,"iversary":6232,"Ġacts":6233,"Ġwars":6234,"Ġmig":6235,"Ġregiment":6236,"rec":6237,"ropol":6238,"Ġfinding":6239,"ĠTheatre":6240,"ador":6241,"ĠRa":6242,"Ġevening":6243,"Ġinvestigation":6244,"Ġtal":6245,"Ġonline":6246,"ĠStaff":6247,"Ġdecade":6248,"poration":6249,"Ġwinner":6250,"ĠProf":6251,"inois":6252,"ĠUnivers":6253,"Ġadapted":6254,"Ġ1938":6255,"iques":6256,"ĠCop":6257,"ĠKim":6258,"Ġbought":6259,"Ġarc":6260,"acter":6261,"Ġ88":6262,"Ġsurvived":6263,"Ġknots":6264,"Ġsomew":6265,"Ġthreatened":6266,"Ġdeaths":6267,"Ġruled":6268,"Ġmessage":6269,"Ġwrites":6270,"ashed":6271,"Ġroutes":6272,"ĠAnth":6273,"iat":6274,"ĠBir":6275,"Ġconsum":6276,"Ġstudied":6277,"Ġrelief":6278,"Ġreligion":6279,"ja":6280,"Ġaddress":6281,"ĠJustice":6282,"ĠVill":6283,"Ġproposal":6284,"Ġfear":6285,"Ġdownload":6286,"ĠInstead":6287,"ĠNic":6288,"Ġtanks":6289,"ano":6290,"Ġvoted":6291,"Ġreduce":6292,"ĠPo":6293,"met":6294,"Ġspecifically":6295,"ighters":6296,"Ġcrown":6297,"Ġmales":6298,"ieval":6299,"Ġphase":6300,"ĠMemorial":6301,"Ġrevolution":6302,"BS":6303,"Ġspons":6304,"bourne":6305,"Ġfict":6306,"Ġkingdom":6307,"ĠAge":6308,"Ġrecalled":6309,"Ġportrayed":6310,"Ġec":6311,"Ġcontroversy":6312,"BN":6313,"Ġduty":6314,"Ġimplement":6315,"ĠCirc":6316,"ctions":6317,"ĠHere":6318,"hat":6319,"Ġemerg":6320,"Ġsoul":6321,"ĠAst":6322,"adow":6323,"apes":6324,"Ġble":6325,"Ġcauses":6326,"Ġeverything":6327,"Ġbottom":6328,"Ġstret":6329,"Ġ130":6330,"Ġcapable":6331,"ervative":6332,"chers":6333,"Ġconvin":6334,"Ġ175":6335,"ician":6336,"Ġreferences":6337,"Ġ1956":6338,"Ġsell":6339,"ĠKong":6340,"Ġimportance":6341,"aug":6342,"Ġago":6343,"Ġbreeding":6344,"Ġet":6345,"ĠTony":6346,"ĠColl":6347,"Ġoffers":6348,"Ġteacher":6349,"ridges":6350,"ĠMcK":6351,"Ġcrossed":6352,"Ġarrested":6353,"ĠDirector":6354,"ĠSingles":6355,"Ġ79":6356,"Ġmeters":6357,"Ġentry":6358,"entially":6359,"Ġsufficient":6360,"ĠNel":6361,"bro":6362,"ĠPower":6363,"ĠUr":6364,"ĠId":6365,"senal":6366,"Ġclimb":6367,"ĠOd":6368,"ĠMoon":6369,"Ġadmitted":6370,"Ġinternal":6371,"Ġopera":6372,"arp":6373,"ĠOk":6374,"ĠAdams":6375,"Ġcorner":6376,"Ġnomination":6377,"Ġmort":6378,"Ġowner":6379,"uro":6380,"ĠDougl":6381,"bar":6382,"ĠJane":6383,"ĠAlan":6384,"Ġequipped":6385,"Ġinstalled":6386,"Ġproducts":6387,"Ġoverse":6388,"Ġconcerns":6389,"Ġcopy":6390,"Ġbor":6391,"Ġ1936":6392,"ĠJord":6393,"Ġstarts":6394,"ructure":6395,"ĠIGN":6396,"ĠAlf":6397,"ĠBeach":6398,"Ġconvoy":6399,"ĠCritical":6400,"Ġpreced":6401,"wich":6402,"andy":6403,"Ġconqu":6404,"Ġautom":6405,"ĠHamilton":6406,"ranean":6407,"Ġinvited":6408,"Ġsnow":6409,"hr":6410,"Ġtell":6411,"Ġupgrad":6412,"aki":6413,"ĠEngine":6414,"Ġones":6415,"Ġunl":6416,"ansas":6417,"Ġprincipal":6418,"Ġshut":6419,"Ġcrime":6420,"ĠSimon":6421,"ĠUTC":6422,"Ġinterested":6423,"Ġretreat":6424,"Ġremainder":6425,"Ġrecommended":6426,"ĠInt":6427,"ĠGram":6428,"ĠMaria":6429,"ĠPlot":6430,"espread":6431,"Ġalt":6432,"Ġacid":6433,"Ġstock":6434,"ĠYour":6435,"Ġactual":6436,"ĠAdam":6437,"Ġfly":6438,"Ġ92":6439,"ca":6440,"Ġvent":6441,"Ġ93":6442,"ĠVII":6443,"Ġmedal":6444,"Ġsolid":6445,"ĠTrack":6446,"Ġcharged":6447,"Ġapart":6448,"Ġdoor":6449,"Ġconsisting":6450,"ĠForest":6451,"ilation":6452,"ĠDeath":6453,"Ġfunds":6454,"Ġ1961":6455,"osaurus":6456,"iy":6457,"mb":6458,"vis":6459,"ĠIndones":6460,"Ġpromote":6461,"Ġprice":6462,"Ġmilit":6463,"Ġobjects":6464,"Ġ84":6465,"ĠBos":6466,"Ġconsiderable":6467,"ĠCart":6468,"Ġgall":6469,"ĠVideo":6470,"Ġcomposer":6471,"Ġdates":6472,"aked":6473,"Ġfemales":6474,"ĠNBA":6475,"ĠFA":6476,"Ġpage":6477,"ĠFound":6478,"ĠProg":6479,"ĠWWE":6480,"erted":6481,"ĠGen":6482,"Ġgrounds":6483,"ĠNether":6484,"Ġ1953":6485,"hus":6486,"Ġpoly":6487,"ĠToday":6488,"Ġblow":6489,"iller":6490,"Ġduties":6491,"rete":6492,"Ġextension":6493,"Ġtypical":6494,"Ġcong":6495,"ĠMilitary":6496,"ĠTransport":6497,"ĠHitler":6498,"ĠGun":6499,"Ġcorrect":6500,"Ġrural":6501,"Ġsomeone":6502,"cks":6503,"ĠKennedy":6504,"BI":6505,"Ġeighth":6506,"Ġevolution":6507,"ĠSunday":6508,"Ġimages":6509,"Ġdecades":6510,"ĠProject":6511,"ĠHoward":6512,"ĠMarc":6513,"Ġsole":6514,"Ġzone":6515,"Ġpenal":6516,"vements":6517,"Ġdriving":6518,"ĠIndiana":6519,"Ġspin":6520,"Ġhotel":6521,"king":6522,"osite":6523,"ĠPit":6524,"Ġidentity":6525,"ĠTa":6526,"Ġlane":6527,"Ġreading":6528,"AAF":6529,"Ġchallenge":6530,"ĠNorwe":6531,"hetic":6532,"Ġoccurs":6533,"ĠHou":6534,"add":6535,"Ġremix":6536,"Ġmanner":6537,"ĠLeon":6538,"Ġsubs":6539,"Ġpermanent":6540,"Ġfrag":6541,"ĠScully":6542,"Ġbrigade":6543,"Ġham":6544,"ĠFive":6545,"Ġaspects":6546,"Ġdated":6547,"Ġskin":6548,"ĠTar":6549,"ĠBry":6550,"Ġ1947":6551,"Ġtow":6552,"Ġaer":6553,"Ġvolcan":6554,"ĠKat":6555,"ĠCult":6556,"Ġnoting":6557,"Ġslowly":6558,"Ġ1958":6559,"regon":6560,"Ġcolour":6561,"Ġarmor":6562,"ĠBrist":6563,"Ġvir":6564,"Ġposted":6565,"ĠPortug":6566,"Ġrestaur":6567,"ĠGill":6568,"ubb":6569,"ez":6570,"Ġvessels":6571,"ensus":6572,"ĠMountain":6573,"after":6574,"ione":6575,"ĠScient":6576,"Ġspeak":6577,"ĠTurk":6578,"Ġ1910":6579,"ĠPear":6580,"Ġ110":6581,"Ġclean":6582,"iley":6583,"Ġ86":6584,"Ġsupporters":6585,"aware":6586,"ĠBa":6587,"ivals":6588,"ĠDrag":6589,"cknow":6590,"Ġinvolving":6591,"Ġentering":6592,"Ġdescribing":6593,"Ġ1957":6594,"ĠAk":6595,"Ġbra":6596,"ĠAssembly":6597,"Ġenemies":6598,"ĠResearch":6599,"ĠRose":6600,"ĠScience":6601,"veland":6602,"Ġdepartment":6603,"nic":6604,"ĠSpace":6605,"Ġequivalent":6606,"Ġobtained":6607,"Ġ1937":6608,"ĠConstitution":6609,"Ġdebate":6610,"Ġmemorial":6611,"Ġdress":6612,"Ġaccur":6613,"Ġclasses":6614,"ĠRyan":6615,"Ġsettled":6616,"orney":6617,"Ġoldest":6618,"ĠHug":6619,"ĠDisc":6620,"Ġdin":6621,"risis":6622,"Ġpurchase":6623,"Ġwidespread":6624,"ĠMagazine":6625,"fl":6626,"Ġsongwrit":6627,"Ġbasic":6628,"Ġtele":6629,"ĠRolling":6630,"Ġdecline":6631,"ĠArgent":6632,"ĠIra":6633,"agues":6634,"Ġparliament":6635,"ĠPier":6636,"ĠOregon":6637,"Ġattached":6638,"Ġincome":6639,"Ġdecor":6640,"erto":6641,"Ġfaith":6642,"Ġconcerned":6643,"ĠLenn":6644,"Ġdeparture":6645,"heastern":6646,"Ġformal":6647,"Ġfolk":6648,"Ġconnection":6649,"ĠCleveland":6650,"ĠIllinois":6651,"Ġpup":6652,"Ġaccused":6653,"ĠThroughout":6654,"cation":6655,"Ġrecognition":6656,"ĠDouglas":6657,"ophy":6658,"Ġcertified":6659,"Ġinteg":6660,"hered":6661,"Ġnest":6662,"Ġdeleg":6663,"Ġha":6664,"Ġ<":6665,"ĠNow":6666,"Ġouter":6667,"Ġdisturb":6668,"rates":6669,"Ġsequel":6670,"Ġderived":6671,"ĠWeekly":6672,"ĠRele":6673,"Ġcommitted":6674,"icit":6675,"ĠSav":6676,"iot":6677,"Ġmode":6678,"aret":6679,"ĠStand":6680,"Ġacknow":6681,"Ġassumed":6682,"Ġ1959":6683,"ĠAndy":6684,"ooth":6685,"Ġswim":6686,"Ġhosted":6687,"Ġwearing":6688,"ĠâĢĿ":6689,"ĠFamily":6690,"ĠStanley":6691,"ĠJordan":6692,"western":6693,"Ġwed":6694,"ĠFreder":6695,"Ġsegment":6696,"Ġfoss":6697,"Ġreturns":6698,"wan":6699,"Ġtorn":6700,"Ġhip":6701,"Ġcharges":6702,"ĠFeder":6703,"Ġsurvey":6704,"ekend":6705,"Ġchampion":6706,"Ġacclaim":6707,"Ġtemple":6708,"Ġhang":6709,"ĠMediter":6710,"ĠThird":6711,"Ġliterary":6712,"ĠArsenal":6713,"Ġvalley":6714,"ĠMedia":6715,"ĠRoger":6716,"ĠDal":6717,"Ġflo":6718,"Ġdenied":6719,"ĠLow":6720,"Ġterminus":6721,"Ġfine":6722,"Ġpopulations":6723,"Ġtransition":6724,"ĠTreat":6725,"ĠTenn":6726,"ĠPhilip":6727,"ĠKevin":6728,"Ġsessions":6729,"ĠRecording":6730,"agonist":6731,"ĠMediterranean":6732,"ĠBeatles":6733,"Ġregional":6734,"ĠBruce":6735,"Ġcanc":6736,"Ġcircum":6737,"Ġthousands":6738,"Ġsupposed":6739,"Ġ1955":6740,"ĠEs":6741,"Ġ1954":6742,"ĠâĢľ":6743,"Ġwarm":6744,"ĠISBN":6745,"ĠNorwegian":6746,"ĠBristol":6747,"Ġdemand":6748,"Ġintelligence":6749,"Ġdowntown":6750,"Ġans":6751,"Ġshots":6752,"iva":6753,"Ġcommit":6754,"Ġstrongly":6755,"RA":6756,"ĠAz":6757,"ĠRain":6758,"Ġwickets":6759,"ĠDig":6760,"udden":6761,"hedral":6762,"Ġsailed":6763,"ĠDer":6764,"ĠFederal":6765,"Ġpassengers":6766,"Ġcirculation":6767,"heme":6768,"emed":6769,"ĠBush":6770,"Ġpossibility":6771,"Ġgeneration":6772,"Ġhill":6773,"Ġfreedom":6774,"organ":6775,"Ġcloud":6776,"Ġfictional":6777,"achel":6778,"Ġthirty":6779,"ĠHo":6780,"Ġanimated":6781,"Ġhope":6782,"vens":6783,"ĠChannel":6784,"rage":6785,"Ġreplacement":6786,"IA":6787,"Ġcommanded":6788,"eing":6789,"ĠMexican":6790,"Ġrich":6791,"Ġbegun":6792,"Ġassistance":6793,"ito":6794,"Ġbehavior":6795,"ĠBol":6796,"Ġminister":6797,"Ġmissions":6798,"ĠKorea":6799,"Ġdestruction":6800,"ĠWeb":6801,"Ġfruit":6802,"Ġcrash":6803,"Ġmissed":6804,"Ġcriminal":6805,"atinum":6806,"borne":6807,"mes":6808,"ami":6809,"ĠÃĹ":6810,"orced":6811,"ĠPur":6812,"ĠRaj":6813,"Ġmoves":6814,"ĠRow":6815,"Ġexception":6816,"Ġtied":6817,"Ġvolunte":6818,"lig":6819,"ĠWithin":6820,"char":6821,"ĠColor":6822,"ĠCas":6823,"ĠConc":6824,"Ġcosts":6825,"Ġbringing":6826,"ĠMaster":6827,"upt":6828,"Ġintention":6829,"Ġhighlight":6830,"Ġfeeling":6831,"elsh":6832,"ĠNar":6833,"Ġalleged":6834,"Ġfinishing":6835,"ĠBah":6836,"ĠEric":6837,"isms":6838,"ĠAdditionally":6839,"Ġrecovered":6840,"Ġunusual":6841,"Ġspeaking":6842,"Ġdemol":6843,"ĠFame":6844,"Ġshop":6845,"ĠSab":6846,"oral":6847,"lets":6848,"Ġserves":6849,"Ġproperties":6850,"Ġstayed":6851,"Ġincorporated":6852,"Ġstrateg":6853,"onto":6854,"Ġattributed":6855,"Ġ83":6856,"Ġbreaking":6857,"aza":6858,"Ġemerged":6859,"Ġsons":6860,"Ġintercept":6861,"Ġopposite":6862,"ĠLisa":6863,"Ġdipl":6864,"Ġ1952":6865,"emeter":6866,"enses":6867,"ĠPhill":6868,"Ġdriven":6869,"Ġtheatre":6870,"riers":6871,"ĠMorris":6872,"rating":6873,"ĠMorgan":6874,"Ġatmosphere":6875,"ĠIron":6876,"Ġchorus":6877,"aire":6878,"ĠRobinson":6879,"othing":6880,"Ġclassic":6881,"Ġoccasionally":6882,"ĠNorman":6883,"ĠPrior":6884,"ĠKr":6885,"Ġready":6886,"olec":6887,"ĠEle":6888,"Ġestablishment":6889,"Ġcavalry":6890,"Ġspok":6891,"umin":6892,"ĠEver":6893,"Ġregularly":6894,"Ġcourts":6895,"Ġeffectively":6896,"Ġdissip":6897,"Ġsurviving":6898,"Ġvary":6899,"ĠTemple":6900,"Ġdream":6901,"Ġ1933":6902,"thm":6903,"Ġdivers":6904,"Ġresponsibility":6905,"Ġmethods":6906,"Ġprey":6907,"ĠTelevision":6908,"ĠSimilar":6909,"ĠHawai":6910,"ĠSky":6911,"ogen":6912,"Ġsounds":6913,"ĠAround":6914,"Ġshore":6915,"Ġcompletion":6916,"pective":6917,"ĠUnlike":6918,"Ġmaterials":6919,"weight":6920,"Ġsuperv":6921,"Ġ176":6922,"Ġprovince":6923,"ĠConstruction":6924,"don":6925,"ĠCE":6926,"uty":6927,"Ġclassified":6928,"Ġheat":6929,"Ġattracted":6930,"Ġwarning":6931,"Ġfields":6932,"wen":6933,"oslav":6934,"sole":6935,"Ġdivisions":6936,"Ġaccommod":6937,"rim":6938,"ĠGh":6939,"ĠCab":6940,"Ġquant":6941,"Ġentertain":6942,"Ġpersu":6943,"ĠFrancis":6944,"ĠNelson":6945,"ece":6946,"ban":6947,"Ġtechnical":6948,"Ġglobal":6949,"ĠNich":6950,"Ġinterpret":6951,"nold":6952,"ĠFinn":6953,"ĠPatrick":6954,"Ġmo":6955,"Ġdifferences":6956,"inton":6957,"Ġpassage":6958,"AC":6959,"ĠLanc":6960,"ĠAnton":6961,"ĠFord":6962,"abled":6963,"Ġkid":6964,"Ġ1935":6965,"Ġcruiser":6966,"Ġbrain":6967,"icks":6968,"ĠPremier":6969,"Ġnone":6970,"Ġneither":6971,"ĠSweden":6972,"20":6973,"ĠBudd":6974,"ĠDE":6975,"Ġaboard":6976,"ĠTechn":6977,"Ġstood":6978,"ipe":6979,"Ġsam":6980,"ĠMit":6981,"Ġbattleships":6982,"Ġreinforce":6983,"oyd":6984,"Ġ1949":6985,"Ġclubs":6986,"Ġbasketball":6987,"Ġassociation":6988,"Ġ1951":6989,"ĠWelsh":6990,"Ġrooms":6991,"nce":6992,"Ġeleven":6993,"Ġancest":6994,"Ġratings":6995,"nings":6996,"ĠNations":6997,"ĠHell":6998,"Ġmusicians":6999,"idden":7000,"Ġhal":7001,"Ġdesire":7002,"Ġshif":7003,"Ġmedic":7004,"Ġsqu":7005,"Ġrose":7006,"Ġoutbreak":7007,"Ġseparated":7008,"Ġclassification":7009,"Ġclimate":7010,"Ġseemed":7011,"omot":7012,"ĠAnne":7013,"Ġvotes":7014,"teenth":7015,"agle":7016,"Ġpredecess":7017,"ĠToronto":7018,"Ġrequested":7019,"Ã³n":7020,"Ġvehicle":7021,"Ġpicture":7022,"Ġhistorians":7023,"ĠMatthew":7024,"Ġment":7025,"Ġreality":7026,"Ġmemory":7027,"ĠDog":7028,"Ġmovements":7029,"ĠAllen":7030,"ĠProfess":7031,"Ġchemical":7032,"ici":7033,"ĠMarg":7034,"ji":7035,"ĠByzantine":7036,"ewhere":7037,"Ġmap":7038,"Ġhoped":7039,"ĠMarine":7040,"ĠNetherlands":7041,"ĠChron":7042,"ĠBelg":7043,"Ġille":7044,"reck":7045,"abil":7046,"ĠOpen":7047,"Ġraise":7048,"Ġdifficulty":7049,"ĠJournal":7050,"ĠSn":7051,"ogy":7052,"ĠEvery":7053,"Ġrestored":7054,"ĠPow":7055,"ĠSports":7056,"burn":7057,"Ġexpect":7058,"Ġprogramme":7059,"ĠWhe":7060,"inder":7061,"Ġvide":7062,"Ġcommunities":7063,"ĠBang":7064,"ĠUSS":7065,"ige":7066,"Ġremember":7067,"Ġraid":7068,"Ġfer":7069,"Ġteen":7070,"ĠIraq":7071,"Ġflank":7072,"ĠJews":7073,"Ġfal":7074,"Ġpremiere":7075,"Ġdelayed":7076,"Ġdiscovery":7077,"Ġpure":7078,"ĠDean":7079,"ĠJacob":7080,"Ġrelative":7081,"ĠAgain":7082,"Ġanniversary":7083,"Ġinspiration":7084,"Ġgreatly":7085,"Ġinjuries":7086,"har":7087,"Ġgal":7088,"Ġsatisf":7089,"ĠDesign":7090,"Ġotherwise":7091,"ĠBishop":7092,"Ġ1900":7093,"Ġneighbor":7094,"ĠSax":7095,"Ġaccounts":7096,"Ġfunding":7097,"ĠUlt":7098,"Ġdepict":7099,"hire":7100,"ĠDomin":7101,"ilers":7102,"Ġpraise":7103,"Ġsurrounded":7104,"Ġstrate":7105,"iate":7106,"Ġrecru":7107,"Ġdens":7108,"ĠNC":7109,"Ġmassive":7110,"Ġpenalty":7111,"Ġspoke":7112,"Ġpartner":7113,"Ġcrop":7114,"Ġneeds":7115,"Ġclaiming":7116,"Ġtries":7117,"Ġdie":7118,"ĠWright":7119,"Ġsuit":7120,"Ġassemb":7121,"Ġbatting":7122,"Ġweapon":7123,"Ġcrosses":7124,"Ġphotograph":7125,"Ġstrategy":7126,"Ġcra":7127,"Ġlat":7128,"Ġconsp":7129,"Ġforming":7130,"anth":7131,"ĠDor":7132,"Ġwrong":7133,"ĠStra":7134,"Ġastron":7135,"ĠRick":7136,"Ġlegend":7137,"Ġinvolvement":7138,"Ġfled":7139,"Ġaccompl":7140,"Ġstands":7141,"ĠGlob":7142,"Ġdocumentary":7143,"gets":7144,"ĠArmen":7145,"Ġworst":7146,"ĠCroatian":7147,"real":7148,"aired":7149,"ĠDick":7150,"Ġarchitecture":7151,"Ġremn":7152,"ĠHop":7153,"ĠOak":7154,"ĠDa":7155,"Ġtemporary":7156,"Ġash":7157,"uble":7158,"Ġbombard":7159,"Ġchairman":7160,"ĠHeart":7161,"Ġdetermine":7162,"ĠJam":7163,"Ġplane":7164,"Ġenf":7165,"ĠThompson":7166,"going":7167,"Ġdismissed":7168,"uther":7169,"ĠLast":7170,"Ġgirls":7171,"ĠRussell":7172,"Ġrot":7173,"formula":7174,"ĠIslam":7175,"Ġinner":7176,"Ġhear":7177,"Ġweekend":7178,"Ġsale":7179,"ĠTrib":7180,"ĠHend":7181,"Ġconvinced":7182,"rum":7183,"ĠCentre":7184,"Ġensure":7185,"Ġcategory":7186,"Ġreserv":7187,"Ġcul":7188,"Ġ06":7189,"Ġadaptation":7190,"ĠNFL":7191,"ĠMars":7192,"Ġresources":7193,"onds":7194,"Ġsight":7195,"Ġcolonial":7196,"Ġsomewhat":7197,"Ġlibrary":7198,"Ġinterests":7199,"ĠHoly":7200,"lyn":7201,"ĠModern":7202,"Ġstreets":7203,"ĠFree":7204,"Ġimmediate":7205,"wing":7206,"Ġscheme":7207,"ĠCarter":7208,"ĠWinter":7209,"ĠPuerto":7210,"body":7211,"Ġstarred":7212,"ĠFront":7213,"Ġmedieval":7214,"Ġcommemor":7215,"ĠCooper":7216,"agre":7217,"Ġray":7218,"Ġfalling":7219,"ĠKelly":7220,"oster":7221,"Ġabsor":7222,"Ġcarbon":7223,"Ġpresidential":7224,"itzer":7225,"Ġic":7226,"wealth":7227,"ĠKer":7228,"Ġthrone":7229,"ĠSpe":7230,"po":7231,"Ġacademic":7232,"Ġsurviv":7233,"Ġappropri":7234,"Ġclassical":7235,"ĠDra":7236,"ĠAlong":7237,"Ġtechniques":7238,"Ġraces":7239,"Ġsed":7240,"Ġfitted":7241,"Ġmeets":7242,"Ġeggs":7243,"Ġfighter":7244,"aya":7245,"Ġconvent":7246,"Ġori":7247,"Ã±":7248,"icide":7249,"Ġloyal":7250,"Ġninth":7251,"ĠBrother":7252,"ĠHungarian":7253,"ĠRang":7254,"ĠNetwork":7255,"night":7256,"Ġbright":7257,"ĠGard":7258,"ĠNiel":7259,"Ġadults":7260,"ĠPak":7261,"ĠBou":7262,"Ġsuperior":7263,"Ġsubmarine":7264,"ĠNob":7265,"Ġpassenger":7266,"Ġreviewer":7267,"rine":7268,"Ġinterior":7269,"Ġlake":7270,"Ġattacking":7271,"Ġabsence":7272,"Ġseeing":7273,"ester":7274,"Ġ1913":7275,"Ġrenew":7276,"ĠThus":7277,"Ġfavorite":7278,"ĠTok":7279,"ĠWy":7280,"Ġairport":7281,"ĠLabor":7282,"ĠParker":7283,"ivan":7284,"ĠEst":7285,"Ġelse":7286,"ĠGri":7287,"Ġengineer":7288,"Ġpremiered":7289,"bec":7290,"Ġconvection":7291,"Ġsynthes":7292,"Ġalien":7293,"osure":7294,"arsh":7295,"Ġdeemed":7296,"ĠBatman":7297,"Ġvisible":7298,"á»":7299,"Ġdub":7300,"Ġconclusion":7301,"Ġlanded":7302,"ronze":7303,"ĠHarris":7304,"Ġdating":7305,"ĠLate":7306,"ĠAI":7307,"Ġappearing":7308,"Ġ1927":7309,"Ġpartn":7310,"ĠPA":7311,"Ġcharacteristics":7312,"Ġ1926":7313,"Ġrum":7314,"acent":7315,"omp":7316,"Ġoperate":7317,"Ġafterwards":7318,"Ġleads":7319,"Ġromantic":7320,"Ġlies":7321,"ĠBi":7322,"Ġelections":7323,"using":7324,"Ġfacility":7325,"Ġmunicip":7326,"ĠLibrary":7327,"Ġsuffering":7328,"Ġencouraged":7329,"book":7330,"Ġx":7331,"Ġcolony":7332,"Ġtemperatures":7333,"eor":7334,"chang":7335,"Ġmodified":7336,"Ġ1934":7337,"Ġ1921":7338,"ĠMurray":7339,"Ġretirement":7340,"ania":7341,"ĠDNA":7342,"Ġbuy":7343,"Ġdoct":7344,"Ġcredit":7345,"Ġeveryone":7346,"ĠTs":7347,"Ġpainted":7348,"oen":7349,"Ġholds":7350,"Ġcontroversial":7351,"asure":7352,"Ġsan":7353,"ossible":7354,"Ġlegislation":7355,"ĠEducation":7356,"aver":7357,"ĠKnight":7358,"Ġchalleng":7359,"ĠCommonwealth":7360,"Ġattempting":7361,"ĠâĤ":7362,"urches":7363,"Ġbelieves":7364,"roit":7365,"uster":7366,"Ġarchae":7367,"Ġgone":7368,"ĠBerlin":7369,"Ġ08":7370,"ĠPolice":7371,"Ġ900":7372,"Ġwings":7373,"Ġpound":7374,"ĠCommander":7375,"ĠHouston":7376,"Ġod":7377,"Ġcode":7378,"Ġcontinuing":7379,"Ġdistributed":7380,"Ġdominated":7381,"Ġrescue":7382,"ĠBrand":7383,"ĠRAAF":7384,"Ġbattleship":7385,"Ġsecured":7386,"ixon":7387,"Ġdepicted":7388,"aws":7389,"ĠPalace":7390,"ĠSanta":7391,"Ġjudge":7392,"tic":7393,"Ġlooked":7394,"Ġauthors":7395,"Ġanyone":7396,"ĠFI":7397,"apse":7398,"ĠStory":7399,"ĠUt":7400,"Ġ1912":7401,"Ġstandards":7402,"scape":7403,"encies":7404,"eline":7405,"Ġimmig":7406,"ĠAdvent":7407,"ĠÅ":7408,"Ġlongest":7409,"Ġcancer":7410,"Ġgrass":7411,"Ġunsuccessful":7412,"Ġwel":7413,"Ġmonarch":7414,"coming":7415,"ache":7416,"ĠHospital":7417,"Ġrailroad":7418,"Ġhabitat":7419,"Ġwins":7420,"Ġneck":7421,"Ġgraphics":7422,"ĠYug":7423,"Ġobtain":7424,"ĠCook":7425,"ĠMort":7426,"Ġtrained":7427,"ĠLi":7428,"Ġunion":7429,"Ġbiggest":7430,"emetery":7431,"ĠSwedish":7432,"Ġsudden":7433,"ĠGet":7434,"Ġarrangement":7435,"ĠOt":7436,"ĠIndians":7437,"li":7438,"ĠRoberts":7439,"Ġmeasures":7440,"Ġjump":7441,"ĠObs":7442,"ultane":7443,"Ġ1932":7444,"ĠSimpson":7445,"inals":7446,"Ġcarrier":7447,"ĠYan":7448,"ĠEy":7449,"aska":7450,"Ġacknowled":7451,"Ġdeployed":7452,"owa":7453,"Ġnickn":7454,"eenth":7455,"ĠSilver":7456,"opes":7457,"Ġbelt":7458,"ĠLyn":7459,"oming":7460,"ĠCorporation":7461,"Ġinformed":7462,"Ġrepresenting":7463,"ternal":7464,"Ġster":7465,"ĠSocial":7466,"Ġreleases":7467,"Ġachieve":7468,"ching":7469,"ĠWarner":7470,"ture":7471,"hess":7472,"Ġ09":7473,"Ġsees":7474,"Ġcloser":7475,"Ġgarrison":7476,"Ġgenerated":7477,"Ġformerly":7478,"Ġalleg":7479,"ĠMerc":7480,"tenance":7481,"ĠJason":7482,"una":7483,"ĠNBC":7484,"Ġhistoric":7485,"fare":7486,"Ġbab":7487,"ĠYugoslav":7488,"Ġconvention":7489,"Ġstyles":7490,"Ġtrials":7491,"ĠAnthony":7492,"ĠCru":7493,"Ġgrade":7494,"Ġemergency":7495,"Ġgets":7496,"Ġmoderate":7497,"elle":7498,"Ġveter":7499,"Ġinfluential":7500,"Ġbats":7501,"olph":7502,"ĠRAF":7503,"agu":7504,"Ġfestival":7505,"Ġsuccessor":7506,"Ġsiege":7507,"ĠHin":7508,"Ġcycle":7509,"Ġassass":7510,"Ġquestions":7511,"Ġmolec":7512,"otype":7513,"ĠDetroit":7514,"Ġru":7515,"Ġemotional":7516,"ĠCroatia":7517,"Ġowners":7518,"hemat":7519,"ĠTal":7520,"uts":7521,"Ġ1929":7522,"ĠBure":7523,"ĠPC":7524,"Ġinfluences":7525,"Ġnovels":7526,"Ġnarrative":7527,"Ġridge":7528,"Ġwooden":7529,"aria":7530,"Ġthin":7531,"Ġstead":7532,"Ġdefended":7533,"Ġexcess":7534,"ĠAuthor":7535,"Ġconstant":7536,"Ġ1911":7537,"Ġapparently":7538,"ĠGaga":7539,"Ġveget":7540,"Ġvictims":7541,"Ġjournalist":7542,"fire":7543,"Ġexperiences":7544,"Ġdiscussed":7545,"mate":7546,"aints":7547,"ĠChamber":7548,"Ġ140":7549,"Ġchildhood":7550,"Ġdetail":7551,"Ġexecuted":7552,"ĠGilbert":7553,"Ġdiplom":7554,"noon":7555,"Ġeat":7556,"Ġalco":7557,"Ġlegs":7558,"Ġinstruments":7559,"Ġpregn":7560,"ĠRap":7561,"arked":7562,"Ġconcur":7563,"Ġoffices":7564,"Ġtreated":7565,"Ġenvironmental":7566,"yard":7567,"usted":7568,"ĠPrincess":7569,"Ġgiant":7570,"Ġdepos":7571,"Ġmine":7572,"ila":7573,"ĠAsian":7574,"Ġenters":7575,"rams":7576,"ĠSpears":7577,"Ġ1931":7578,"imore":7579,"ĠDesc":7580,"Ġ1922":7581,"Ġcoins":7582,"achment":7583,"obi":7584,"ĠMelbourne":7585,"anny":7586,"30":7587,"Ġfactors":7588,"Ġbear":7589,"ĠVice":7590,"ĠHeavy":7591,"ĠClinton":7592,"Ġhunting":7593,"ĠJesus":7594,"iens":7595,"ĠSomers":7596,"Ġhundreds":7597,"DS":7598,"iliar":7599,"ĠEvans":7600,"Ġchannel":7601,"aste":7602,"ĠUSA":7603,"ĠNielsen":7604,"Ġocean":7605,"ĠPope":7606,"Ġuniform":7607,"Ġresigned":7608,"alo":7609,"Ġgay":7610,"ĠAtlant":7611,"Ġride":7612,"Ġreveals":7613,"ĠOrgan":7614,"ĠGuy":7615,"text":7616,"Ġenh":7617,"ĠXbox":7618,"Ġnavig":7619,"Ġskills":7620,"ĠNevertheless":7621,"Ġprevented":7622,"ĠMun":7623,"ĠBed":7624,"Ġpointed":7625,"Ġclim":7626,"rees":7627,"Ġbon":7628,"ĠWing":7629,"Ġwatching":7630,"Ġpushed":7631,"Ġspend":7632,"rot":7633,"Ġ05":7634,"ĠCategory":7635,"ES":7636,"usic":7637,"Ġchapter":7638,"orous":7639,"Ġdrums":7640,"Ġfacing":7641,"ĠStewart":7642,"Ġintent":7643,"Ġopponents":7644,"Ġhappened":7645,"Ġpreferred":7646,"Ġflew":7647,"ĠMuslim":7648,"ĠReal":7649,"Ġfootage":7650,"Ġfil":7651,"ĠOrigin":7652,"lie":7653,"Ġpull":7654,"Ġdifference":7655,"Ġreportedly":7656,"ĠBulgar":7657,"Ġformat":7658,"Ġformally":7659,"Ġfiring":7660,"icians":7661,"ĠTower":7662,"ĠLim":7663,"Ġpoetry":7664,"Ġaccomp":7665,"Ġcheck":7666,"Ġinhabit":7667,"Ġintense":7668,"Ġlanguages":7669,"ĠTurkish":7670,"Ġthereafter":7671,"oto":7672,"Ġlocomot":7673,"Ġhanded":7674,"Ġthousand":7675,"ĠExpress":7676,"itter":7677,"ogether":7678,"Ġresign":7679,"Ġrelationships":7680,"ĠSarah":7681,"Ġchain":7682,"ĠCarib":7683,"tty":7684,"ĠBenn":7685,"Ġnotably":7686,"ĠAustria":7687,"ĠSamuel":7688,"ski":7689,"ĠRey":7690,"ĠQueens":7691,"Ġdevice":7692,"Ġvisitors":7693,"Ġvision":7694,"ĠLennon":7695,"Ġgather":7696,"Ġexposed":7697,"Ġanimation":7698,"ĠColorado":7699,"Ġexisted":7700,"Ġsurrender":7701,"Ġemployees":7702,"Ġbes":7703,"ĠAud":7704,"ologists":7705,"ĠGreece":7706,"onies":7707,"Ġhearing":7708,"idi":7709,"ĠRaw":7710,"Ġdeparted":7711,"Ġaccompany":7712,"ĠBird":7713,"ĠAlbums":7714,"Ġparticipate":7715,"roc":7716,"Ġlinked":7717,"Ġ170":7718,"ĠBaltimore":7719,"ĠHans":7720,"mad":7721,"ois":7722,"hatt":7723,"bean":7724,"ds":7725,"Ġrebell":7726,"Ġdialogue":7727,"olis":7728,"ĠArk":7729,"spec":7730,"yo":7731,"stic":7732,"ĠMalays":7733,"Ġextent":7734,"Ġresidential":7735,"Ġafternoon":7736,"Ġcruisers":7737,"ĠStock":7738,"da":7739,"ican":7740,"Ġinstance":7741,"Ġannounce":7742,"Ġlearning":7743,"Ġsubstantial":7744,"ullivan":7745,"Ġdetailed":7746,"igen":7747,"Ġbeach":7748,"Ġaudio":7749,"ropolitan":7750,"Ġvul":7751,"Ġimpressed":7752,"orage":7753,"ĠWriting":7754,"Ġutil":7755,"ĠCz":7756,"ĠCam":7757,"ĠHorn":7758,"ĠLane":7759,"MA":7760,"jo":7761,"Ġstem":7762,"unes":7763,"Ġuniverse":7764,"Ġavo":7765,"prise":7766,"ĠInitially":7767,"Ġmart":7768,"ĠMarshall":7769,"Ġske":7770,"Ġeasy":7771,"endment":7772,"Ġperiods":7773,"ĠWrestling":7774,"Ġplate":7775,"ĠFoundation":7776,"Ġhuge":7777,"orial":7778,"Ġtempor":7779,"lock":7780,"Ġpublisher":7781,"ĠDave":7782,"Ġenthus":7783,"Ġhat":7784,"ribed":7785,"Ġimprison":7786,"Ġtaught":7787,"Ġterritories":7788,"Ġteeth":7789,"ĠFrederick":7790,"Ġreviewers":7791,"opter":7792,"Ġdriver":7793,"Ġtesting":7794,"ĠErn":7795,"Ġvideos":7796,"viation":7797,"Ġ1928":7798,"Ġhappy":7799,"Ġisolated":7800,"otes":7801,"Ġstable":7802,"Ġfeud":7803,"ogan":7804,"Ġvessel":7805,"iami":7806,"boy":7807,"Ġtests":7808,"Ġca":7809,"Ġupd":7810,"ĠHorse":7811,"Ġbridges":7812,"ĠHaving":7813,"Ġdiameter":7814,"Ġlob":7815,"ĠBanks":7816,"Ġreprodu":7817,"Ġunderstand":7818,"Ġwithdrew":7819,"Ġpicked":7820,"Ġencountered":7821,"Ġupgraded":7822,"roph":7823,"Ġnegotiations":7824,"eping":7825,"Ġagents":7826,"FC":7827,"Ġsympt":7828,"Ġgoods":7829,"Ġinher":7830,"cho":7831,"ĠMario":7832,"ĠSomerset":7833,"ĠRelease":7834,"atically":7835,"ĠAnna":7836,"Ġ1925":7837,"roke":7838,"ĠBuck":7839,"ĠJess":7840,"Ġdangerous":7841,"idae":7842,"Ġaged":7843,"ĠKnow":7844,"Ġsimultane":7845,"Ġ1890":7846,"Ġdiagn":7847,"mission":7848,"Ġjunior":7849,"Ġfounder":7850,"Ġsatell":7851,"Ġnormally":7852,"Ġdeter":7853,"ĠAnglo":7854,"Ġbehavi":7855,"sea":7856,"Ġrelie":7857,"Ġwindow":7858,"Ġfactor":7859,"Ġkeeping":7860,"ĠMississ":7861,"Ġcollaps":7862,"Ġspecimens":7863,"Ġreun":7864,"Ġpartly":7865,"ĠMiami":7866,"utt":7867,"Ġsure":7868,"ĠGiants":7869,"Ġfur":7870,"Ġmedium":7871,"borough":7872,"Ġethnic":7873,"Ġtechnique":7874,"Ġfrequent":7875,"ĠPlayer":7876,"Ġtie":7877,"Ġcrisis":7878,"olas":7879,"Ġpounds":7880,"ĠCall":7881,"Ġmir":7882,"Ġlowest":7883,"etime":7884,"ĠAlab":7885,"ĠExt":7886,"bridge":7887,"Ġvic":7888,"Ġprohib":7889,"Ġmonument":7890,"Ġorganizations":7891,"Ġoutf":7892,"ĠSeattle":7893,"Ġapprec":7894,"Ġ1924":7895,"Ġtoll":7896,"Ġdiet":7897,"Ġengineering":7898,"Ġturrets":7899,"Ġtraveled":7900,"iable":7901,"away":7902,"Ġwhereas":7903,"ĠChampionships":7904,"ĠSoon":7905,"Ġrefers":7906,"chen":7907,"ĠCre":7908,"Ġinsc":7909,"Ġrarely":7910,"ĠOp":7911,"Ġresear":7912,"Ġdesigner":7913,"helm":7914,"Ġtone":7915,"Ġped":7916,"ĠTrek":7917,"usal":7918,"Ġproced":7919,"ĠTreaty":7920,"Ġlose":7921,"Ġvice":7922,"Ġmaintenance":7923,"ĠHuman":7924,"Ġax":7925,"amese":7926,"Ã©e":7927,"iece":7928,"brid":7929,"Ġdoesn":7930,"ĠCR":7931,"ĠHand":7932,"Ġpartially":7933,"Ġ07":7934,"ĠML":7935,"Ġorb":7936,"gery":7937,"Ġpermission":7938,"ĠIowa":7939,"Ġspending":7940,"Ġadvice":7941,"Ġverse":7942,"ĠAlabama":7943,"Ġlad":7944,"Ġcriticised":7945,"Ġbypass":7946,"ennis":7947,"ĠForces":7948,"ĠAustralians":7949,"ĠNapole":7950,"igs":7951,"Ġplatinum":7952,"Ġcomplic":7953,"Ġdifficulties":7954,"xual":7955,"Ġfinale":7956,"ygen":7957,"Ġagree":7958,"Ġrestric":7959,"Ġuncertain":7960,"Ġpolicies":7961,"ls":7962,"oked":7963,"Ġexcell":7964,"Ġfinals":7965,"Ġcompete":7966,"Ġranking":7967,"Ġphen":7968,"Ġproport":7969,"Ġmainstream":7970,"Ġindicate":7971,"col":7972,"Ġpersonality":7973,"Ġunn":7974,"Ġrefuge":7975,"ĠBuff":7976,"ĠHu":7977,"ĠDur":7978,"Ġliqu":7979,"Ġpitched":7980,"ilst":7981,"Ġanticip":7982,"attered":7983,"inction":7984,"Ġconcerts":7985,"ĠThen":7986,"Ġcomments":7987,"Ġrecordings":7988,"Ġremove":7989,"ĠCharlie":7990,"ĠCaribbean":7991,"uscript":7992,"Ġmamm":7993,"Ġshear":7994,"Ġwindows":7995,"Ġcovers":7996,"Ġsafe":7997,"ĠCanal":7998,"ĠMinnes":7999,"Ġsymp":8000,"Ġ1923":8001,"ĠLawrence":8002,"Ġrepair":8003,"Ġstrip":8004,"Ġmoral":8005,"Ġfalls":8006,"Ġrepresentative":8007,"Ġseats":8008,"Ġforcing":8009,"uda":8010,"ĠAh":8011,"Ġrecur":8012,"Ġextreme":8013,"Ġrestrict":8014,"ĠMcD":8015,"ĠYanke":8016,"Ġfighters":8017,"Ġhull":8018,"ĠBros":8019,"Ġrecommend":8020,"Ġrates":8021,"Ġjur":8022,"Ġovers":8023,"ĠCrown":8024,"chell":8025,"ĠMP":8026,"Ġalter":8027,"ĠNat":8028,"power":8029,"Ġprotest":8030,"Ġprompted":8031,"Ġtot":8032,"Ġtruth":8033,"Ġdestroyers":8034,"ĠTownship":8035,"Ġtenth":8036,"rang":8037,"ĠSenator":8038,"Ġdynasty":8039,"enh":8040,"Ġdiff":8041,"Ġdescribe":8042,"ĠMach":8043,"Ġreconst":8044,"Ġunderw":8045,"Ġexamples":8046,"ĠEP":8047,"Ġminimum":8048,"ĠIan":8049,"Ġbases":8050,"Ġtub":8051,"Ġphr":8052,"isd":8053,"Ġpin":8054,"ĠMinistry":8055,"ĠNazi":8056,"mates":8057,"Ġtravelled":8058,"Ġhockey":8059,"Ar":8060,"urance":8061,"Ġchurches":8062,"ĠUSD":8063,"Ġfriendly":8064,"ĠGarden":8065,"ĠBlood":8066,"ĠGrammy":8067,"sk":8068,"ĠBrig":8069,"ifer":8070,"ĠHealth":8071,"ĠDead":8072,"ĠHungary":8073,"Ġneighborhood":8074,"die":8075,"Ġboys":8076,"Ġpric":8077,"imeter":8078,"Ġbombers":8079,"alions":8080,"ĠPolit":8081,"Ġdrawing":8082,"ĠCountry":8083,"ĠÃĨ":8084,"ĠBenj":8085,"ĠChristopher":8086,"mers":8087,"ĠDance":8088,"ĠReturn":8089,"ĠBan":8090,"Ġinaug":8091,"Ġju":8092,"ugby":8093,"Ġdoctor":8094,"Ġmand":8095,"Ġhousing":8096,"Ġdisplayed":8097,"Ġapproval":8098,"Ġtribute":8099,"Ġadjacent":8100,"ĠBelgium":8101,"ĠRoc":8102,"onnaissance":8103,"Ġcollapse":8104,"Ġturb":8105,"Ġcredits":8106,"Ġaware":8107,"eu":8108,"Ġjoining":8109,"Ġlisting":8110,"wa":8111,"ĠHamp":8112,"ods":8113,"Ġ01":8114,"Ġcreator":8115,"Ġgrown":8116,"Ġdesignation":8117,"ĠDiego":8118,"bra":8119,"ĠDC":8120,"ĠEvent":8121,"odore":8122,"ante":8123,"zz":8124,"ĠShakesp":8125,"Ġpartnership":8126,"ĠRand":8127,"Ġadvis":8128,"Ġfung":8129,"ĠCold":8130,"Ġexplo":8131,"Ġprotagonist":8132,"Ġrefere":8133,"iac":8134,"Ġstorms":8135,"Ġmoments":8136,"Äį":8137,"ĠRepresent":8138,"Ġarts":8139,"Ġacted":8140,"Ġcreative":8141,"icy":8142,"ĠMedal":8143,"Ġchanging":8144,"Ġpowered":8145,"ĠGab":8146,"Ġwheel":8147,"ĠMuch":8148,"Ġasks":8149,"Ġ*":8150,"ĠHud":8151,"ãģ":8152,"ĠKal":8153,"ĠLaure":8154,"itud":8155,"Ġrounds":8156,"Ġinstrumental":8157,"ĠChildren":8158,"Ġradar":8159,"Ġtrend":8160,"Ġvictories":8161,"velt":8162,"Ġpossession":8163,"ĠCamer":8164,"ĠLl":8165,"Ġ1908":8166,"Ġdollars":8167,"Ġels":8168,"ĠBeck":8169,"Ġpaintings":8170,"Ġcanal":8171,"Ġtreaty":8172,"Ġappointment":8173,"ounced":8174,"Ġcovering":8175,"ĠKhan":8176,"ĠMichel":8177,"Ġelsewhere":8178,"sters":8179,"Ġ1905":8180,"Ġvillages":8181,"Ġsurvive":8182,"ĠCred":8183,"esh":8184,"Ġminimal":8185,"Ġ1909":8186,"Ġeliminated":8187,"ĠRecord":8188,"otten":8189,"ĠLegacy":8190,"icts":8191,"Ġscientists":8192,"Ġsurprise":8193,"ĠBenjamin":8194,"ĠGuardian":8195,"Ġpool":8196,"Ġinnov":8197,"Ġprecip":8198,"Ã§":8199,"Ġtelling":8200,"ĠKurt":8201,"ĠMinnesota":8202,"ivated":8203,"ĠHills":8204,"Ġoccupation":8205,"Ġseeking":8206,"ĠRoose":8207,"ĠMississipp":8208,"Ġbrick":8209,"Ġhelic":8210,"Ġarriving":8211,"Ġrhythm":8212,"cop":8213,"Ġsuicide":8214,"Ġanaly":8215,"Ġloan":8216,"Ġnewspapers":8217,"Ġemperor":8218,"Ġhelping":8219,"ĠVietnamese":8220,"ecraft":8221,"ĠHockey":8222,"Ġpurposes":8223,"Ġbenefit":8224,"Ġtwin":8225,"Ġsmooth":8226,"ĠAlfred":8227,"Ġvalues":8228,"ĠAR":8229,"Ġoccasions":8230,"ouri":8231,"ĠSet":8232,"Ġgard":8233,"active":8234,"ĠInterstate":8235,"ĠFal":8236,"Ġunlike":8237,"ĠManhatt":8238,"Ġdispute":8239,"ĠAdminist":8240,"ĠHong":8241,"rupted":8242,"Ġfishing":8243,"ĠHind":8244,"ĠDiv":8245,"ĠManhattan":8246,"vy":8247,"Ġoption":8248,"ĠTun":8249,"ĠThor":8250,"Ġdegrees":8251,"ĠStevens":8252,"Ġwet":8253,"Ġ105":8254,"Ġgat":8255,"ĠWalker":8256,"orious":8257,"Ġmurd":8258,"uman":8259,"Ġ125":8260,"Ġsoil":8261,"ographical":8262,"roid":8263,"Ġmanuscript":8264,"no":8265,"ĠLin":8266,"Ġschedule":8267,"Ġstruggle":8268,"Ġbalance":8269,"ĠAff":8270,"ĠFranklin":8271,"Ġ04":8272,"Ġpreserved":8273,"ĠPeninsula":8274,"ĠComb":8275,"rm":8276,"Ġcryst":8277,"overs":8278,"ĠShel":8279,"ĠFlight":8280,"ĠPerform":8281,"ĠSon":8282,"Ġresumed":8283,"ĠAnim":8284,"Ġcircumst":8285,"ĠRoosevelt":8286,"gon":8287,"ĠTrust":8288,"ĠKansas":8289,"Ġ1907":8290,"ĠBh":8291,"acks":8292,"Ġsurvivors":8293,"orph":8294,"Ġpublicly":8295,"Ġcompeted":8296,"ĠÄ":8297,"Ġcateg":8298,"munition":8299,"nik":8300,"Ġflash":8301,"atherine":8302,"Ġcooper":8303,"Ġviolent":8304,"Ġ164":8305,"Ġcandidates":8306,"rix":8307,"Ġhonour":8308,"Ġpy":8309,"rome":8310,"Ġprocl":8311,"Ġintensified":8312,"ĠBull":8313,"ĠWard":8314,"Ġspan":8315,"ishment":8316,"Ġimpossible":8317,"ĠPortland":8318,"Ġpilots":8319,"Ġwrest":8320,"Ġdies":8321,"acle":8322,"ĠFried":8323,"action":8324,"ĠIndustry":8325,"Ġneutral":8326,"Ġwedding":8327,"ĠNash":8328,"Ġbid":8329,"incial":8330,"SP":8331,"ĠIce":8332,"Ġabilities":8333,"Ġcoordin":8334,"Ġcook":8335,"ulating":8336,"Ġbeautiful":8337,"mph":8338,"sky":8339,"Ġalignment":8340,"Ġconcrete":8341,"Ġmulti":8342,"ĠSatur":8343,"oking":8344,"Ġassisted":8345,"ĠHotel":8346,"ĠPhilippines":8347,"ĠBorn":8348,"fted":8349,"ĠVI":8350,"Ġpoison":8351,"Ġargument":8352,"ĠLith":8353,"Ġprosp":8354,"Ġdefeating":8355,"Ġconsult":8356,"Ġadvoc":8357,"Ġelectronic":8358,"obile":8359,"Ġteaching":8360,"Ġnations":8361,"Ġ1880":8362,"ĠBuilding":8363,"ĠDom":8364,"ensions":8365,"Ġsimpl":8366,"Ġbusinesses":8367,"Ġcustom":8368,"isp":8369,"Ġlists":8370,"Ġovert":8371,"ĠPle":8372,"ĠJos":8373,"Ġrivers":8374,"aph":8375,"Ġserial":8376,"ilty":8377,"ĠNative":8378,"Ġ165":8379,"Ġlem":8380,"Ġdiscip":8381,"ĠCole":8382,"Ġdanc":8383,"Ġelabor":8384,"Ġabsol":8385,"ĠWolf":8386,"Ġsuitable":8387,"Ġopponent":8388,"Ġassists":8389,"ĠMississippi":8390,"Ġagricultural":8391,"ĠLam":8392,"ĠBrun":8393,"Ġmines":8394,"Ġencounter":8395,"Ġoxygen":8396,"Ġsubmitted":8397,"Ġfoundation":8398,"Ġinteresting":8399,"Ġtunnel":8400,"eare":8401,"à¤":8402,"Ġsigning":8403,"ĠDigital":8404,"Ġparent":8405,"ĠArea":8406,"Ġbacking":8407,"Ġfifteen":8408,"Ġscholar":8409,"ĠCob":8410,"ĠBlues":8411,"Ġunderstanding":8412,"itated":8413,"CA":8414,"Ġbehalf":8415,"ĠDw":8416,"rows":8417,"iveness":8418,"Ġsunk":8419,"Ġciting":8420,"icer":8421,"ĠHem":8422,"Ġwaves":8423,"Ġgrey":8424,"Ġsank":8425,"ĠWol":8426,"ĠSullivan":8427,"Ġpercentage":8428,"ĠAlexand":8429,"Ġforests":8430,"face":8431,"Ġninet":8432,"Ġammunition":8433,"Ġsymptoms":8434,"ĠShakespeare":8435,"dale":8436,"ĠTag":8437,"Ġorbit":8438,"Ġspiritual":8439,"ctic":8440,"ĠDod":8441,"ĠCampbell":8442,"ĠTenness":8443,"bl":8444,"Ġparish":8445,"unch":8446,"Ġsubjects":8447,"ĠHalo":8448,"Ġforty":8449,"Ġskull":8450,"Ġsituated":8451,"Ġclosing":8452,"ĠAthlet":8453,"Ġimperial":8454,"ĠHindu":8455,"Ġnom":8456,"Ġsigns":8457,"Ġjunction":8458,"ĠVinc":8459,"Ġrepairs":8460,"alities":8461,"ĠProm":8462,"agen":8463,"Ġusual":8464,"ĠKings":8465,"ĠNon":8466,"ĠHero":8467,"onymous":8468,"Ġresolution":8469,"Ġillness":8470,"Ġvoiced":8471,"Ġdeliber":8472,"Ġportra":8473,"ĠSteven":8474,"Ġcorpor":8475,"ĠRab":8476,"asters":8477,"Ġassess":8478,"Ġcontroll":8479,"ĠBox":8480,"Ġfunctions":8481,"Ġaudiences":8482,"Ġattendance":8483,"ĠHistoric":8484,"ĠFriend":8485,"ĠLucas":8486,"10":8487,"ĠRace":8488,"ĠDest":8489,"ĠJosh":8490,"Ġasking":8491,"lah":8492,"Ġdisaster":8493,"ĠEgyptian":8494,"Ġcollaboration":8495,"ĠKu":8496,"Ġrestaurant":8497,"father":8498,"amic":8499,"Ġstring":8500,"Ġfeelings":8501,"Ġsuspended":8502,"ĠMack":8503,"Ġunderground":8504,"Ġflights":8505,"Ġmountains":8506,"Ġlieutenant":8507,"Ġworship":8508,"Ġevil":8509,"amps":8510,"Ġtargets":8511,"Ġcargo":8512,"ĠRen":8513,"Ġaffairs":8514,"Ġexit":8515,"Ġ1870":8516,"ĠTennessee":8517,"Ġearthqu":8518,"Äĥ":8519,"aron":8520,"ĠWarren":8521,"Ġoperational":8522,"Ġiniti":8523,"Ġpron":8524,"Ġwilling":8525,"ĠLouisiana":8526,"ĠMargaret":8527,"rator":8528,"sex":8529,"Ġ1906":8530,"Ġaffair":8531,"Ġrecre":8532,"rus":8533,"ËĪ":8534,"osm":8535,"Ġfuneral":8536,"ĠDepression":8537,"ori":8538,"Ġanch":8539,"Ġaimed":8540,"ĠLabour":8541,"Ġprol":8542,"resents":8543,"Ġ360":8544,"ĠMontreal":8545,"ĠTan":8546,"idd":8547,"Ġcompilation":8548,"ĠMcL":8549,"Ġ1904":8550,"ĠPalest":8551,"Ġpoorly":8552,"Ġdocuments":8553,"Ġabol":8554,"Ġfiled":8555,"uv":8556,"ques":8557,"Ġlect":8558,"Ġmeasured":8559,"uable":8560,"Ġadopt":8561,"ĠMissouri":8562,"Ġsector":8563,"Ġsubt":8564,"Ġaffili":8565,"Ġfavorable":8566,"racts":8567,"Ġregistered":8568,"Ġliked":8569,"rants":8570,"weet":8571,"Ġrecognised":8572,"Ġrout":8573,"Ġelder":8574,"Ġconscious":8575,"Ġcircuit":8576,"ĠApple":8577,"Ġstatue":8578,"Ġtemporarily":8579,"Ġbot":8580,"andal":8581,"Ġexplosion":8582,"ateur":8583,"ĠStat":8584,"Ġshells":8585,"Ġentertainment":8586,"Ġrepresents":8587,"Ġprofessor":8588,"ĠCritics":8589,"ĠNag":8590,"fe":8591,"anium":8592,"Ġjazz":8593,"Ġreplacing":8594,"ĠBilly":8595,"ĠDragon":8596,"ĠMitchell":8597,"ception":8598,"ĠRing":8599,"Ġsequences":8600,"ĠCow":8601,"Ġpreparation":8602,"ĠJoh":8603,"ĠStr":8604,"ĠSmall":8605,"Ġfifty":8606,"inea":8607,"ika":8608,"Ġben":8609,"ĠCzech":8610,"idel":8611,"Ġoffering":8612,"ĠKirk":8613,"Ġartwork":8614,"Ġinterpre":8615,"ĠIndependent":8616,"Ġ03":8617,"overe":8618,"Ġresidence":8619,"Ġrestoration":8620,"ĠSnow":8621,"ĠPed":8622,"Ġcyl":8623,"gate":8624,"Ġrig":8625,"Ġdirectors":8626,"Ġnucle":8627,"ĠGraham":8628,"ĠMess":8629,"ĠVis":8630,"Ġmargin":8631,"ĠBusiness":8632,"Ġwore":8633,"adi":8634,"ĠMes":8635,"Ġterror":8636,"ĠMagn":8637,"ĠFem":8638,"orders":8639,"era":8640,"Ġreluct":8641,"Ġreflected":8642,"ĠNear":8643,"Ġoverw":8644,"Ġprime":8645,"Ġexpensive":8646,"issions":8647,"species":8648,"Ġalliance":8649,"Ġsuggesting":8650,"ĠYe":8651,"Ġtouring":8652,"Ġthinking":8653,"inental":8654,"ĠLov":8655,"Ġcompleting":8656,"artney":8657,"Ġrebuilt":8658,"Ġalcohol":8659,"ancell":8660,"Ġamongst":8661,"Ġbanks":8662,"unc":8663,"bishop":8664,"Ġfrig":8665,"CC":8666,"ĠMaur":8667,"ĠUE":8668,"ĠSeven":8669,"ylan":8670,"Ġhorror":8671,"race":8672,"Ġescaped":8673,"Ġpulled":8674,"Ġbay":8675,"ellect":8676,"quir":8677,"Ġlacked":8678,"ĠAriz":8679,"Ġcancelled":8680,"ĠFrid":8681,"Ġgrav":8682,"ĠCuba":8683,"rep":8684,"ĠEdge":8685,"Ġarmored":8686,"Ġcod":8687,"Ġdimens":8688,"Ġcoverage":8689,"TA":8690,"Ġreven":8691,"Ġwasn":8692,"Ġracing":8693,"Ġamounts":8694,"Ġclearly":8695,"acon":8696,"ĠChand":8697,"Ġdecides":8698,"ĠGuide":8699,"Ġengagement":8700,"Ġpredomin":8701,"Ġtribes":8702,"Ġargues":8703,"Ġerupt":8704,"Ġcolonies":8705,"iph":8706,"Ġdramatic":8707,"Ġgarden":8708,"Ġfamiliar":8709,"Ġcommunication":8710,"apping":8711,"overeign":8712,"Ġpatterns":8713,"Ġcous":8714,"Ġrit":8715,"ĠIndies":8716,"Ġmarks":8717,"ĠPhoen":8718,"ĠFiles":8719,"Ġdrove":8720,"okes":8721,"urally":8722,"Ġownership":8723,"rak":8724,"ĠTamil":8725,"Ġseed":8726,"Ġremnants":8727,"Ġperspective":8728,"Ġmerchant":8729,"ĠCher":8730,"ĠPersian":8731,"uary":8732,"Ġsaved":8733,"ĠSony":8734,"storm":8735,"Ġgang":8736,"ĠGrey":8737,"ĠArizona":8738,"Ġcontributions":8739,"ĠSaturday":8740,"Ġmathemat":8741,"Ġpoems":8742,"Ġsolution":8743,"Ġbadly":8744,"Ġprint":8745,"Ġfastest":8746,"Ġadministrative":8747,"Ġwicket":8748,"Ġfalse":8749,"Ġtag":8750,"Ġexecut":8751,"ĠMarie":8752,"Ġ115":8753,"Ġarmament":8754,"Ġcrews":8755,"Ġplayoffs":8756,"ti":8757,"Ãº":8758,"ĠDylan":8759,"Ġmilitia":8760,"ieties":8761,"Ġexcav":8762,"Ġartistic":8763,"ĠScout":8764,"Ġcharacterized":8765,"Ġbulk":8766,"athy":8767,"Ġboundary":8768,"Ġseverely":8769,"Ġinstitutions":8770,"Ġrising":8771,"Ġearning":8772,"exp":8773,"je":8774,"ses":8775,"Ġflagship":8776,"ĠConfederate":8777,"ĠBureau":8778,"ĠLas":8779,"Ġdisappoin":8780,"fish":8781,"idency":8782,"Ġkings":8783,"Ġretail":8784,"ĠPa":8785,"oga":8786,"Ġdepending":8787,"Ġinhabitants":8788,"Ġnotice":8789,"itting":8790,"Ġbran":8791,"Ġcontext":8792,"ova":8793,"omber":8794,"Ġexplains":8795,"Ġideal":8796,"Ġdistinctive":8797,"bre":8798,"orer":8799,"mented":8800,"Ġfrust":8801,"Ġdemonstrated":8802,"Ġthrew":8803,"Ġinland":8804,"Ġcomparison":8805,"ĠOklah":8806,"Ġbronze":8807,"Ġgenetic":8808,"Ġrestricted":8809,"Ġcondem":8810,"equ":8811,"Ġranks":8812,"Ġbowling":8813,"Ġranging":8814,"cru":8815,"Ġrecip":8816,"Ġarrive":8817,"Ġfallen":8818,"ĠSin":8819,"elli":8820,"Ġearn":8821,"Ġsisters":8822,"ĠAustrian":8823,"Ġcontrols":8824,"ectic":8825,"uations":8826,"Ġquiet":8827,"ivia":8828,"ĠNik":8829,"Ġexplain":8830,"ĠSwitzer":8831,"ĠAmy":8832,"Ġgap":8833,"ĠLang":8834,"Ġmaneu":8835,"Ġloop":8836,"ĠProgram":8837,"ĠSuch":8838,"ĠLiz":8839,"Ġvel":8840,"ĠkW":8841,"Ġobvious":8842,"ĠBroadway":8843,"Ġwider":8844,"life":8845,"Ġpractices":8846,"Ġwants":8847,"Ġelectron":8848,"Ġ1901":8849,"Ġrevol":8850,"Ġ174":8851,"ĠHarvey":8852,"ĠWilhelm":8853,"Ġvulner":8854,"Ġtip":8855,"Ġtrick":8856,"ĠEconom":8857,"formation":8858,"ĠSwitzerland":8859,"Ġshield":8860,"Ġconservative":8861,"Ġriders":8862,"ĠMrs":8863,"ĠMurphy":8864,"Ġfaster":8865,"Ġmental":8866,"lings":8867,"otton":8868,"ĠABC":8869,"Ġacceler":8870,"asts":8871,"ocking":8872,"Ġnorthward":8873,"Ġexhibition":8874,"Ġkit":8875,"Ġmeat":8876,"Ġsynd":8877,"ĠNa":8878,"Ġsurge":8879,"Ġframe":8880,"Ġdistinguished":8881,"Ġplus":8882,"Ġevolved":8883,"Ġspotted":8884,"eton":8885,"ĠBarry":8886,"Ġpace":8887,"oven":8888,"Ġexclud":8889,"ĠDelaware":8890,"Ġreaches":8891,"tha":8892,"Ġmillimet":8893,"Ġsatellite":8894,"pha":8895,"uma":8896,"Ġnominations":8897,"Ġtriple":8898,"anton":8899,"rÃ©":8900,"Ġprepare":8901,"Ġpalace":8902,"Ġapplication":8903,"hu":8904,"Ġagency":8905,"ĠOklahoma":8906,"EC":8907,"Ġgate":8908,"ĠFederation":8909,"Ġwreck":8910,"ĠTel":8911,"inations":8912,"Ġquarterback":8913,"Ġdominant":8914,"Ġstorage":8915,"Ġtex":8916,"Ġhouseholds":8917,"Ġarmour":8918,"sequently":8919,"ruption":8920,"Ġcarriers":8921,"ĠClar":8922,"ĠOriginal":8923,"Ġprotein":8924,"Ġsubspecies":8925,"Ġpredicted":8926,"Ġautobi":8927,"ĠRat":8928,"Ġ02":8929,"Ġtyphoon":8930,"Ġ1903":8931,"ĠBomb":8932,"Ġvs":8933,"Ġslaves":8934,"Ġ155":8935,"Ġattained":8936,"Ġblocks":8937,"urer":8938,"Ġboss":8939,"Ġintellect":8940,"Ġallies":8941,"Ġbattalions":8942,"Ġ1902":8943,"grade":8944,"Ġprinted":8945,"Ġrepeatedly":8946,"eland":8947,"Ġabund":8948,"uki":8949,"Ġpredecessor":8950,"Ġvast":8951,"ĠLithuan":8952,"Ġthor":8953,"Ġfixed":8954,"Ġstores":8955,"Ġstrict":8956,"Ġvertical":8957,"Ġpeaking":8958,"Ġsurgery":8959,"Ġarticles":8960,"ĠPerry":8961,"ĠRidge":8962,"din":8963,"ĠMik":8964,"Ġoutl":8965,"ĠHarv":8966,"Ġtack":8967,"oned":8968,"iders":8969,"Ġyield":8970,"ĠOriginally":8971,"Ġsignal":8972,"Ġexcellent":8973,"riptions":8974,"ĠLeslie":8975,"lus":8976,"ĠAy":8977,"ĠAld":8978,"ĠFif":8979,"Ġwestward":8980,"ĠBaseball":8981,"Ġbombs":8982,"ĠBaby":8983,"Ġphilosophy":8984,"Å«":8985,"Ġillegal":8986,"IS":8987,"rose":8988,"Ġdisagre":8989,"ascar":8990,"imen":8991,"ĠVe":8992,"Ġbiographer":8993,"ĠTokyo":8994,"Ġphenomen":8995,"Ġadventure":8996,"Ġperceived":8997,"Ġpretty":8998,"Ġremarked":8999,"ĠRih":9000,"vant":9001,"ĠDS":9002,"ĠLess":9003,"Ġwaiting":9004,"Ġcircumstances":9005,"ĠHur":9006,"icate":9007,"Ġcomfort":9008,"ĠDenmark":9009,"ĠMother":9010,"Ġuseful":9011,"Ġmeetings":9012,"Ġseriously":9013,"Ġchoose":9014,"Ġtight":9015,"aro":9016,"ĠHann":9017,"Ġcurren":9018,"Ġapartment":9019,"ĠJonathan":9020,"Ġsurrend":9021,"TW":9022,"Ġcivilian":9023,"ĠRico":9024,"Ġcoinc":9025,"itage":9026,"Ġreconnaissance":9027,"ĠBernard":9028,"ĠJohnny":9029,"yler":9030,"aughters":9031,"Ġsket":9032,"ĠPlayers":9033,"ĠCampaign":9034,"ĠAtlanta":9035,"ĠTerrit":9036,"Ġdrugs":9037,"Ġsick":9038,"Ġgust":9039,"rings":9040,"ĠRoll":9041,"ĠRihanna":9042,"ĠChel":9043,"Ġphone":9044,"Ġdollar":9045,"ĠAbbey":9046,"apolis":9047,"Ġlayer":9048,"Ġbreat":9049,"ĠTon":9050,"Ġwhilst":9051,"Ġchamber":9052,"Ġretain":9053,"azing":9054,"Ġreaders":9055,"Ġinstitution":9056,"ĠPil":9057,"Ġ101":9058,"ĠJuan":9059,"Ġcasting":9060,"emen":9061,"ĠWor":9062,"ĠNixon":9063,"Ġrub":9064,"Ġfriendship":9065,"ng":9066,"Ġholid":9067,"Ġsimilarly":9068,"Ġvisiting":9069,"Ġstrengthened":9070,"rik":9071,"Ġmatters":9072,"Ġtiss":9073,"LC":9074,"mi":9075,"estone":9076,"Ġalive":9077,"Ġdemanded":9078,"Ġhorn":9079,"ĠMaj":9080,"Ġplanets":9081,"rint":9082,"ĠChen":9083,"esses":9084,"ĠEdwards":9085,"ĠInn":9086,"Ġsimultaneously":9087,"inian":9088,"Ġ168":9089,"Ġlegacy":9090,"Ġenlisted":9091,"mingham":9092,"Ġpanel":9093,"arth":9094,"Ġalternate":9095,"ĠPitts":9096,"jan":9097,"ĠArnold":9098,"ĠMcM":9099,"onomy":9100,"Ġempt":9101,"Ġinsisted":9102,"ĠOpp":9103,"ĠRailroad":9104,"ĠWag":9105,"Ġshipping":9106,"Ġbombing":9107,"Ġrevers":9108,"estyle":9109,"ĠKeith":9110,"gro":9111,"Ġlanes":9112,"acc":9113,"Ġjustice":9114,"ĠSoul":9115,"Ġhook":9116,"ĠRal":9117,"ĠRub":9118,"ĠLex":9119,"Ġdemands":9120,"Ġmainland":9121,"Ġneighb":9122,"rov":9123,"Ġrevenue":9124,"ĠMadag":9125,"Ġathletes":9126,"ĠPrize":9127,"ĠIran":9128,"Ġpromised":9129,"ĠJimmy":9130,"PA":9131,"entle":9132,"Ġroots":9133,"Ġportions":9134,"aration":9135,"Ġconsole":9136,"ghan":9137,"ĠSem":9138,"Ġpersonally":9139,"Ġstruggled":9140,"regation":9141,"Ġguilty":9142,"Ġlooks":9143,"Ġdrivers":9144,"ĠInternet":9145,"Ġguitarist":9146,"Ġdefinition":9147,"Ġcontinu":9148,"Ġpropag":9149,"Ġpione":9150,"Ġbacked":9151,"ĠMicro":9152,"lain":9153,"Ġbehaviour":9154,"ĠRachel":9155,"Ġorchestra":9156,"acre":9157,"Ġarmies":9158,"Ġaudition":9159,"Ġdiver":9160,"ĠPars":9161,"Ġsung":9162,"ĠCost":9163,"otyp":9164,"ĠJar":9165,"Ġartific":9166,"iti":9167,"ĠVik":9168,"Ġjobs":9169,"ĠFurthermore":9170,"ĠShaw":9171,"Ġdemolished":9172,"ĠYankees":9173,"odox":9174,"Ġ166":9175,"Ġoblig":9176,"ĠTracy":9177,"arant":9178,"Ġtheater":9179,"Ġstarring":9180,"Ġindu":9181,"ĠBach":9182,"ĠLost":9183,"agh":9184,"Ġmarketing":9185,"ĠHugh":9186,"ĠFel":9187,"Ġconspir":9188,"itis":9189,"Ġruling":9190,"Ġessential":9191,"ĠBirmingham":9192,"Ġdancing":9193,"azines":9194,"Ġbelieving":9195,"Ġfeels":9196,"ĠComple":9197,"Ġsurpass":9198,"ĠConstant":9199,"Ġpursue":9200,"Ġorganisation":9201,"Ġprofile":9202,"ĠGray":9203,"ĠEventually":9204,"ĠFat":9205,"inding":9206,"Ġcounties":9207,"Ġpunk":9208,"Ġcompens":9209,"Ġheading":9210,"ĠMans":9211,"atern":9212,"ĠCanter":9213,"ĠMcCartney":9214,"ication":9215,"ĠNine":9216,"Ġobst":9217,"Ġfactory":9218,"ĠImpact":9219,"Ġbonus":9220,"avery":9221,"Ġcup":9222,"Ġmining":9223,"Ġincreases":9224,"Ġcompliment":9225,"ĠObama":9226,"ĠUniversal":9227,"folk":9228,"Ġ109":9229,"ĠDefence":9230,"ĠSak":9231,"Ġdiscont":9232,"raction":9233,"Ġforecast":9234,"Ġdiscovers":9235,"Ġdelivery":9236,"Ġpages":9237,"apped":9238,"Ġexpression":9239,"ouver":9240,"ĠSig":9241,"umps":9242,"Ġerected":9243,"Ġclothing":9244,"Ġpatron":9245,"ĠJup":9246,"Ġelevation":9247,"ĠBuddh":9248,"Ġaffect":9249,"ĠEnterprise":9250,"Ġsucceed":9251,"Ġsq":9252,"ĠBaker":9253,"Ġports":9254,"ĠBobby":9255,"Ġmobile":9256,"Ġsalt":9257,"ĠHudson":9258,"ĠPhoenix":9259,"Ġmultipl":9260,"fle":9261,"Ġsad":9262,"Ġsecretary":9263,"ĠTol":9264,"ĠSi":9265,"ĠKl":9266,"cles":9267,"Ġstick":9268,"Ġorn":9269,"ĠPotter":9270,"Ġoverseas":9271,"ĠPearl":9272,"py":9273,"ĠPubl":9274,"Ġengage":9275,"Ġdoubt":9276,"ultan":9277,"Ġcrest":9278,"Ġhoriz":9279,"Ġacou":9280,"Ġmayor":9281,"ĠWayne":9282,"ĠKarl":9283,"Ġdefences":9284,"ĠConnectic":9285,"Ġdrink":9286,"Ġdemocr":9287,"Ġdeterior":9288,"ĠMadagascar":9289,"Ġkiss":9290,"ĠPeace":9291,"tario":9292,"Ġaccum":9293,"ĠGirls":9294,"ĠRights":9295,"ĠTodd":9296,"ĠConnecticut":9297,"Ġaltered":9298,"Ġsettlers":9299,"bird":9300,"inces":9301,"ĠNAS":9302,"irty":9303,"Ġrenov":9304,"Ġbaby":9305,"owed":9306,"Ġchest":9307,"aux":9308,"ĠBosn":9309,"OS":9310,"Ġpale":9311,"ĠHold":9312,"ĠOntario":9313,"Ġexpand":9314,"Ġobjective":9315,"ĠWorks":9316,"ĠMorrison":9317,"Ġstress":9318,"ello":9319,"Ġcancel":9320,"ĠDeb":9321,"Ġlegislature":9322,"ĠCanterbury":9323,"Ġhighways":9324,"shore":9325,"Ġlisten":9326,"warf":9327,"ensively":9328,"Ġconversion":9329,"ĠFriday":9330,"mat":9331,"oons":9332,"ĠPatt":9333,"Ġvoy":9334,"ĠKit":9335,"Ġmusician":9336,"ĠCommunity":9337,"mund":9338,"Ġwrestling":9339,"asant":9340,"ĠDiam":9341,"ĠManu":9342,"irts":9343,"Ġsoldier":9344,"Ġcampaigns":9345,"Ġaerial":9346,"stan":9347,"ĠRan":9348,"acked":9349,"Ġdisl":9350,"Ġorganised":9351,"Ġindicating":9352,"Ġcompounds":9353,"oker":9354,"Ġraising":9355,"pent":9356,"ĠGoth":9357,"Ġaftermath":9358,"Ġdecisions":9359,"ĠAllies":9360,"ĠLeonard":9361,"ĠNapoleon":9362,"rous":9363,"ĠFarm":9364,"aks":9365,"Ġraids":9366,"Ġsitting":9367,"Ġconcentration":9368,"aments":9369,"Ġscen":9370,"ĠSpart":9371,"Ġsolar":9372,"ĠBoys":9373,"Ġturret":9374,"ratropical":9375,"Ġdissipated":9376,"Ġhapp":9377,"Ġtrouble":9378,"yrus":9379,"Ġliquid":9380,"Ġhidden":9381,"Ġprove":9382,"ĠForeign":9383,"ĠCycl":9384,"Ġwealthy":9385,"ĠAS":9386,"ĠBath":9387,"ulous":9388,"ifies":9389,"Ġradical":9390,"Ġacknowledged":9391,"Ġrealized":9392,"Ġstriking":9393,"ĠLat":9394,"Ġdressed":9395,"ĠTNA":9396,"Ġexactly":9397,"Ġappropriate":9398,"oa":9399,"Ġanth":9400,"Ġdanger":9401,"ĠPy":9402,"Ġconfron":9403,"Ġimprovements":9404,"Ġpermitted":9405,"ĠPruss":9406,"ĠMountains":9407,"Ġchapel":9408,"Ġexecution":9409,"ĠKan":9410,"ĠWindows":9411,"ĠGriff":9412,"ĠTed":9413,"ĠLaur":9414,"Ġpublications":9415,"Ġski":9416,"Ġgraduated":9417,"Ġaggressive":9418,"Ġevacuated":9419,"Ġremoval":9420,"Ġencl":9421,"Ġfewer":9422,"Ġinterpretation":9423,"Ġprofit":9424,"Ġcelebrated":9425,"Ġbones":9426,"Ġsharp":9427,"ĠZe":9428,"Ġvenue":9429,"Ġobservations":9430,"ĠDall":9431,"ĠChampion":9432,"Ġmeter":9433,"Ġinitiated":9434,"Ġmac":9435,"otte":9436,"Ġtravels":9437,"Ġtheatrical":9438,"Ġnet":9439,"ĠGary":9440,"ĠLegend":9441,"uese":9442,"ĠOutstanding":9443,"ĠUEFA":9444,"ĠSeason":9445,"Ġ152":9446,"Ġsky":9447,"Ġstationed":9448,"OT":9449,"inister":9450,"Ġlin":9451,"atus":9452,"ivation":9453,"ĠVanc":9454,"Ġcannon":9455,"Ġtort":9456,"Ġfounding":9457,"itals":9458,"Ġdefending":9459,"Ġrequires":9460,"Ġrebellion":9461,"Ġpublishing":9462,"Ġoriginated":9463,"Ġsteps":9464,"itudes":9465,"ĠVancouver":9466,"Ġorigins":9467,"Ġconsidering":9468,"Ġjurisd":9469,"ĠLion":9470,"Ġestablishing":9471,"run":9472,"Ġdebt":9473,"ĠJupiter":9474,"olly":9475,"Ġextratropical":9476,"ĠSymph":9477,"Ġconnect":9478,"adal":9479,"ĠGate":9480,"ipper":9481,"Ġexplan":9482,"Ġbrill":9483,"Ġstrategic":9484,"Ġmush":9485,"ĠTriple":9486,"ugg":9487,"ĠMint":9488,"Ġyoungest":9489,"Ġsupple":9490,"ĠTit":9491,"ĠMem":9492,"ĠDrive":9493,"Ġapproaching":9494,"adier":9495,"ĠPap":9496,"rapped":9497,"Ġarrangements":9498,"Ġfantasy":9499,"Ġplacing":9500,"Ġshorter":9501,"ĠAbd":9502,"Ġcutting":9503,"ĠEdin":9504,"Ġannouncement":9505,"Ġguarant":9506,"Ġmagazines":9507,"Ġwalking":9508,"ĠChampions":9509,"Ġ104":9510,"Ġdonated":9511,"itively":9512,"Ġlying":9513,"annon":9514,"ĠAdministration":9515,"ĠLib":9516,"ennium":9517,"autical":9518,"phone":9519,"Ġerr":9520,"Ġconnecting":9521,"Ġhosts":9522,"Ġaspect":9523,"ĠPakistan":9524,"Ġmemor":9525,"Ġongoing":9526,"ĠStu":9527,"Ġmagic":9528,"Ã¦":9529,"ĠCov":9530,"hears":9531,"Ġ173":9532,"Ġdiscussion":9533,"ais":9534,"Ġing":9535,"ĠOur":9536,"Ġedited":9537,"ĠLen":9538,"aja":9539,"ĠBradman":9540,"Ġtalent":9541,"ĠPortuguese":9542,"ĠÃĨthel":9543,"Ġfunny":9544,"Ġ1860":9545,"Ġclosest":9546,"Ġinsects":9547,"Ġstrongest":9548,"ecution":9549,"Ġcolleagues":9550,"Ġcub":9551,"ĠShip":9552,"Ġglac":9553,"Ġputting":9554,"Ġtubes":9555,"hous":9556,"fts":9557,"Ġmal":9558,"Ġqualified":9559,"Ġwithdrawal":9560,"asa":9561,"ĠAlice":9562,"Ġlandscape":9563,"Ġrede":9564,"Ġgathered":9565,"Ġforth":9566,"Ġdecide":9567,"Ġbattlecru":9568,"Ġvolumes":9569,"Ġpredict":9570,"Ġhypothes":9571,"ĠDwight":9572,"Ġidentify":9573,"Ġangle":9574,"ĠNCAA":9575,"Ġcollapsed":9576,"à¸":9577,"Ġswitch":9578,"Ġcircle":9579,"Ġindicates":9580,"ĠTrophy":9581,"Ġchallenged":9582,"ĠMong":9583,"ĠGene":9584,"ĠJoy":9585,"Ġdesert":9586,"venth":9587,"ĠIsa":9588,"Ġmerely":9589,"Ġgray":9590,"Ġforg":9591,"Ġcoup":9592,"Ġsupplied":9593,"bow":9594,"ĠAnc":9595,"Ġconfront":9596,"Ġmarkets":9597,"Ġ1893":9598,"odge":9599,"Ġcaps":9600,"Ġwatershed":9601,"onium":9602,"ĠType":9603,"Ġbeam":9604,"earing":9605,"Ġpartial":9606,"Ġexposure":9607,"atra":9608,"Ġles":9609,"elta":9610,"ĠFleming":9611,"ĠMeteor":9612,"Ġdensity":9613,"Ġneighbour":9614,"Ġspecimen":9615,"ĠReserve":9616,"ĠHonor":9617,"Ġconventional":9618,"ĠChes":9619,"ĠDub":9620,"ĠMarvel":9621,"enna":9622,"Ġ1896":9623,"Ġbare":9624,"Ġbrig":9625,"ĠMission":9626,"ĠYears":9627,"avel":9628,"Ġplain":9629,"Ġlimits":9630,"ĠPam":9631,"anner":9632,"Ġdubbed":9633,"Ġshift":9634,"Ġspac":9635,"Ġhydrogen":9636,"ĠHampshire":9637,"join":9638,"agger":9639,"Ġvisits":9640,"Ġcorps":9641,"Ġconcentrated":9642,"igenous":9643,"Ġmembership":9644,"ĠAfghan":9645,"ĠOliver":9646,"Ġfeeding":9647,"Ġnavy":9648,"ieth":9649,"Ġannually":9650,"Ġeducational":9651,"ĠEdinburgh":9652,"Ġcock":9653,"Ġexha":9654,"ĠStri":9655,"ĠBak":9656,"Ġbearing":9657,"ĠThose":9658,"Ġtopped":9659,"soft":9660,"Ġprovision":9661,"Ġseized":9662,"Ġassembly":9663,"ĠFlying":9664,"Ġclin":9665,"Ġprize":9666,"ĠTob":9667,"otal":9668,"ocy":9669,"iper":9670,"Ġ127":9671,"Ġranges":9672,"Ġtrough":9673,"ĠSomet":9674,"irates":9675,"ista":9676,"ĠBeng":9677,"Ġ1898":9678,"Ġattending":9679,"athers":9680,"Ġmarry":9681,"Ġparody":9682,"Ġemphasis":9683,"ĠMosc":9684,"Ġchampions":9685,"Ġduo":9686,"ĠVictorian":9687,"ĠSay":9688,"ĠNatural":9689,"ĠPrincip":9690,"amental":9691,"ĠCharts":9692,"Ġlegit":9693,"Ã¼r":9694,"Ġbacter":9695,"ĠTig":9696,"hard":9697,"ĠWhere":9698,"Ġoffense":9699,"Ġ350":9700,"Ġproductions":9701,"Ġinvestigate":9702,"Ġ172":9703,"Ġdogs":9704,"Ġfurn":9705,"arr":9706,"ĠBegin":9707,"Ġweekly":9708,"Ġbasin":9709,"ĠFinally":9710,"uzzle":9711,"ĠPin":9712,"Ġtalking":9713,"Ġexercise":9714,"Ġanime":9715,"ĠBeaut":9716,"Ġbone":9717,"Ġunless":9718,"Ġjury":9719,"ĠMonte":9720,"ĠDemocrats":9721,"Ġticket":9722,"onica":9723,"ĠList":9724,"ĠKap":9725,"Ġresol":9726,"ĠMeg":9727,"ĠPersonal":9728,"Ġ111":9729,"Ġpromotional":9730,"Ġflooded":9731,"ĠTurner":9732,"Ġfill":9733,"Ġbond":9734,"ĠMaya":9735,"Ġcruc":9736,"ĠCelt":9737,"assador":9738,"ĠYorkshire":9739,"Ġceased":9740,"oys":9741,"ĠRalph":9742,"terior":9743,"Ġfortress":9744,"Ġadvertising":9745,"Ġemployment":9746,"Ġstere":9747,"ĠLloyd":9748,"ĠMS":9749,"Ġregime":9750,"Ġpersons":9751,"Ġbirthday":9752,"Ġportrayal":9753,"ĠArgentina":9754,"Ã°":9755,"erk":9756,"Ġuncle":9757,"ĠKo":9758,"ported":9759,"ĠAx":9760,"ĠMand":9761,"Ġuncom":9762,"Ġqueen":9763,"ĠOverall":9764,"Ġunderwent":9765,"Ġattitude":9766,"rising":9767,"Ġinvent":9768,"ĠPink":9769,"ĠOm":9770,"Ġscattered":9771,"Ġoutput":9772,"Ġcoff":9773,"ĠVillage":9774,"Ġphotographs":9775,"Ġeval":9776,"Ġconservation":9777,"Ġsending":9778,"pled":9779,"ĠConvention":9780,"Ġhitting":9781,"ĠChristianity":9782,"ayan":9783,"Ġballad":9784,"Ġexperimental":9785,"Ġassembled":9786,"ĠBrothers":9787,"ĠTak":9788,"Ġmature":9789,"Ġguide":9790,"Ġquestioned":9791,"aft":9792,"rawn":9793,"Ġcommentary":9794,"Ġoverwhel":9795,"aders":9796,"Ġdrinking":9797,"Ġbishop":9798,"ashes":9799,"oviÄĩ":9800,"Ġimagery":9801,"Ġsoftware":9802,"ĠLt":9803,"Ġexternal":9804,"Ġ1899":9805,"ĠJerry":9806,"ĠCraig":9807,"ĠHaz":9808,"Ġendors":9809,"Ġprovincial":9810,"Ġreplied":9811,"Ġterrain":9812,"Ġunclear":9813,"ĠProp":9814,"ĠKam":9815,"ĠBooks":9816,"Ġtranslation":9817,"Ġaggreg":9818,"ĠChronicle":9819,"ĠFund":9820,"Ġoutd":9821,"Ġproclaim":9822,"haw":9823,"Ġlawyer":9824,"ĠPrim":9825,"hammad":9826,"Ġswimming":9827,"Ġwire":9828,"Ġpapers":9829,"ications":9830,"Ġclock":9831,"hin":9832,"Ġcomprom":9833,"ologies":9834,"Ġthirteen":9835,"Ġliberal":9836,"Ġempire":9837,"ĠCollins":9838,"Ġcens":9839,"Ġtrail":9840,"Ġrepresentatives":9841,"rapy":9842,"ĠMarge":9843,"Ġlawsu":9844,"Ġcousin":9845,"ĠCad":9846,"Ġcoat":9847,"ĠEug":9848,"err":9849,"idal":9850,"Ġstreak":9851,"Ġwait":9852,"ersed":9853,"Ġshr":9854,"Ġburial":9855,"ĠQueensland":9856,"ĠApoll":9857,"Ġmonaster":9858,"ĠFinland":9859,"Ġpictures":9860,"Ġloved":9861,"Ġduration":9862,"amas":9863,"ĠLock":9864,"ĠAndre":9865,"Ġacoustic":9866,"ioc":9867,"ĠGlen":9868,"Ġmovies":9869,"Ġslave":9870,"Ġexpert":9871,"Ġdevast":9872,"Ġpenet":9873,"Ġexclusive":9874,"OK":9875,"Ġsang":9876,"ĠGor":9877,"Ġstronger":9878,"Ġelectricity":9879,"Ġaccompanying":9880,"Ġbranches":9881,"Ġ108":9882,"ĠHowe":9883,"Ġsurrendered":9884,"Ġarrives":9885,"Ġdaughters":9886,"imm":9887,"Ġbeats":9888,"Ġidentical":9889,"Ġreinforcements":9890,"Ġcad":9891,"aman":9892,"Ġtenure":9893,"ĠHardy":9894,"ĠPad":9895,"ĠWii":9896,"ensed":9897,"owski":9898,"ĠSimilarly":9899,"ĠBoat":9900,"atever":9901,"ĠNorfolk":9902,"Ġsuccession":9903,"Ġreveal":9904,"Ġdread":9905,"place":9906,"ĠJun":9907,"pler":9908,"Ġcharter":9909,"ĠProtest":9910,"ĠHawaii":9911,"Ġreverse":9912,"ĠSle":9913,"ĠHeritage":9914,"Ġreducing":9915,"Ġdestroying":9916,"Ġpush":9917,"riors":9918,"Ġcomponents":9919,"Ġ169":9920,"ricts":9921,"ĠProfessor":9922,"Ġprices":9923,"rod":9924,"ĠSign":9925,"ĠRic":9926,"ĠJama":9927,"ellation":9928,"ĠBurton":9929,"ĠServices":9930,"Ġprev":9931,"Ġtrading":9932,"ĠDonald":9933,"ĠNicholas":9934,"Ġexclusively":9935,"ĠDin":9936,"Ġcomponent":9937,"Ġscar":9938,"Ġrecall":9939,"Ġmyst":9940,"ĠBelgian":9941,"erg":9942,"illes":9943,"Ġfailing":9944,"Ġsleep":9945,"Ġspaces":9946,"Ġcompeting":9947,"Ġ1850":9948,"Ġmechanical":9949,"ĠCommunist":9950,"Ġtomb":9951,"Ġgovernments":9952,"olen":9953,"Ġstops":9954,"ĠDak":9955,"Ġcounterp":9956,"Ġisot":9957,"ibilities":9958,"eyer":9959,"Ġquad":9960,"enesis":9961,"ĠRangers":9962,"ĠBennett":9963,"Ġprecipitation":9964,"ĠCatherine":9965,"itarian":9966,"ĠVincent":9967,"Ġatomic":9968,"angel":9969,"Ġpolar":9970,"Ġpole":9971,"Ġreward":9972,"abe":9973,"Ġslavery":9974,"Ġflowers":9975,"Ġdict":9976,"ĠCricket":9977,"Ġobsc":9978,"ĠTraining":9979,"Ġbanned":9980,"ĠThunder":9981,"Ġdevelopers":9982,"ĠDavies":9983,"ĠMedical":9984,"Ġcenters":9985,"Ġmini":9986,"ĠEmmy":9987,"Ġdevices":9988,"Ġfossil":9989,"case":9990,"hell":9991,"onian":9992,"Ġwish":9993,"ĠDram":9994,"ĠNi":9995,"Ġtraded":9996,"ĠCredits":9997,"esty":9998,"ĠDeep":9999,"Ġvaried":10000,"Ġelig":10001,"Ġcontribution":10002,"ĠTransportation":10003,"ĠMalt":10004,"ĠYellow":10005,"Ġconsistent":10006,"Ġwaste":10007,"ĠRud":10008,"Ġburned":10009,"Ġredes":10010,"IV":10011,"uras":10012,"Ġincom":10013,"Ġplatforms":10014,"ĠLiberal":10015,"ĠLocal":10016,"Ġconfirm":10017,"Ġpel":10018,"ĠLem":10019,"Ġconsiders":10020,"ĠSwift":10021,"legraph":10022,"ĠTax":10023,"ĠHob":10024,"ĠLiving":10025,"Ġarchitectural":10026,"Ġartificial":10027,"Ġow":10028,"ethel":10029,"ĠLook":10030,"Ġradiation":10031,"Ġtube":10032,"Ġbath":10033,"Ġhybrid":10034,"Ġintersects":10035,"Ġtalks":10036,"Ġearthquake":10037,"Ġ163":10038,"Ġhumor":10039,"ĠHughes":10040,"Ġsongwriter":10041,"Ġfourteen":10042,"ĠGuitar":10043,"Ġvirus":10044,"ĠFu":10045,"Ġdisb":10046,"ĠScientology":10047,"ĠCurt":10048,"rastructure":10049,"ĠMust":10050,"Ġproceeded":10051,"gs":10052,"ĠCO":10053,"Ġlie":10054,"Ġboilers":10055,"Ġelectrical":10056,"Ġfrequency":10057,"ĠNext":10058,"ĠHarvard":10059,"pike":10060,"Ġweigh":10061,"rost":10062,"Ġecc":10063,"Ġairfield":10064,"Ġadvised":10065,"Ġreviewed":10066,"Ġ1897":10067,"ĠMarket":10068,"Ġunderstood":10069,"acles":10070,"Ġheir":10071,"Ġdestroyer":10072,"Ġprofession":10073,"ĠPrix":10074,"Ġamateur":10075,"ĠDarwin":10076,"Ġimprovement":10077,"ĠPeters":10078,"Ġconflic":10079,"Ġhandled":10080,"onald":10081,"ĠAM":10082,"ĠDyn":10083,"Ġtexts":10084,"Ġcopper":10085,"encing":10086,"Ġinduct":10087,"Ġrein":10088,"Ġconceived":10089,"umble":10090,"ĠGallery":10091,"mith":10092,"ĠBald":10093,"Ġ106":10094,"ĠBlu":10095,"ĠHarbor":10096,"ĠSwiss":10097,"Ġrequirements":10098,"ĠAra":10099,"Ġnit":10100,"Ġsixteen":10101,"Ã¶n":10102,"ĠIndonesia":10103,"Ġsamples":10104,"ensis":10105,"Ġportr":10106,"Ġreferring":10107,"ĠSaxon":10108,"TS":10109,"bal":10110,"Ġphrase":10111,"uating":10112,"itely":10113,"Ġshares":10114,"Ġcharity":10115,"ĠMoscow":10116,"Ġtheore":10117,"Ġinvestment":10118,"Ġrespective":10119,"Ġtactics":10120,"ĠJTW":10121,"ĠJTWC":10122,"asm":10123,"Ġrecon":10124,"Ġreduction":10125,"rehens":10126,"eding":10127,"Ġcleared":10128,"ĠCameron":10129,"ĠSom":10130,"eto":10131,"ĠKate":10132,"ĠâĢ¦":10133,"ulty":10134,"Ġusers":10135,"Ġvoting":10136,"Ġparks":10137,"Ġcertainly":10138,"ĠOslo":10139,"strong":10140,"Ġ167":10141,"Ġpraising":10142,"Ġworn":10143,"ĠInv":10144,"ĠGeoff":10145,"Ġphotography":10146,"ĠPittsburgh":10147,"Ġsoph":10148,"Ġlock":10149,"Ġ154":10150,"Ġgrossing":10151,"ĠPic":10152,"Ġconnections":10153,"Ġlabour":10154,"Ġconstitutional":10155,"MI":10156,"Ġexceed":10157,"axy":10158,"ĠPhys":10159,"Ġruler":10160,"Ġflows":10161,"Ġspoken":10162,"Ġtoured":10163,"Ġautumn":10164,"etheless":10165,"Ġcommenced":10166,"Ġcommanding":10167,"Ġqualifying":10168,"Ġfold":10169,"ingham":10170,"ĠCraw":10171,"Ġsignature":10172,"tery":10173,"avor":10174,"ffield":10175,"Ġblind":10176,"Ġtonnes":10177,"ĠTow":10178,"Ġattorney":10179,"Ġcontinuous":10180,"Ġshoulder":10181,"Ġsurvival":10182,"Ġtransported":10183,"Ġsweet":10184,"Ġunlik":10185,"Ã«":10186,"Ġreorgan":10187,"ĠTerry":10188,"rh":10189,"Ġfasc":10190,"Ġnautical":10191,"Ġstuff":10192,"ĠUpper":10193,"Ġlegislative":10194,"OC":10195,"gom":10196,"Ġfisher":10197,"ĠAP":10198,"ĠBroadcast":10199,"icated":10200,"Ġunw":10201,"ĠAli":10202,"ĠAlaska":10203,"Ġconfidence":10204,"ean":10205,"Ġexists":10206,"ĠAntonio":10207,"Ġtaxes":10208,"ĠWallace":10209,"Ġenthusi":10210,"ĠMond":10211,"Ġcommunist":10212,"Ġpatients":10213,"Ġopportunities":10214,"Ġmelody":10215,"Ġrocks":10216,"ĠSweet":10217,"ĠMason":10218,"ĠRest":10219,"ĠMend":10220,"ĠPS":10221,"Ġtested":10222,"Ġrelocated":10223,"Ġcamps":10224,"Ġcompetitive":10225,"ĠMayor":10226,"Ġrevolt":10227,"ĠStill":10228,"porting":10229,"Ġdece":10230,"ĠAftermath":10231,"hum":10232,"Ġreinforced":10233,"Ġfulf":10234,"ario":10235,"Ġwithdrawn":10236,"ĠMicrosoft":10237,"ĠClay":10238,"ambers":10239,"Ġuranium":10240,"Ġmoon":10241,"pot":10242,"ĠEmer":10243,"Ġindeed":10244,"ashi":10245,"ĠSyria":10246,"Ġminority":10247,"Ġtranslated":10248,"Ġfairly":10249,"Ġnat":10250,"ĠGot":10251,"Ġcommanders":10252,"illo":10253,"Ġexplicit":10254,"ĠStef":10255,"Ġrevised":10256,"Ġtraveling":10257,"ĠTrail":10258,"ĠPast":10259,"ĠVel":10260,"Ġblues":10261,"minster":10262,"Ġsovereign":10263,"Ġpairs":10264,"ĠSid":10265,"ĠEnt":10266,"Ġimpression":10267,"Ġcartoon":10268,"ĠCass":10269,"ĠHD":10270,"oca":10271,"Ġmanga":10272,"expected":10273,"ĠOri":10274,"cester":10275,"bes":10276,"ĠSecurity":10277,"ĠGrace":10278,"ĠRichmond":10279,"Ġnoble":10280,"Ġcrops":10281,"avia":10282,"ĠAdv":10283,"Ġfram":10284,"Ġuncon":10285,"ĠSee":10286,"Ġdisplaced":10287,"Ġenforce":10288,"ĠRP":10289,"ĠExper":10290,"Ġprogramming":10291,"Ġextending":10292,"eared":10293,"ĠAer":10294,"ĠEc":10295,"ĠSheffield":10296,"Ġpromin":10297,"uto":10298,"ĠOfficer":10299,"ĠLarry":10300,"Ġcompound":10301,"Ġaccord":10302,"Ġprinciples":10303,"ĠFr":10304,"oda":10305,"ĠStars":10306,"anger":10307,"Ġamph":10308,"Ġwarfare":10309,"Ġprovinces":10310,"where":10311,"Ġchron":10312,"ĠClassic":10313,"ĠMalaysia":10314,"Ġdischar":10315,"ussion":10316,"Ġexperiments":10317,"Ġprisoner":10318,"Ġvoices":10319,"isive":10320,"asks":10321,"Ġhole":10322,"ĠHalf":10323,"urricanes":10324,"car":10325,"tes":10326,"ye":10327,"Ġpap":10328,"Ġcarries":10329,"ĠLuke":10330,"ĠIsraeli":10331,"seud":10332,"Ġextinct":10333,"Ġ1895":10334,"ĠRu":10335,"Ġcharacteristic":10336,"Ġculmin":10337,"ĠDallas":10338,"Ġconce":10339,"Ġdistant":10340,"Ġlearns":10341,"ĠTai":10342,"ĠGuinea":10343,"Ġrepresentation":10344,"Ġcatal":10345,"Ġmagnitude":10346,"ĠPictures":10347,"Ġinterpreted":10348,"cott":10349,"Ġwonder":10350,"Ġcraft":10351,"ĠHerald":10352,"Ġsumm":10353,"ĠJefferson":10354,"Ġlights":10355,"Ġrivalry":10356,"ĠTogether":10357,"ĠOsc":10358,"Ġsample":10359,"Ġrelatives":10360,"Ġmarine":10361,"Ġapproaches":10362,"Ġnerv":10363,"Ġabuse":10364,"ĠGameS":10365,"ĠFBI":10366,"umph":10367,"uez":10368,"aching":10369,"ĠSega":10370,"ĠJohnston":10371,"ĠAustin":10372,"Ġvictim":10373,"lad":10374,"itious":10375,"Ġ171":10376,"Ġpractical":10377,"ĠOfficial":10378,"Ġcyclones":10379,"ĠBryan":10380,"ĠClarke":10381,"zed":10382,"ĠOwen":10383,"ĠPerformance":10384,"rooms":10385,"utton":10386,"Ġherit":10387,"ĠEight":10388,"ĠChile":10389,"Ġshifted":10390,"Ġmarch":10391,"Ġtransportation":10392,"ĠCyrus":10393,"ĠDaw":10394,"Ġcuts":10395,"Ġdisplays":10396,"ĠMix":10397,"Ġhem":10398,"Ġwarnings":10399,"Ġrestore":10400,"Ġlighting":10401,"ĠWoman":10402,"ĠHey":10403,"Ġskill":10404,"Ġblocked":10405,"Ġburning":10406,"ĠFalls":10407,"Ġid":10408,"ĠCS":10409,"Ġmans":10410,"ĠQuest":10411,"Ġthunder":10412,"Ġbull":10413,"Ġrehears":10414,"ĠAT":10415,"ĠEis":10416,"Ġmyster":10417,"Ġjudg":10418,"ĠDefense":10419,"ĠWells":10420,"ĠOrange":10421,"Ġchore":10422,"Ġairing":10423,"Ġtraditions":10424,"ĠSteel":10425,"Ġrebels":10426,"Ġpreparing":10427,"Ġproposals":10428,"iciency":10429,"ĠNev":10430,"Ġparticipation":10431,"Ġmedicine":10432,"Ġsings":10433,"ags":10434,"ĠNeil":10435,"Ġgraduate":10436,"Ġgirlfriend":10437,"NC":10438,"ationally":10439,"ĠStudio":10440,"Ġabsent":10441,"ĠParsons":10442,"Ġdistricts":10443,"Ã¥":10444,"umped":10445,"Ġweb":10446,"ĠPriv":10447,"Ġscores":10448,"Ġmultiplayer":10449,"ĠSac":10450,"urd":10451,"ĠNord":10452,"merce":10453,"Ġ102":10454,"Ġinterviews":10455,"ĠGreater":10456,"Ġunlikely":10457,"Ġpier":10458,"Ġconven":10459,"Ġ121":10460,"Ġprotests":10461,"Ġvaluable":10462,"Ġestimates":10463,"ĠArmstrong":10464,"ĠLiter":10465,"ocity":10466,"Ġsalv":10467,"Ġfilmm":10468,"ĠDescription":10469,"Ġbrilliant":10470,"ĠHav":10471,"eston":10472,"Ġriding":10473,"Ġsalary":10474,"ĠChelsea":10475,"Ġwished":10476,"aters":10477,"berry":10478,"ĠFormation":10479,"Ġmaintaining":10480,"Ġcreek":10481,"onge":10482,"Ġpassion":10483,"ĠDanish":10484,"Ã¢":10485,"len":10486,"aha":10487,"Ġinfl":10488,"ĠBrazilian":10489,"ĠBeginning":10490,"leans":10491,"Ġintervention":10492,"Ġcourses":10493,"Ġdrummer":10494,"Ġrecovery":10495,"Ġreforms":10496,"Ġaft":10497,"ĠFisher":10498,"ĠActor":10499,"Ġarguing":10500,"ĠFourth":10501,"Ġcabinet":10502,"Ġfest":10503,"Ġcontend":10504,"ĠGreatest":10505,"ĠMcKin":10506,"ĠYam":10507,"ĠRena":10508,"ĠEve":10509,"ĠQuebec":10510,"Ġpetition":10511,"Ġcinema":10512,"Ġrecurring":10513,"Ġgarn":10514,"Ġclar":10515,"Ġracial":10516,"ĠEth":10517,"ĠAgency":10518,"Ġgrandfather":10519,"Ġbeneath":10520,"ĠKaiser":10521,"Ġaccurate":10522,"Ġvulnerable":10523,"ĠAmb":10524,"Ġupset":10525,"Ġcommunications":10526,"ĠRio":10527,"Ġdecorated":10528,"ĠSpirit":10529,"ĠAuthority":10530,"ĠGa":10531,"aze":10532,"Ġkills":10533,"Ġsignificance":10534,"ĠNS":10535,"ĠEff":10536,"Ġnumbered":10537,"Ġadvertis":10538,"lete":10539,"Ġeating":10540,"ource":10541,"achute":10542,"Ġreleg":10543,"Ġdiverse":10544,"Ġstatistics":10545,"ĠCathedral":10546,"Ġtowers":10547,"ĠConstantin":10548,"ĠSalt":10549,"uri":10550,"ĠIl":10551,"ĠLink":10552,"aser":10553,"Ġvalid":10554,"ĠGay":10555,"ĠPlant":10556,"ĠSusan":10557,"Ġsponsored":10558,"Ġsquadrons":10559,"ĠVers":10560,"Ġcant":10561,"Ġclothes":10562,"osexual":10563,"ĠReich":10564,"Ġparas":10565,"ĠÐ":10566,"ĠOrleans":10567,"beat":10568,"Ġshallow":10569,"Ġansw":10570,"Ġhind":10571,"Ġsurve":10572,"Ġapplications":10573,"Ġunexpected":10574,"iar":10575,"Ġtoler":10576,"ĠIvan":10577,"ĠPoly":10578,"Ġsteep":10579,"ĠJunior":10580,"abilities":10581,"Ġshock":10582,"Ġsacrif":10583,"ĠGlobe":10584,"ĠUtah":10585,"erver":10586,"utor":10587,"ĠKane":10588,"Ġconsolid":10589,"Ġ158":10590,"Ġefficient":10591,"Ġ1861":10592,"ĠCultural":10593,"ME":10594,"Ġinclusion":10595,"Ġairline":10596,"ĠHarold":10597,"Ġlasting":10598,"nt":10599,"landers":10600,"Ġfaces":10601,"Ġmorph":10602,"wright":10603,"itate":10604,"ĠCBS":10605,"ipped":10606,"ĠiP":10607,"Ġessentially":10608,"Ġanswer":10609,"ĠSug":10610,"Ġ1889":10611,"ĠSerbian":10612,"oting":10613,"Ġsurprised":10614,"Ġsummit":10615,"ĠFIFA":10616,"Ġtale":10617,"Ġmate":10618,"ucker":10619,"Ġpm":10620,"Ġmood":10621,"Ġgender":10622,"ĠScar":10623,"ĠMI":10624,"Ġjet":10625,"affe":10626,"Ġdeeply":10627,"ATO":10628,"rary":10629,"Ġcharted":10630,"Ġemotion":10631,"Ġcivilians":10632,"Ġliner":10633,"Ġchronic":10634,"ĠProvince":10635,"Ġ161":10636,"Ġpotentially":10637,"Ġratio":10638,"ĠPanzer":10639,"Ġbeaten":10640,"ĠMuhammad":10641,"hers":10642,"Ġ1894":10643,"ĠNewton":10644,"Ġdrafted":10645,"Ġsuspic":10646,"Ġgrave":10647,"mn":10648,"oria":10649,"Ġfate":10650,"keeper":10651,"Ġmanage":10652,"Ġtheories":10653,"levard":10654,"reated":10655,"Ġho":10656,"anche":10657,"Ġ1000":10658,"Ġbeauty":10659,"asha":10660,"Ġmerged":10661,"ĠStuart":10662,"Ã©t":10663,"ĠRepublicans":10664,"Ġdancers":10665,"aiden":10666,"Ġ162":10667,"Ġcrimes":10668,"dess":10669,"Ġdense":10670,"ĠSout":10671,"Ġbeating":10672,"ĠMinor":10673,"ĠConstantine":10674,"Ġsegments":10675,"Ġhills":10676,"Ġ113":10677,"Ġproportion":10678,"Ġtours":10679,"ĠTyler":10680,"opp":10681,"Ġprocesses":10682,"Ġdemo":10683,"Ġsentence":10684,"Arthur":10685,"Ġmerc":10686,"vet":10687,"iko":10688,"Ġdescent":10689,"Ġswit":10690,"castle":10691,"enson":10692,"Ġ1891":10693,"Ġdual":10694,"ĠPok":10695,"Ġscr":10696,"Ġreactions":10697,"Ġimplemented":10698,"onsin":10699,"ĠFerr":10700,"ĠBuffalo":10701,"ĠFighter":10702,"ĠIns":10703,"akh":10704,"Ġsculpture":10705,"ĠPicture":10706,"Ġpersuaded":10707,"Ġheritage":10708,"Ġbell":10709,"ĠYouT":10710,"ĠWisc":10711,"ocation":10712,"Ġfunded":10713,"Ġsoutheastern":10714,"Ġmanip":10715,"ĠOrchest":10716,"Ġboot":10717,"Ġdim":10718,"ĠProduct":10719,"ĠIndonesian":10720,"Ġaccommodate":10721,"Ġrib":10722,"ĠBes":10723,"Ġaltitude":10724,"Ġcolors":10725,"Ã©s":10726,"ĠTyphoon":10727,"Ġcolumns":10728,"ĠYouTube":10729,"ĠTang":10730,"Ġevident":10731,"Ġadminister":10732,"Ġstructural":10733,"ĠCardiff":10734,"ĠApollo":10735,"Ġwine":10736,"istent":10737,"Ġfollowers":10738,"ĠAmendment":10739,"Ġpresentation":10740,"Ġagriculture":10741,"ĠFull":10742,"Ġfeared":10743,"Ġgolden":10744,"Ġcomplained":10745,"Ġpip":10746,"aping":10747,"Ġâģ":10748,"Ġaddressed":10749,"Ġrequiring":10750,"ĠXII":10751,"Ġsailing":10752,"heric":10753,"Ġ156":10754,"born":10755,"ĠAlt":10756,"Ġ1892":10757,"Ġtribe":10758,"Ġproof":10759,"Ġdevoted":10760,"Ġrejoin":10761,"ĠSultan":10762,"Ġdwarf":10763,"Ġ135":10764,"ĠWa":10765,"ĠQuar":10766,"Ġtruck":10767,"boards":10768,"Ġobservation":10769,"Ġoriented":10770,"ĠSymphony":10771,"Ġnurs":10772,"Ġ1800":10773,"Ġrecept":10774,"yself":10775,"Ġinteraction":10776,"Ġfame":10777,"ĠHad":10778,"ĠDays":10779,"ĠWithout":10780,"Ġbreaks":10781,"ĠHunter":10782,"ĠAA":10783,"Ġintermedi":10784,"ĠMcN":10785,"Ġtriang":10786,"sts":10787,"Ġoperates":10788,"ĠWisconsin":10789,"Ġ240":10790,"Ġerror":10791,"ĠRegister":10792,"ĠConservation":10793,"ĠJohann":10794,"ĠKyle":10795,"Ġconfusion":10796,"Ġsuperst":10797,"Ġknee":10798,"ĠBurns":10799,"usalem":10800,"ĠGround":10801,"rific":10802,"Ġjack":10803,"Ġwritings":10804,"Ġjudges":10805,"Ġpregnant":10806,"Ġvoyage":10807,"isons":10808,"ĠBrooks":10809,"ĠMall":10810,"Ġsuddenly":10811,"gie":10812,"Ġcards":10813,"Ġpink":10814,"ĠSox":10815,"Ġgene":10816,"ĠWonder":10817,"ĠUntil":10818,"ĠElectric":10819,"Ġmythology":10820,"Ġkidn":10821,"Ġrect":10822,"ĠAber":10823,"Ġbears":10824,"ĠDanny":10825,"ocket":10826,"Ġextensively":10827,"Ġquarters":10828,"osaurs":10829,"Ġholiday":10830,"ĠWalt":10831,"Ġjurisdiction":10832,"ĠRuth":10833,"ĠHeb":10834,"Ġadvancing":10835,"Ġopens":10836,"Ġdiplomatic":10837,"nels":10838,"ĠCavalry":10839,"Ġcommenting":10840,"Ġresearchers":10841,"ĠSection":10842,"oded":10843,"iously":10844,"ospel":10845,"ĠIslamic":10846,"Ġtension":10847,"ĠPant":10848,"ulus":10849,"othy":10850,"ĠâģĦ":10851,"sor":10852,"Ġthrown":10853,"ĠHope":10854,"ĠKid":10855,"izer":10856,"ĠMetropolitan":10857,"Ġembarked":10858,"Ġcategories":10859,"master":10860,"ĠNature":10861,"Ġ153":10862,"ĠActress":10863,"HS":10864,"Ġsized":10865,"rob":10866,"Ġmud":10867,"anted":10868,"ĠJerusalem":10869,"Ġhighlighted":10870,"ĠSide":10871,"ĠPrest":10872,"Ġsugar":10873,"ĠFitz":10874,"ĠAttorney":10875,"lon":10876,"Ġfert":10877,"ĠTitan":10878,"cliff":10879,"arks":10880,"Ġknocked":10881,"Ġequally":10882,"Ġstatements":10883,"Ġdrown":10884,"Ġphysics":10885,"ĠJustin":10886,"sburg":10887,"Ġtooth":10888,"amount":10889,"Ġgaining":10890,"cha":10891,"Ġages":10892,"Ġsimilarities":10893,"ĠLegisl":10894,"Ġchallenges":10895,"urst":10896,"imp":10897,"Ġassum":10898,"lington":10899,"ĠAirlines":10900,"Ġsentenced":10901,"ĠSonic":10902,"quest":10903,"Ġinfrastructure":10904,"Ġprinciple":10905,"ĠBible":10906,"ĠGang":10907,"Ġstudying":10908,"enos":10909,"ĠTrade":10910,"ĠBoeing":10911,"ĠâĤ¹":10912,"ĠMeth":10913,"Ġrivals":10914,"ĠAbu":10915,"Ġdisturbance":10916,"ĠStart":10917,"Ġmanif":10918,"ĠEdition":10919,"Ġlifetime":10920,"ĠExecutive":10921,"Ġgift":10922,"ĠEnv":10923,"ĠGrade":10924,"Ġ1888":10925,"Ġgardens":10926,"Ġorange":10927,"Ġoverlook":10928,"Ġgh":10929,"Ġconstitu":10930,"Ġuniversal":10931,"Ġtraditionally":10932,"atched":10933,"ĠSud":10934,"Ġlocally":10935,"Ġvariation":10936,"Ġdivorce":10937,"ÃŃn":10938,"Ġrings":10939,"Ġfee":10940,"ĠSchum":10941,"Ġeducated":10942,"ĠMind":10943,"ĠBased":10944,"ĠBarnes":10945,"ĠPatri":10946,"thodox":10947,"Ġdealing":10948,"Ġwarships":10949,"pine":10950,"chi":10951,"Ġpredators":10952,"ĠCrus":10953,"ĠBert":10954,"ĠUnd":10955,"Ġexplaining":10956,"Ġties":10957,"edia":10958,"ĠNas":10959,"ĠSean":10960,"Ġsword":10961,"Ġboundaries":10962,"Ġspawn":10963,"Ġresolved":10964,"Ġpriest":10965,"Ġrecruited":10966,"ancellor":10967,"ĠTu":10968,"osph":10969,"ĠCemetery":10970,"ĠIndependence":10971,"ĠWes":10972,"ĠMiles":10973,"Ġdocumented":10974,"Ġstretch":10975,"Ġempty":10976,"ĠTrad":10977,"ĠBud":10978,"Ġenabled":10979,"phan":10980,"ĠSaturn":10981,"Ġtape":10982,"ĠBaron":10983,"Ġ1885":10984,"ulsion":10985,"zing":10986,"ĠUC":10987,"ometric":10988,"Ġforb":10989,"rift":10990,"Ġseas":10991,"Ġreceives":10992,"ĠMontgom":10993,"ĠTurkey":10994,"ĠRogers":10995,"ĠMontgomery":10996,"Ġsettlements":10997,"Ġweakening":10998,"Ġnaming":10999,"ĠCentury":11000,"Ġconsiderably":11001,"Ġdiscontin":11002,"piece":11003,"ĠSyn":11004,"Ġhostile":11005,"Ġvillain":11006,"ĠMacArthur":11007,"Ġlift":11008,"aple":11009,"Ġscre":11010,"ĠLeaf":11011,"Ġrescued":11012,"Ġtasked":11013,"ni":11014,"Ġurg":11015,"Ġcommercially":11016,"Ġtravelling":11017,"Ġgarnered":11018,"ĠFact":11019,"Ġsupern":11020,"ĠScots":11021,"Ġinvolves":11022,"ĠControl":11023,"unning":11024,"ĠChristians":11025,"backs":11026,"Ġbenefits":11027,"Ġtickets":11028,"ĠIcel":11029,"Ġsmoke":11030,"Ġhelps":11031,"Ġexplore":11032,"Ġcrashed":11033,"ĠÏ":11034,"Ġcliff":11035,"Ġsubstitute":11036,"Ġvolunteers":11037,"Ġashore":11038,"Ġcry":11039,"Ġdimin":11040,"ĠFil":11041,"Ġassert":11042,"Ġguy":11043,"Ġhoused":11044,"ĠCP":11045,"Ġstyl":11046,"Ġstrand":11047,"Ġpitcher":11048,"Ġoptions":11049,"Ġ978":11050,"ĠSherman":11051,"Ġinning":11052,"ĠPul":11053,"ĠWinn":11054,"Ġflex":11055,"ÃŃa":11056,"Ġescorted":11057,"ĠToy":11058,"Ġdisorder":11059,"ĠLev":11060,"Ġdepicts":11061,"ĠMovie":11062,"Ġconcurrent":11063,"Ġdying":11064,"rien":11065,"Ġspar":11066,"rene":11067,"Ġdetect":11068,"ĠStein":11069,"ĠMidd":11070,"agers":11071,"lights":11072,"ĠPierre":11073,"cut":11074,"uters":11075,"wald":11076,"ĠAges":11077,"Ġepic":11078,"Ġdoors":11079,"ĠManagement":11080,"Ġcircular":11081,"Ġbatted":11082,"Ġconflicts":11083,"ĠJudge":11084,"ĠBaltic":11085,"Ġconcerning":11086,"Ġproteins":11087,"hill":11088,"Ã©n":11089,"ĠFlore":11090,"Ġelaborate":11091,"Ġinnoc":11092,"Ġdinner":11093,"Ġvig":11094,"ĠRef":11095,"Ġharbour":11096,"ĠIceland":11097,"Ġreass":11098,"ĠCer":11099,"ĠKrist":11100,"Ġverte":11101,"Ġ112":11102,"Ġpursued":11103,"Ġpursuit":11104,"tains":11105,"ovak":11106,"ĠBeh":11107,"Ġcollections":11108,"Ġimprisoned":11109,"ĠTourn":11110,"ĠCe":11111,"ĠBranch":11112,"ellar":11113,"gged":11114,"Ġborrow":11115,"ÉĻ":11116,"Ġtel":11117,"ĠPas":11118,"ĠFern":11119,"ĠThames":11120,"ĠAren":11121,"ardo":11122,"ĠSpider":11123,"anne":11124,"Ġgods":11125,"sa":11126,"Ġfron":11127,"Ġnut":11128,"Ġteammate":11129,"Ġauthorized":11130,"ĠBarbara":11131,"Ġfra":11132,"Ġinhib":11133,"olar":11134,"ĠFish":11135,"Ġ145":11136,"Ġopposing":11137,"Ġfavourite":11138,"Ġvirtually":11139,"uction":11140,"ĠBask":11141,"ĠFight":11142,"ĠFlow":11143,"Ġrevival":11144,"ĠAgainst":11145,"ĠNeb":11146,"Ġtempo":11147,"Ġcompetitions":11148,"ĠRomney":11149,"lane":11150,"Ġcam":11151,"Ġpill":11152,"Ġeditions":11153,"ĠRegional":11154,"Ġportrait":11155,"Ġeventual":11156,"Ġ1865":11157,"Ġmanufacturing":11158,"ĠHeavyweight":11159,"ĠAthens":11160,"Ġdrain":11161,"Ġmixture":11162,"Ġramp":11163,"Ġchemistry":11164,"ĠRepresentatives":11165,"Ġcensus":11166,"ourag":11167,"aco":11168,"ĠHearts":11169,"Ġpoliticians":11170,"Ġvelocity":11171,"ao":11172,"Ġconj":11173,"Ġrenewed":11174,"ĠChad":11175,"ĠZone":11176,"Ġhandling":11177,"kh":11178,"ĠCrow":11179,"Ġliver":11180,"ĠHunt":11181,"Ġscreenplay":11182,"Ġbeliefs":11183,"Ġstones":11184,"ĠComedy":11185,"ĠReagan":11186,"ĠEvil":11187,"Ġveteran":11188,"Ġrushing":11189,"Ġurged":11190,"ĠCode":11191,"ĠMang":11192,"Ġchase":11193,"Ġabroad":11194,"Ġ159":11195,"Ġ117":11196,"Ġsuspected":11197,"Ġleaf":11198,"Ġunve":11199,"Ġexamination":11200,"Ġuniversities":11201,"Ġlaps":11202,"ĠNancy":11203,"ĠNATO":11204,"Ġspur":11205,"Ġcable":11206,"ĠAny":11207,"ĠInvest":11208,"Ġcattle":11209,"eling":11210,"Ġcapturing":11211,"Ġparticipants":11212,"inery":11213,"ublin":11214,"Ġpromise":11215,"Ġpossess":11216,"Ġcongress":11217,"Ġremembered":11218,"ĠFace":11219,"Ġinterven":11220,"ridor":11221,"Ġpromoting":11222,"Ġstolen":11223,"ĠReport":11224,"Ġmedals":11225,"Ġrendered":11226,"anim":11227,"ando":11228,"arest":11229,"ĠTribune":11230,"isition":11231,"ĠNova":11232,"zo":11233,"onation":11234,"roe":11235,"Ġcolours":11236,"Ġtrapped":11237,"gow":11238,"mo":11239,"ĠTru":11240,"rible":11241,"Ġthereby":11242,"Ġtracked":11243,"Ġbombardment":11244,"Ġinherited":11245,"Ġtrailer":11246,"Ġdecreased":11247,"point":11248,"Ġcow":11249,"Ġvital":11250,"Ġapply":11251,"Ġorganisms":11252,"ĠErnest":11253,"ĠGran":11254,"Ġtaste":11255,"Ġsor":11256,"Ġloud":11257,"otion":11258,"Ġsharks":11259,"Ġprox":11260,"occ":11261,"Ġ114":11262,"Ġ118":11263,"Ġ450":11264,"Ġaccidentally":11265,"ĠPortugal":11266,"itic":11267,"ĠSaf":11268,"ĠDraft":11269,"Ġcomics":11270,"ĠMarines":11271,"Ġpositively":11272,"Ġcostume":11273,"ĠConstantinople":11274,"ocal":11275,"Ġprototype":11276,"Ġtissue":11277,"Ġdecay":11278,"ĠNewcastle":11279,"Ġinvaded":11280,"erts":11281,"Ġcelebration":11282,"Ġinhab":11283,"Ġoccasional":11284,"Ġjuven":11285,"ĠBright":11286,"oba":11287,"Ġwarned":11288,"Ġcompositions":11289,"Ġsav":11290,"ĠHas":11291,"ilda":11292,"ĠPersonnel":11293,"ĠPete":11294,"ĠCharlotte":11295,"Ġrand":11296,"Ġhopes":11297,"Ġblend":11298,"isan":11299,"ĠBeth":11300,"Ġrains":11301,"limin":11302,"mont":11303,"ĠWed":11304,"ĠEddie":11305,"Ġbatteries":11306,"ĠJosÃ©":11307,"ĠMi":11308,"ĠGlas":11309,"ĠMagic":11310,"Ġlinks":11311,"ĠJoint":11312,"rior":11313,"restrial":11314,"Ġhoping":11315,"Ġevacuation":11316,"Ġvariations":11317,"ĠAffairs":11318,"Ġmaps":11319,"ĠCinem":11320,"colm":11321,"Ġanticipated":11322,"hou":11323,"quer":11324,"ĠKon":11325,"ĠGibral":11326,"idia":11327,"ĠYouth":11328,"ĠShah":11329,"Ġtornado":11330,"fly":11331,"Ġdust":11332,"ĠHom":11333,"Ġupcoming":11334,"Ġ1864":11335,"Ġib":11336,"ĠCryst":11337,"ĠLaboratory":11338,"Ġhorizont":11339,"Ġlaugh":11340,"Ġnose":11341,"ĠCornwall":11342,"ĠEnvironment":11343,"icking":11344,"Ġmarking":11345,"ĠOthers":11346,"ĠMerced":11347,"ĠLiberty":11348,"Ġbomber":11349,"ampton":11350,"ĠChapel":11351,"bing":11352,"vo":11353,"ĠSaw":11354,"ĠVoice":11355,"Ġguests":11356,"Ġgenu":11357,"Ġboyfriend":11358,"áº":11359,"Ġsinking":11360,"Ġrever":11361,"Ġdozen":11362,"ĠERA":11363,"ovic":11364,"Ġscandal":11365,"Ġimpressive":11366,"Ġseparation":11367,"Ġaccessible":11368,"ĠFreedom":11369,"Ġfires":11370,"rogen":11371,"ĠAL":11372,"Ġindigenous":11373,"ĠAgu":11374,"Ġeasier":11375,"Ġlaboratory":11376,"igious":11377,"Ġprovisions":11378,"ĠFilming":11379,"ulum":11380,"assy":11381,"Ġnickname":11382,"ĠLower":11383,"ĠVick":11384,"ER":11385,"ĠTerm":11386,"Ġrugby":11387,"eps":11388,"ĠSic":11389,"ĠVo":11390,"ught":11391,"Ġafford":11392,"Ġthreats":11393,"Ġdependent":11394,"ĠGibraltar":11395,"auc":11396,"ĠTree":11397,"ĠGon":11398,"icken":11399,"ĠMalcolm":11400,"Ġavoided":11401,"orf":11402,"agles":11403,"Ġbiological":11404,"ĠMeteorological":11405,"held":11406,"Ġsupports":11407,"Ġpolitician":11408,"ĠFriends":11409,"DI":11410,"Î±":11411,"ĠBapt":11412,"Ġhandle":11413,"Ġvolcanic":11414,"Ġfed":11415,"Ġlighter":11416,"ĠMembers":11417,"Ġprogressed":11418,"ĠKenneth":11419,"Ġparliamentary":11420,"Ġrandom":11421,"Ġtrunk":11422,"Ġconsumption":11423,"Î¿":11424,"ĠArmenian":11425,"Ġtherm":11426,"ĠChester":11427,"ĠCena":11428,"artime":11429,"orted":11430,"Ġdefenders":11431,"enberg":11432,"ĠDJ":11433,"Ġnep":11434,"ailing":11435,"ĠLeices":11436,"atsu":11437,"ĠCase":11438,"Ġformula":11439,"ĠXX":11440,"Ġbiography":11441,"ĠProtestant":11442,"Ġfier":11443,"Ġdeputy":11444,"Ġhyper":11445,"Ġrestrictions":11446,"amics":11447,"Ġimposed":11448,"Ġeld":11449,"Ġtruly":11450,"ĠBoulevard":11451,"Ġcorporate":11452,"ĠCand":11453,"ĠDuch":11454,"ptic":11455,"Ġfles":11456,"ĠMult":11457,"var":11458,"Ġcash":11459,"Ġda":11460,"Ġusage":11461,"ĠOscar":11462,"ĠCinc":11463,"ĠBark":11464,"agg":11465,"ĠThan":11466,"Ġmurdered":11467,"ĠOrchestra":11468,"lem":11469,"amine":11470,"ĠEnergy":11471,"Ġlicense":11472,"ĠÄĲ":11473,"ĠLP":11474,"iah":11475,"Ġproduces":11476,"Ġmixing":11477,"Ġoccurring":11478,"ĠAntar":11479,"gÃ©":11480,"Ġtoxic":11481,"ĠSkin":11482,"ĠThr":11483,"racks":11484,"changed":11485,"ĠPedro":11486,"ĠIsaac":11487,"Ġine":11488,"ĠBears":11489,"ĠPeng":11490,"Ġnoticed":11491,"Ġeastward":11492,"Ġcustomers":11493,"ĠChamberlain":11494,"Ġwound":11495,"ĠMV":11496,"Ġacre":11497,"Ġparticles":11498,"Ġdreadn":11499,"ĠAthletic":11500,"Ġlawsuit":11501,"ĠTake":11502,"ĠBreak":11503,"ĠDublin":11504,"Ġcontracts":11505,"ielder":11506,"etta":11507,"oples":11508,"Ġ131":11509,"Ġ1862":11510,"ded":11511,"alling":11512,"Ġexile":11513,"Ġplates":11514,"Ġtimber":11515,"Ġpor":11516,"ĠAction":11517,"Ġabb":11518,"Ġãĥ":11519,"osy":11520,"Ġmetric":11521,"Ġkiller":11522,"ĠGuild":11523,"acht":11524,"Ġspeculation":11525,"Ġcathedral":11526,"ĠCareer":11527,"ĠChair":11528,"ĠBradley":11529,"Ġtouchdowns":11530,"heimer":11531,"Ġnephew":11532,"ĠZero":11533,"Ġengineers":11534,"ĠSex":11535,"Ġrelation":11536,"Ġordinary":11537,"Ġwake":11538,"Ġchoir":11539,"Ġangry":11540,"Ġprest":11541,"ĠCyclone":11542,"ĠAltern":11543,"Ġ107":11544,"Ġdebris":11545,"ĠRoom":11546,"Ġdepicting":11547,"Ġdisappointed":11548,"ju":11549,"Ġaside":11550,"Ġindustries":11551,"Ġintellectual":11552,"Ġhence":11553,"Ġundertaken":11554,"ĠTournament":11555,"Ġå":11556,"Ġfab":11557,"Ġdevelopments":11558,"Ġconvicted":11559,"ĠContinental":11560,"Ġkilog":11561,"Ġencounters":11562,"ĠWatch":11563,"emble":11564,"Ġthreatening":11565,"ĠGabri":11566,"bach":11567,"overed":11568,"phal":11569,"ĠSlav":11570,"Ġignored":11571,"Ġconquest":11572,"Ġcomplicated":11573,"Ġthunderstorm":11574,"Ġcu":11575,"Ġstrikes":11576,"Ġvicinity":11577,"Ġstern":11578,"Ġmounts":11579,"Ġlyrical":11580,"ĠArchbishop":11581,"Ġmechanism":11582,"ĠPel":11583,"ĠGlee":11584,"osion":11585,"Ġdecrease":11586,"hl":11587,"itime":11588,"Ġune":11589,"ĠMetro":11590,"Ġthrowing":11591,"Ġrevolutionary":11592,"for":11593,"alg":11594,"Ġterritorial":11595,"Ġchampionships":11596,"umbered":11597,"AN":11598,"izz":11599,"enburg":11600,"Ġmit":11601,"ĠVilla":11602,"Ġconfident":11603,"Ġelite":11604,"Ġhumanity":11605,"ĠSpringfield":11606,"Ġ157":11607,"ĠCollection":11608,"ĠLuft":11609,"ĠSerbia":11610,"Ġward":11611,"ĠLS":11612,"Ġchrom":11613,"Ġremin":11614,"Ġbreast":11615,"ĠOrd":11616,"Ġexhibit":11617,"ĠAlberta":11618,"ĠKin":11619,"Ġ220":11620,"Ġconversation":11621,"AP":11622,"ĠFuture":11623,"Ġrealistic":11624,"Ġlacking":11625,"ĠTommy":11626,"ĠCincinn":11627,"itol":11628,"Ġcontacted":11629,"Ġpreserve":11630,"onial":11631,"entieth":11632,"ĠMann":11633,"ieg":11634,"Ġmetre":11635,"Ġconstantly":11636,"Ġhelicopter":11637,"Ġarose":11638,"icing":11639,"Ġmos":11640,"olia":11641,"Ġsuspension":11642,"Ġfocuses":11643,"ĠMarshal":11644,"Ġboost":11645,"Ġmammals":11646,"Ġinaugural":11647,"iture":11648,"Ġpenn":11649,"ĠPros":11650,"ĠPlace":11651,"Ġposts":11652,"ĠMicha":11653,"Ġfacil":11654,"ĠStudies":11655,"Ġ1840":11656,"ĠGates":11657,"ĠJoan":11658,"Ġentert":11659,"ĠChurchill":11660,"ĠTaiwan":11661,"Ġgif":11662,"ĠVeg":11663,"ĠShep":11664,"Ġfarmers":11665,"Ġpredominantly":11666,"iked":11667,"uka":11668,"Ġvoters":11669,"bel":11670,"encer":11671,"ĠTir":11672,"etary":11673,"Ġstim":11674,"Ġpatri":11675,"liminary":11676,"Ġasserted":11677,"ĠMuslims":11678,"Ġinfer":11679,"omed":11680,"Ġdesper":11681,"Ġdiamond":11682,"Ġtools":11683,"ellers":11684,"rolled":11685,"oirs":11686,"ĠFriedrich":11687,"Ġinfection":11688,"ĠMalta":11689,"Hg":11690,"asp":11691,"Ġunt":11692,"ĠYugoslavia":11693,"ĠTint":11694,"ĠPay":11695,"ĠJake":11696,"ocol":11697,"ĠKaz":11698,"Ġreleasing":11699,"Ġphoto":11700,"Ġcollaborated":11701,"Ġthorough":11702,"ĠRear":11703,"ĠAncient":11704,"Ġthro":11705,"ĠCanu":11706,"rank":11707,"Ġfeathers":11708,"Ġabsorbed":11709,"ĠWagner":11710,"ĠChet":11711,"Ġpatient":11712,"Ġremoving":11713,"Ġconspiracy":11714,"Ġmad":11715,"Ġholes":11716,"ĠHood":11717,"ĠHull":11718,"ĠUk":11719,"Ġcentered":11720,"ĠReed":11721,"Ġpeninsula":11722,"Ġtune":11723,"ĠMaine":11724,"ĠRound":11725,"ortion":11726,"ĠShiva":11727,"ĠWaters":11728,"quiry":11729,"iga":11730,"Ġrelieved":11731,"ĠEC":11732,"Ġapolog":11733,"ework":11734,"Ġcastles":11735,"ischer":11736,"Ġcompiled":11737,"Ġgrows":11738,"ĠRobin":11739,"Ġillustrated":11740,"Ġuser":11741,"Ġexplanation":11742,"ĠFly":11743,"ubble":11744,"ĠParks":11745,"Ġknows":11746,"Ġcanceled":11747,"ĠCincinnati":11748,"Ġpig":11749,"ĠComics":11750,"Ġroadway":11751,"ĠNormandy":11752,"Ġisn":11753,"Ġ126":11754,"Ġspeeds":11755,"Ġindependently":11756,"ĠBurke":11757,"ĠOlivia":11758,"Ġsustain":11759,"ĠDud":11760,"Ġresid":11761,"Ġenorm":11762,"Ġretrie":11763,"ennial":11764,"Ġ132":11765,"ĠHispan":11766,"Ġsituations":11767,"ĠAngelou":11768,"ĠEsc":11769,"ĠShield":11770,"regular":11771,"ĠAfghanistan":11772,"ĠMaced":11773,"auge":11774,"Ġarmoured":11775,"Ġpleased":11776,"ĠVIII":11777,"Ġantib":11778,"Ġfant":11779,"ĠChang":11780,"Ġsheep":11781,"ringe":11782,"Ġbowl":11783,"Ġbreeds":11784,"ĠCort":11785,"Ġencom":11786,"ahl":11787,"ĠAlliance":11788,"Ġmarched":11789,"ĠVegas":11790,"asury":11791,"ĠKill":11792,"ritic":11793,"Ġ119":11794,"Ġ1887":11795,"music":11796,"ĠSor":11797,"ĠLords":11798,"Ġoffshore":11799,"rels":11800,"Ġlover":11801,"ĠBrid":11802,"ĠMadison":11803,"oi":11804,"Ġaest":11805,"Ġlib":11806,"ĠEdmund":11807,"Ġoutstanding":11808,"ĠTwitter":11809,"Ġpaying":11810,"Ġclergy":11811,"Ġlayers":11812,"ĠPokÃ©":11813,"ĠEld":11814,"Ġarena":11815,"Ġprosper":11816,"Ġblast":11817,"Ġcouldn":11818,"uber":11819,"Ã´":11820,"ĠRush":11821,"Ġ1863":11822,"Ġvarying":11823,"Ġmild":11824,"Ġclosure":11825,"ĠConservative":11826,"hall":11827,"oom":11828,"Ġexpanding":11829,"Ġviewing":11830,"Ġdisappeared":11831,"ĠRevolutionary":11832,"Ġlocomotives":11833,"ulates":11834,"Ġbutter":11835,"Ġbackst":11836,"Ġsentiment":11837,"Ġ1886":11838,"ĠGregory":11839,"£o":11840,"icular":11841,"Ġmask":11842,"ĠSad":11843,"ĠKra":11844,"Ġgenres":11845,"ĠFormer":11846,"bu":11847,"ĠLud":11848,"Ġperc":11849,"overty":11850,"ĠTechnology":11851,"Ġcolored":11852,"Ġdropping":11853,"gus":11854,"ĠLeeds":11855,"found":11856,"ĠJNA":11857,"Ġreporting":11858,"hart":11859,"avan":11860,"Ġsuggestion":11861,"imony":11862,"ribution":11863,"Ġcelebrate":11864,"umberland":11865,"instein":11866,"ĠCoal":11867,"ĠSerge":11868,"ĠMercury":11869,"ĠSchumacher":11870,"WA":11871,"ĠHus":11872,"Ġatop":11873,"Ġspir":11874,"izard":11875,"aneous":11876,"Ġnevertheless":11877,"ĠBrooklyn":11878,"Ġbapt":11879,"ĠHubb":11880,"Ġflour":11881,"Ġregulations":11882,"Ġfungus":11883,"ĠOrton":11884,"Ġsubmarines":11885,"ĠMLB":11886,"Ġinducted":11887,"gary":11888,"ĠCou":11889,"ĠCut":11890,"ĠCond":11891,"acular":11892,"Ġgrid":11893,"ĠDennis":11894,"onnie":11895,"ĠJulian":11896,"Ġaqu":11897,"ĠNation":11898,"ipher":11899,"Ġoxid":11900,"Ġasc":11901,"issioned":11902,"Ġwitnesses":11903,"ĠCry":11904,"Ġattraction":11905,"feld":11906,"ĠËĪ":11907,"inated":11908,"ĠTalk":11909,"ĠSoph":11910,"ĠBurg":11911,"ĠRus":11912,"Ġconced":11913,"Ġrab":11914,"Ġanthem":11915,"ĠChem":11916,"Ġsubmer":11917,"Ġfaculty":11918,"ĠÃī":11919,"ĠHelen":11920,"Ġswept":11921,"AL":11922,"Ġeagle":11923,"ishn":11924,"Ġreporter":11925,"Ġcompanion":11926,"ĠPrinceton":11927,"ĠTigers":11928,"leted":11929,"ĠAub":11930,"Ġremote":11931,"ĠinHg":11932,"Ġretreated":11933,"Ġmonit":11934,"Ġpositioned":11935,"ĠBrowns":11936,"Ġromance":11937,"ĠMcKinley":11938,"zes":11939,"Ġaf":11940,"omon":11941,"ĠMut":11942,"ĠLamb":11943,"Ġrepris":11944,"ĠOrganization":11945,"Ġpseud":11946,"ĠVern":11947,"Ġorganic":11948,"Ġtent":11949,"Ġsulf":11950,"ĠNathan":11951,"Ġblamed":11952,"Ġpublicity":11953,"Ġfortifications":11954,"gett":11955,"Ġverses":11956,"ĠMonth":11957,"Ġparking":11958,"ĠHistorical":11959,"Ġstored":11960,"yan":11961,"odium":11962,"ĠLeo":11963,"Ġfundamental":11964,"flow":11965,"Ġshelter":11966,"Ġstability":11967,"Ġwhatever":11968,"ĠMusical":11969,"Ġ1884":11970,"Ġtargeted":11971,"ĠGhost":11972,"Ġcondemned":11973,"ĠHubbard":11974,"bie":11975,"ĠStal":11976,"Ġmail":11977,"Ġannex":11978,"Ġcurve":11979,"ĠSmack":11980,"eness":11981,"ĠBarcel":11982,"Ġfocusing":11983,"Ġcorresponding":11984,"Ġfossils":11985,"Ġferry":11986,"pin":11987,"Ġlung":11988,"usters":11989,"Ġrecruit":11990,"hend":11991,"Ġfract":11992,"Ġgentle":11993,"Ġprogressive":11994,"ĠSteam":11995,"yd":11996,"Ġnoise":11997,"Ġflown":11998,"ĠNASA":11999,"rity":12000,"qual":12001,"Ġtorpedoes":12002,"Ġirregular":12003,"Ġpreceding":12004,"ĠPolitical":12005,"ĠFather":12006,"Ġ103":12007,"Ġdetected":12008,"lett":12009,"Ġswing":12010,"Ġroster":12011,"Ġconfused":12012,"Ġdrunk":12013,"Ġdisbanded":12014,"ĠGlasgow":12015,"eda":12016,"ĠIsle":12017,"ĠOpera":12018,"Ġmentions":12019,"ĠCanucks":12020,"Ġfault":12021,"ĠIsab":12022,"Ġconvince":12023,"Ġmelod":12024,"ĠMak":12025,"ĠPick":12026,"ĠNass":12027,"Ġcha":12028,"Ġencourag":12029,"Ġresignation":12030,"cell":12031,"ĠTests":12032,"ĠInside":12033,"iki":12034,"ĠDevil":12035,"Ġtelephone":12036,"areness":12037,"Ġcruise":12038,"Ġchallenging":12039,"ĠNad":12040,"Ġregiments":12041,"Ġmachines":12042,"Ġmagnetic":12043,"Ġbore":12044,"Ġdirecting":12045,"Ġrebounds":12046,"ĠHolland":12047,"Ġbrings":12048,"arded":12049,"Ġquoted":12050,"Ġinsurance":12051,"Ġwinners":12052,"auded":12053,"Ġcalculated":12054,"Ġsolely":12055,"ËĲ":12056,"Ġterminal":12057,"ĠSolar":12058,"Ġrice":12059,"ĠStrong":12060,"Ġscrap":12061,"Ġstudios":12062,"ĠAustro":12063,"Ġtourist":12064,"ĠPhillies":12065,"ĠFifth":12066,"ĠTheodore":12067,"igation":12068,"ĠRI":12069,"ĠInsp":12070,"ĠMontana":12071,"Ġdiversity":12072,"Ġtriumph":12073,"ĠMillennium":12074,"ĠHerbert":12075,"Ġworse":12076,"ĠUB":12077,"Ġthanks":12078,"ĠCeltic":12079,"Ġtap":12080,"elin":12081,"ewise":12082,"ĠSeb":12083,"ĠWestminster":12084,"Ġjudicial":12085,"Ġcreature":12086,"Ġconcepts":12087,"ĠDenver":12088,"ĠNam":12089,"ĠKil":12090,"Ġfavored":12091,"Ġdarker":12092,"ĠBCE":12093,"onso":12094,"isk":12095,"Ġhide":12096,"ĠMorning":12097,"Ġrouting":12098,"ĠTintin":12099,"vor":12100,"avian":12101,"roscop":12102,"Ġscholarship":12103,"ĠCEO":12104,"Ġnice":12105,"ishops":12106,"Ġrotation":12107,"ampa":12108,"Ġ1877":12109,"ĠBasketball":12110,"Ġ129":12111,"Ġhistorically":12112,"inter":12113,"Ġmyself":12114,"ourable":12115,"ĠAdventure":12116,"Ġfo":12117,"ĠMig":12118,"ĠWel":12119,"Ġ138":12120,"Ġ230":12121,"Ġrounded":12122,"Ġprompting":12123,"ĠEpis":12124,"Ġcemetery":12125,"Ġgear":12126,"atty":12127,"Ġ1876":12128,"Ġcotton":12129,"ĠBour":12130,"Ġagencies":12131,"overy":12132,"hentic":12133,"Ġ122":12134,"Ġzero":12135,"Ġexamined":12136,"Ġsteadily":12137,"Ġghost":12138,"Ġjersey":12139,"Ġconfig":12140,"ĠExpl":12141,"Ġcommitment":12142,"Ġreconstruction":12143,"ĠMercedes":12144,"ĠRav":12145,"Ġjew":12146,"ĠBarn":12147,"ĠBrah":12148,"ulu":12149,"ĠYard":12150,"Ġ116":12151,"Ġtroop":12152,"Ġbattlefield":12153,"nda":12154,"ĠPoe":12155,"ĠOcc":12156,"lude":12157,"Ġacclaimed":12158,"iors":12159,"Ġmasc":12160,"ĠTheater":12161,"Ġtrio":12162,"ĠGlou":12163,"Ġmotif":12164,"ĠBulgarian":12165,"Ġspacecraft":12166,"ĠNevada":12167,"Ġwartime":12168,"umi":12169,"Ġsharing":12170,"ĠAthen":12171,"works":12172,"ĠCox":12173,"ĠRivers":12174,"Ġmessages":12175,"ĠAlbany":12176,"Ġgusts":12177,"ĠAdditional":12178,"rians":12179,"Ġ134":12180,"Ġagrees":12181,"Ġballs":12182,"Ġmeasuring":12183,"ĠSalv":12184,"ĠRonald":12185,"sis":12186,"ĠCany":12187,"acer":12188,"Ġincidents":12189,"Ġguards":12190,"Ġpostp":12191,"ĠPercy":12192,"Ġconnects":12193,"Ġwalked":12194,"ĠGothic":12195,"Ġmonastery":12196,"atisf":12197,"ĠSri":12198,"ĠSquad":12199,"Ġdecisive":12200,"Ġpresents":12201,"Ġposter":12202,"Ġconducting":12203,"Ġelevated":12204,"Ġamphib":12205,"ĠLed":12206,"Ġrefuses":12207,"Ġradius":12208,"Ġwalks":12209,"ĠCarlos":12210,"ĠCurrent":12211,"lined":12212,"Ġdistinction":12213,"ĠCaes":12214,"Ġeligible":12215,"Ġscreens":12216,"omical":12217,"ĠBris":12218,"ĠHok":12219,"Ġthemed":12220,"Ġcurved":12221,"Ġflower":12222,"eta":12223,"Ã¶r":12224,"Ġkilometers":12225,"ĠOttawa":12226,"Ġclouds":12227,"ĠTerritory":12228,"Ġlinear":12229,"Ġproclaimed":12230,"Ġoct":12231,"Ġloose":12232,"ĠRosen":12233,"istical":12234,"Ġtrig":12235,"Ġconsequence":12236,"Ġrevenge":12237,"Music":12238,"bi":12239,"aton":12240,"Ġhosp":12241,"Ġconvey":12242,"Ġexterior":12243,"aults":12244,"Ġaccomplished":12245,"Ġtough":12246,"Ġstall":12247,"opard":12248,"Ġkids":12249,"ĠVerm":12250,"á»ĩ":12251,"arians":12252,"Ġecho":12253,"ĠPack":12254,"ettes":12255,"Ġ1830":12256,"Ġintegrated":12257,"ht":12258,"aku":12259,"Ġfinest":12260,"Ġarguments":12261,"Ġphysically":12262,"Ġopined":12263,"Ġritual":12264,"cont":12265,"ĠChuck":12266,"Ġrebel":12267,"ĠBerm":12268,"olan":12269,"Ġcomed":12270,"izers":12271,"Ġcentimet":12272,"Ġcreatures":12273,"Ġparticipating":12274,"Ġcosm":12275,"Ġlakes":12276,"unge":12277,"ĠMega":12278,"atar":12279,"aba":12280,"ĠMarl":12281,"ĠAbra":12282,"Ġtheaters":12283,"Ġvenues":12284,"arthy":12285,"ĠPokÃ©mon":12286,"ĠBarcelona":12287,"ĠDuc":12288,"iffer":12289,"Ġscout":12290,"Ġairborne":12291,"Ġrunner":12292,"Ġ1875":12293,"Ġencompass":12294,"Ġintend":12295,"ĠFun":12296,"Ġspell":12297,"ĠCardinals":12298,"Ġmartial":12299,"ĠMichaels":12300,"ĠTas":12301,"abad":12302,"assic":12303,"ĠArc":12304,"Ġindirect":12305,"ĠMilan":12306,"itars":12307,"ighed":12308,"Ġunh":12309,"Ġinstructions":12310,"Down":12311,"ĠChan":12312,"ogs":12313,"Ġcanon":12314,"Ġinsuff":12315,"Ġdeliberately":12316,"Ġtouc":12317,"Ġspots":12318,"reeks":12319,"Ġdemographic":12320,"ĠMetac":12321,"Ġceremonies":12322,"ĠHi":12323,"Ġchann":12324,"Ġ128":12325,"ĠParkway":12326,"Ġwidth":12327,"Ġenhanced":12328,"Ġmansion":12329,"Ġintermediate":12330,"Ġreminisc":12331,"season":12332,"Ġyd":12333,"ubs":12334,"Ġproperly":12335,"Ġcontribute":12336,"Ġcomplimented":12337,"ĠWis":12338,"ĠEnix":12339,"ĠColin":12340,"Ġlesser":12341,"ĠSmackDown":12342,"sch":12343,"Ġcontrad":12344,"Ġprince":12345,"ĠParaly":12346,"ĠOperations":12347,"Ġtelesc":12348,"Ġgram":12349,"Ġpeoples":12350,"Ġmarg":12351,"Ġpossessed":12352,"ĠRaymond":12353,"Ġpreparations":12354,"Ġextends":12355,"Ġweakness":12356,"anka":12357,"Ġvaries":12358,"Ġtransformed":12359,"Ġheavier":12360,"Ġborough":12361,"ĠHenderson":12362,"ĠDrake":12363,"ĠFoster":12364,"ĠHein":12365,"Ġministers":12366,"ĠArchae":12367,"ĠCircle":12368,"Ġharsh":12369,"Ġonwards":12370,"Ġsouthwestern":12371,"Ġbowled":12372,"Ġprospect":12373,"inus":12374,"ĠRBI":12375,"ĠEmma":12376,"Ġ1883":12377,"Ä«":12378,"rium":12379,"Ġremake":12380,"ĠSpeed":12381,"ĠRomanian":12382,"GM":12383,"asia":12384,"ĠBod":12385,"Ġsensitive":12386,"Ġassassination":12387,"ĠManuel":12388,"ĠMiddles":12389,"herent":12390,"ĠWings":12391,"Ġoutcome":12392,"Ġcoaches":12393,"Ġ1881":12394,"rush":12395,"ĠâĻ":12396,"Ġplayable":12397,"Ġachievements":12398,"Ġinitiative":12399,"ĠSciences":12400,"ĠComputer":12401,"Ġoptim":12402,"Ġvegetation":12403,"Ġaided":12404,"Ġcontinental":12405,"Ġcritically":12406,"ĠWeather":12407,"Ġupdated":12408,"HC":12409,"Ġhurt":12410,"Ġhomosexual":12411,"Ġfru":12412,"Ġdisabled":12413,"ĠShin":12414,"Ġtransmission":12415,"ĠAngle":12416,"ĠBelie":12417,"ĠTotal":12418,"Ġrook":12419,"Ġallied":12420,"ashire":12421,"lake":12422,"Ġwit":12423,"arus":12424,"Ġbin":12425,"ĠRNA":12426,"Ġlogo":12427,"ĠDiamond":12428,"yc":12429,"ĠVoy":12430,"atorial":12431,"ironments":12432,"Ġpropaganda":12433,"ĠParalymp":12434,"agi":12435,"ĠAlam":12436,"ĠBlair":12437,"Ġconsideration":12438,"ĠVenice":12439,"Ġmoist":12440,"chw":12441,"ĠNorthwest":12442,"Ġrider":12443,"Ġvariable":12444,"Ġdeposits":12445,"ĠJamaica":12446,"Ġdepiction":12447,"Ġtourists":12448,"ĠFerdin":12449,"Ġconsciousness":12450,"core":12451,"ĠBass":12452,"ĠFa":12453,"Ġlandmark":12454,"appa":12455,"Ġ1869":12456,"Ġestimate":12457,"Ġemerging":12458,"Ġsailors":12459,"Ġexercises":12460,"Ġreh":12461,"Ġmonster":12462,"ĠRichardson":12463,"ĠBody":12464,"Ġunanim":12465,"actic":12466,"ĠUnit":12467,"Ġworker":12468,"Ġdamaging":12469,"ĠComposition":12470,"ĠContem":12471,"ĠPowell":12472,"Ġsubtropical":12473,"Ġautobiography":12474,"Ġtom":12475,"ĠDelta":12476,"cht":12477,"Ġ151":12478,"ĠCalgary":12479,"alties":12480,"ĠAqu":12481,"ĠDuncan":12482,"Ġorchestral":12483,"ĠLancashire":12484,"Ġmunicipal":12485,"Ġarchaeological":12486,"ĠArena":12487,"ĠIb":12488,"rip":12489,"Ġseal":12490,"Ġspite":12491,"Ġnortheastern":12492,"Ġhonors":12493,"Ġconsistently":12494,"Ġpunishment":12495,"Ġpermanently":12496,"ĠIsles":12497,"Ġenvironments":12498,"Ġcomprising":12499,"Ġlatest":12500,"Ġascend":12501,"Ġstaged":12502,"Ġpref":12503,"Ġroutine":12504,"Ġborders":12505,"Ġstom":12506,"Ġ1866":12507,"Ġdoctrine":12508,"Ġepit":12509,"ĠSprings":12510,"Ġrevealing":12511,"ĠVeronica":12512,"ĠCu":12513,"ĠRange":12514,"Ġsummon":12515,"Ġdock":12516,"riages":12517,"Ġpresidency":12518,"Ġcarved":12519,"ĠFloyd":12520,"Ġcoaching":12521,"Ġsearching":12522,"ĠPlanet":12523,"ĠPsych":12524,"Ġperformers":12525,"rington":12526,"Ġachievement":12527,"Ġjournalists":12528,"ĠRif":12529,"ĠXI":12530,"Ġmanaging":12531,"ĠMills":12532,"Ġ750":12533,"ĠCarn":12534,"ĠMedic":12535,"Ġdispatched":12536,"Ġbelonging":12537,"Ġunsuccessfully":12538,"Ġion":12539,"iang":12540,"Ġpriority":12541,"Ġpayment":12542,"ijing":12543,"ĠRodrig":12544,"ĠUsing":12545,"Ġwitnessed":12546,"Ġdelegates":12547,"Ġmysterious":12548,"Ġinput":12549,"Ġmarsh":12550,"ĠFrances":12551,"ĠEllen":12552,"ĠCanyon":12553,"the":12554,"lex":12555,"ido":12556,"ĠPon":12557,"Ġconfer":12558,"ĠCloud":12559,"ĠHeadquarters":12560,"Ġpsychiat":12561,"Ġenlar":12562,"Ġcomplement":12563,"Ġversus":12564,"ĠBerg":12565,"Ġpreventing":12566,"Ġreluctant":12567,"Ġsilent":12568,"ĠConserv":12569,"Ġencourage":12570,"Ġodd":12571,"Ġfrigate":12572,"ĠTab":12573,"ĠPra":12574,"ĠCrawford":12575,"gor":12576,"Ġmilk":12577,"Ġventure":12578,"ĠCrystal":12579,"RS":12580,"zig":12581,"Ġ124":12582,"Ġphilosopher":12583,"ĠIntellig":12584,"Ġphenomenon":12585,"ĠTib":12586,"Ġgates":12587,"ĠFlanders":12588,"ĠTelegraph":12589,"Ġargue":12590,"Ġlengths":12591,"stown":12592,"Ġanarch":12593,"Ġactively":12594,"Ġceiling":12595,"ĠButler":12596,"Ġbelonged":12597,"Ġdistinguish":12598,"ĠPalestine":12599,"Brien":12600,"omys":12601,"olars":12602,"Ġstrange":12603,"Ġplum":12604,"ĠGrove":12605,"ĠLeicester":12606,"ĠPunk":12607,"ĠDj":12608,"arma":12609,"Ġdisputed":12610,"Ġswitched":12611,"Ġmant":12612,"ĠFood":12613,"ĠVic":12614,"assed":12615,"Ġexecutives":12616,"Ġhypothesis":12617,"Ġpoverty":12618,"Ġgest":12619,"ĠMarqu":12620,"ĠGuadal":12621,"Ġicon":12622,"oric":12623,"isations":12624,"asi":12625,"adows":12626,"ĠMull":12627,"idge":12628,"rained":12629,"Ġshaft":12630,"Ġeighteen":12631,"Ġ1873":12632,"Ġmechanics":12633,"Ġfinance":12634,"ĠPlat":12635,"Ġexploration":12636,"Ġcorruption":12637,"ĠAssist":12638,"Ġawareness":12639,"ĠMile":12640,"Ġlistening":12641,"boat":12642,"Ġ1882":12643,"Ġscientist":12644,"ĠNewman":12645,"Ġdirections":12646,"Ġintroduce":12647,"Ġmystery":12648,"alia":12649,"Ġmbar":12650,"Ġroot":12651,"Ġcontributing":12652,"Ġexpectations":12653,"Tunes":12654,"ĠTucker":12655,"Ġabst":12656,"Ġaccus":12657,"ĠSH":12658,"ĠFur":12659,"ĠFischer":12660,"Ġvamp":12661,"Ġrational":12662,"usty":12663,"Ġformations":12664,"ĠBeijing":12665,"Ġinternationally":12666,"Ġ1871":12667,"Ġadjust":12668,"eches":12669,"ĠAnat":12670,"Ġshipped":12671,"ĠFilms":12672,"ĠWatson":12673,"Ġov":12674,"immer":12675,"Ġguitars":12676,"ĠRegion":12677,"Ġ1867":12678,"Ġobjectives":12679,"rud":12680,"ĠBea":12681,"nery":12682,"Ġtemples":12683,"Ġmolecular":12684,"Ġdimensional":12685,"Ġhoney":12686,"ĠPly":12687,"Ġwhales":12688,"Ġleagues":12689,"ĠWhy":12690,"rews":12691,"Ġprocessing":12692,"Ġprocedure":12693,"Ġsib":12694,"Ġsheet":12695,"Ġmetals":12696,"Ġsurpassed":12697,"Ġsubmerged":12698,"ĠSyl":12699,"ĠRaid":12700,"Ġ202":12701,"Ġdesired":12702,"Ġphosph":12703,"Ġimproving":12704,"ĠKepler":12705,"Ġtribut":12706,"Ġnaturally":12707,"BO":12708,"asaki":12709,"ulture":12710,"Ġadvocated":12711,"Ġassociate":12712,"ĠMcCarthy":12713,"Ġoverwhelming":12714,"ĠPine":12715,"ĠKy":12716,"ĠTrue":12717,"Ġprivile":12718,"Ġsaving":12719,"ĠLore":12720,"ĠSeas":12721,"Ġremind":12722,"Ãł":12723,"ĠTruman":12724,"Ġdiscussing":12725,"Ġreop":12726,"Ġstaying":12727,"Ġconvert":12728,"Ġunrel":12729,"ierra":12730,"Ġeleph":12731,"ĠDesert":12732,"ĠStandard":12733,"Ġdive":12734,"ĠHass":12735,"ĠCommons":12736,"Ġacceptance":12737,"Ġloaded":12738,"Ġcomprised":12739,"Ġabundant":12740,"ĠDudley":12741,"LA":12742,"ĠHil":12743,"ĠCommerc":12744,"ĠMalay":12745,"Ġhorsepower":12746,"Ġrequirement":12747,"Ġcubic":12748,"CO":12749,"eded":12750,"orig":12751,"istocr":12752,"ogg":12753,"erness":12754,"Ġtasks":12755,"ĠNak":12756,"Ġreson":12757,"Ġcameo":12758,"Ġ1878":12759,"ĠDeputy":12760,"Ã¨re":12761,"Ġrefugees":12762,"Ġhaz":12763,"amation":12764,"ĠVlad":12765,"Ġperf":12766,"Ġpartners":12767,"Ġestates":12768,"ĠExped":12769,"Ġcrucial":12770,"waffe":12771,"ouch":12772,"ĠMail":12773,"imer":12774,"Ġ137":12775,"ĠAdela":12776,"ĠMasters":12777,"Ġrushed":12778,"Ġblockade":12779,"Ġnervous":12780,"Ġcro":12781,"Ġgran":12782,"acking":12783,"Ġjaw":12784,"angered":12785,"Ġexplored":12786,"Ġkeyboard":12787,"ĠSurv":12788,"Ġfragments":12789,"Ġgenera":12790,"Ġcollecting":12791,"Ġcomposers":12792,"Ġopinions":12793,"ĠGibson":12794,"Ġnavigation":12795,"Ġadequ":12796,"Ġgenes":12797,"Ġironcl":12798,"ĠByzant":12799,"ĠCulture":12800,"Ġpump":12801,"Ġmemb":12802,"isting":12803,"Ġspeculated":12804,"Ġauthentic":12805,"suing":12806,"Ġresemble":12807,"utely":12808,"Ġunre":12809,"heads":12810,"Ġchannels":12811,"inqu":12812,"Ġrepublic":12813,"ĠColomb":12814,"ĠTrinity":12815,"ĠiTunes":12816,"Ġundertook":12817,"ĠBran":12818,"ĠSche":12819,"ĠProfessional":12820,"Ġpercussion":12821,"Ġsuffer":12822,"Ġturbines":12823,"GB":12824,"elia":12825,"Ġstair":12826,"ĠEagle":12827,"Ġaveraged":12828,"Ġcompromise":12829,"thlete":12830,"Ġseeds":12831,"Ġphotos":12832,"Ġimmigrants":12833,"Ġbars":12834,"ĠAlpha":12835,"Ġfemin":12836,"rehensive":12837,"icus":12838,"utter":12839,"ĠClif":12840,"Ġposthum":12841,"Ġhomeless":12842,"Ġhabitats":12843,"Ġgam":12844,"avil":12845,"ĠKem":12846,"Ġassets":12847,"Ġrepet":12848,"Ġsummar":12849,"cour":12850,"lia":12851,"unar":12852,"Ġunderwater":12853,"Ġdefenses":12854,"Ġcomplaints":12855,"Ġmanufactured":12856,"RC":12857,"ĠMick":12858,"ĠMobile":12859,"ĠMeyer":12860,"Ġwhale":12861,"opol":12862,"Ġensuing":12863,"Ġfaction":12864,"Ġbench":12865,"ho":12866,"rection":12867,"enz":12868,"ĠAaron":12869,"Ġants":12870,"Ġmanages":12871,"ikes":12872,"ĠMonster":12873,"ĠMethod":12874,"Ġsic":12875,"ĠLuther":12876,"Ġmetall":12877,"ĠAppro":12878,"Ġsymbols":12879,"Ġpsychological":12880,"ĠWellington":12881,"Ġreconstruct":12882,"Ġlesb":12883,"ĠBaptist":12884,"ĠMetacritic":12885,"yll":12886,"Ġups":12887,"oves":12888,"amped":12889,"Ġrelied":12890,"Ġcoastline":12891,"Ġdissolved":12892,"Ġnetworks":12893,"Ġconsequences":12894,"otypes":12895,"wyn":12896,"ylum":12897,"Ġimprov":12898,"Ġhonorary":12899,"employ":12900,"ĠShan":12901,"Ġlandings":12902,"Ġlengthy":12903,"Ġabsolute":12904,"ĠWrest":12905,"Ġconsensus":12906,"Ġbuff":12907,"Ġbrut":12908,"Ġcontempor":12909,"Ġcave":12910,"Ġgauge":12911,"ĠWant":12912,"Ġfraud":12913,"ĠLuftwaffe":12914,"di":12915,"mother":12916,"Ġadds":12917,"Ġemig":12918,"Ġultimate":12919,"Ġambassador":12920,"Ġqualities":12921,"ographed":12922,"iggins":12923,"Ġreserves":12924,"Ġpounder":12925,"ĠShelley":12926,"Ġeruption":12927,"Ġintact":12928,"ugs":12929,"Ġsymph":12930,"Ġgoddess":12931,"Ġloyalty":12932,"ĠBermuda":12933,"iden":12934,"Ġvariant":12935,"Ġessay":12936,"Ġprinting":12937,"ĠUrban":12938,"Ġfears":12939,"ĠMC":12940,"ĠGenesis":12941,"Ġsignals":12942,"ĠMonroe":12943,"ĠTimber":12944,"Ġpatrols":12945,"Ãª":12946,"usive":12947,"through":12948,"Ġsingers":12949,"otto":12950,"Ġlemurs":12951,"fr":12952,"Ġol":12953,"olith":12954,"ĠMachine":12955,"Ġassessment":12956,"Ġunveiled":12957,"ĠCM":12958,"ĠCool":12959,"ĠHerm":12960,"ĠShar":12961,"ĠWoods":12962,"Ġdisappoint":12963,"Ġinterf":12964,"Ġ1868":12965,"Ġ1872":12966,"Ġlifted":12967,"Ġgrossed":12968,"ĠWolver":12969,"ĠRPG":12970,"ĠAguiler":12971,"Ġflesh":12972,"ema":12973,"Ġweighed":12974,"Ġ123":12975,"aurus":12976,"Ġrocket":12977,"Ġexplosive":12978,"Ġdoctors":12979,"Ġeldest":12980,"ĠMarx":12981,"licted":12982,"Ġteachers":12983,"ĠOtto":12984,"ĠHat":12985,"Ġsear":12986,"Ġaristocr":12987,"ĠHenri":12988,"Ġemotions":12989,"ĠVarious":12990,"ĠSelena":12991,"ĠAguilera":12992,"ED":12993,"Ġduck":12994,"ĠMom":12995,"Ġamid":12996,"Ġmillions":12997,"Ġdelight":12998,"ĠNotable":12999,"Ġbattlecruisers":13000,"ĠChoice":13001,"Ġcomparing":13002,"Ġspectators":13003,"Ġinteractions":13004,"ĠEngineering":13005,"orge":13006,"Ġowing":13007,"ĠPi":13008,"eward":13009,"ovsky":13010,"Ġclip":13011,"endar":13012,"Ġtwentieth":13013,"Ġtradem":13014,"auna":13015,"Ġliterally":13016,"Ġenormous":13017,"imity":13018,"igo":13019,"ĠRah":13020,"Ġpolitically":13021,"Ġinsufficient":13022,"edar":13023,"Ġhier":13024,"ĠMk":13025,"Ġstabil":13026,"Ġchlor":13027,"ĠChin":13028,"Ġsongwriting":13029,"Ġbatsman":13030,"stad":13031,"ĠEsp":13032,"ĠNewport":13033,"Ġengaging":13034,"ĠFemale":13035,"Ġhorizontal":13036,"ĠFlames":13037,"Ġcostumes":13038,"ĠEllis":13039,"ĠDakota":13040,"iri":13041,"ĠFab":13042,"ĠStage":13043,"ebe":13044,"Ġinstructed":13045,"ĠMoney":13046,"Ġdealt":13047,"Ġrelating":13048,"Ġappealed":13049,"Ġrevived":13050,"ci":13051,"Ġtensions":13052,"ĠWool":13053,"Ġrally":13054,"Ġdeals":13055,"Ġenrolled":13056,"issa":13057,"monton":13058,"Ġdigit":13059,"Ġintelligent":13060,"ĠCabinet":13061,"ĠMVP":13062,"ĠPent":13063,"ĠRiley":13064,"Ġsuited":13065,"Ġtelev":13066,"cock":13067,"uits":13068,"Ġtrips":13069,"Ġreader":13070,"Ġvocalist":13071,"ĠChandler":13072,"Ġbacteria":13073,"ĠExpedition":13074,"iche":13075,"star":13076,"ĠLeigh":13077,"ĠRenaissance":13078,"ĠGaz":13079,"Ġstrings":13080,"ĠKnights":13081,"ĠAdelaide":13082,"Ġreferee":13083,"dam":13084,"keley":13085,"Ġsubd":13086,"ĠDrum":13087,"Ġbitter":13088,"Ġinstrumentation":13089,"orus":13090,"Ġfrog":13091,"Ġstroke":13092,"ĠLie":13093,"Ġsubordin":13094,"ĠSoviets":13095,"ĠWWF":13096,"Ġallegations":13097,"Ġincomple":13098,"force":13099,"Ġliv":13100,"ĠHanc":13101,"odon":13102,"bery":13103,"ĠNept":13104,"Ġslower":13105,"Ġintersections":13106,"Ġgraphic":13107,"ĠPhillips":13108,"ĠFerdinand":13109,"Ġanx":13110,"Ġdeclaration":13111,"Ġdiseases":13112,"ĠGeoffrey":13113,"hand":13114,"nal":13115,"ĠCome":13116,"ichi":13117,"Ġexhibited":13118,"ĠMaxwell":13119,"Ġextraordin":13120,"Ġreminiscent":13121,"Ġcats":13122,"Ġhurricanes":13123,"ĠSans":13124,"ĠNL":13125,"ĠScreen":13126,"ĠSurrey":13127,"Ġmushroom":13128,"ĠMol":13129,"Ġclan":13130,"ĠHeaven":13131,"Ġwoods":13132,"rav":13133,"ologically":13134,"Ġtermed":13135,"ĠTherefore":13136,"Ġwidow":13137,"Ġchapters":13138,"ĠView":13139,"ĠCurtis":13140,"Ġmissile":13141,"Ġwishes":13142,"Ġhung":13143,"otilla":13144,"ĠCombat":13145,"Ġincred":13146,"Ġovercome":13147,"ĠLead":13148,"Ġinvolve":13149,"Ġetc":13150,"Ġgallery":13151,"ĠMarcus":13152,"pect":13153,"Ġá":13154,"ĠWald":13155,"ĠBarrett":13156,"Ġcounsel":13157,"Ġdiscipline":13158,"utonium":13159,"ĠCapital":13160,"ĠMetal":13161,"Ġthickness":13162,"Ġmistake":13163,"Ġtactical":13164,"ĠEssex":13165,"Ġsacrifice":13166,"ĠAbraham":13167,"ĠFellow":13168,"ĠSpencer":13169,"ĠMovement":13170,"Ġdisliked":13171,"ĠPlymouth":13172,"ĠPrison":13173,"Ġmodest":13174,"ĠRomans":13175,"Ġquantities":13176,"zi":13177,"ĠHeath":13178,"Ġinterference":13179,"ĠMadrid":13180,"Ġmathematics":13181,"Ġmisc":13182,"ĠRight":13183,"Ġtransit":13184,"ungle":13185,"Ġathletic":13186,"ĠSA":13187,"Ġshirt":13188,"ĠâĢ²":13189,"ĠFranco":13190,"Ġjoins":13191,"Ġcultures":13192,"ĠGameSpot":13193,"odied":13194,"Ġrepaired":13195,"ĠBlake":13196,"Ġrulers":13197,"ĠBurger":13198,"Ġshopping":13199,"Ġhunt":13200,"othe":13201,"Ġshar":13202,"Ġexpense":13203,"Ġmachinery":13204,"Ġnomine":13205,"Ġresur":13206,"ĠPoll":13207,"Ġrifle":13208,"Ġpanels":13209,"Ġsupporter":13210,"Ġproceeds":13211,"Ġfinger":13212,"lend":13213,"ĠTall":13214,"ĠHond":13215,"enne":13216,"Ġcircles":13217,"ĠResident":13218,"ĠVienna":13219,"Ġnicknamed":13220,"Ġsyndrome":13221,"ĠEqu":13222,"Ġassign":13223,"wind":13224,"Ġbol":13225,"stand":13226,"urers":13227,"ulk":13228,"ĠSpit":13229,"Ġcontinent":13230,"Ġfights":13231,"Ġcaliber":13232,"ĠContemporary":13233,"Ġhect":13234,"ĠAdrian":13235,"ĠContin":13236,"ĠBrigadier":13237,"Ġimported":13238,"kinson":13239,"ĠDaniels":13240,"ĠBosnia":13241,"ĠHancock":13242,"itects":13243,"ĠAviation":13244,"ĠBri":13245,"opsis":13246,"Ġcommentators":13247,"Ġmigration":13248,"ĠFlorence":13249,"alid":13250,"Ġwashed":13251,"Ġspores":13252,"ĠNorse":13253,"Ġfatal":13254,"ĠRelations":13255,"Ġfare":13256,"ĠSponge":13257,"ĠFlood":13258,"Ġinterviewed":13259,"ĠAdmiralty":13260,"Ġlocomotive":13261,"icity":13262,"raine":13263,"ĠFergus":13264,"Ġcustody":13265,"ĠTasman":13266,"Ġgaming":13267,"Ġjoke":13268,"Ġfluid":13269,"Ġproximity":13270,"OR":13271,"ĠTales":13272,"ĠSib":13273,"ĠBrew":13274,"olo":13275,"imir":13276,"Ġraw":13277,"ĠNobel":13278,"ĠBog":13279,"arted":13280,"ĠAgricult":13281,"Ġsect":13282,"ĠArchitect":13283,"Ġbankrupt":13284,"Ġpronounced":13285,"ĠPublishing":13286,"Ġredesign":13287,"Ġmim":13288,"Ġbeer":13289,"ĠNum":13290,"Ġcontested":13291,"Ġmolecules":13292,"Ġcurrency":13293,"athetic":13294,"Ġally":13295,"ĠKub":13296,"ĠGlass":13297,"ĠJeremy":13298,"cious":13299,"ĠSuz":13300,"Ġlip":13301,"Ġundergo":13302,"ĠReading":13303,"Ġacquire":13304,"ĠTwenty":13305,"ĠJennifer":13306,"Ġmaneuver":13307,"ĠBaldwin":13308,"iday":13309,"ĠPut":13310,"ikh":13311,"Ġzones":13312,"ĠUsher":13313,"nut":13314,"Ġtong":13315,"Ġpuzz":13316,"ĠCC":13317,"ĠLeban":13318,"ramid":13319,"Ġsuccessive":13320,"Ġcurves":13321,"ĠArkansas":13322,"Ġaviation":13323,"ĠBot":13324,"Ġallocated":13325,"Ġdemanding":13326,"Ġfluor":13327,"ĠLtd":13328,"ÏĤ":13329,"Ġhatch":13330,"ĠMam":13331,"aston":13332,"elfth":13333,"ashing":13334,"Ġpopulated":13335,"ĠHergÃ©":13336,"Ġknowing":13337,"ĠRomania":13338,"ĠArticle":13339,"Ġmemories":13340,"ĠMotor":13341,"pit":13342,"alysis":13343,"ĠBent":13344,"urbs":13345,"ĠManning":13346,"ĠPreston":13347,"front":13348,"xide":13349,"ĠBuch":13350,"ĠLaf":13351,"Ġunaware":13352,"ĠShadow":13353,"ĠAdri":13354,"Ġseparately":13355,"Ġ1879":13356,"Ġfloors":13357,"Ġgathering":13358,"PS":13359,"lass":13360,"ĠSuff":13361,"ĠStories":13362,"osity":13363,"ripp":13364,"Ġpreliminary":13365,"Ġpublish":13366,"Ġcease":13367,"ĠBanksia":13368,"Ġreef":13369,"umar":13370,"Ġdisgu":13371,"Ġinterrupted":13372,"Ġregardless":13373,"Ġdawn":13374,"ĠMcDonald":13375,"iary":13376,"wig":13377,"ĠJG":13378,"ĠOw":13379,"ĠAllmusic":13380,"Ġdiscussions":13381,"ĠGarc":13382,"eria":13383,"Ġgolf":13384,"Ġscrapped":13385,"ĠPall":13386,"Ġproud":13387,"Ġperpet":13388,"Ġadvances":13389,"Ġmassacre":13390,"Ġscreening":13391,"Ġcomparable":13392,"Ġdeployment":13393,"Ġnineteenth":13394,"pes":13395,"rez":13396,"ĠKes":13397,"ĠNewfound":13398,"Ġnorthwestern":13399,"Ġtourism":13400,"Ġfarms":13401,"Ġdemonstrate":13402,"ĠElectronic":13403,"ĠIndustrial":13404,"ĠIdol":13405,"Ġdiscontinued":13406,"nan":13407,"ĠHous":13408,"Ġ141":13409,"Ġdamages":13410,"ĠMinogue":13411,"guard":13412,"Ġeditorial":13413,"Ġcylind":13414,"asse":13415,"ĠChase":13416,"ĠOrthodox":13417,"ĠPerth":13418,"ĠCapitol":13419,"Ġphotographer":13420,"Ġinstallation":13421,"Ġcylinder":13422,"Ġchord":13423,"Ġunrest":13424,"ĠEdmonton":13425,"ĠCharacter":13426,"ĠStarr":13427,"Ġbills":13428,"ĠMcCain":13429,"Ġediting":13430,"Ġdynamic":13431,"Ġhalted":13432,"ĠBengal":13433,"ĠSkinner":13434,"ĠTask":13435,"Ġsubsc":13436,"ĠBowie":13437,"ĠNav":13438,"Ġsubtle":13439,"ĠHawaiian":13440,"Î½":13441,"Ġsew":13442,"Ġpaved":13443,"urse":13444,"ĠGrad":13445,"Ġprotecting":13446,"ĠPorts":13447,"list":13448,"Ġanger":13449,"istence":13450,"Ġseemingly":13451,"Ġsubsidi":13452,"ĠLancaster":13453,"tz":13454,"atha":13455,"Ġregained":13456,"Ġ270":13457,"ĠKoreans":13458,"ĠTurks":13459,"Ġharbor":13460,"Ġadministered":13461,"Ġopenly":13462,"Ġprojected":13463,"ĠSingle":13464,"ride":13465,"ĠLogan":13466,"ĠIng":13467,"Ġsporting":13468,"Ġdescendants":13469,"ĠNewfoundland":13470,"SA":13471,"bus":13472,"mel":13473,"pat":13474,"Ġtherapy":13475,"Ġgrain":13476,"ĠWinc":13477,"Ġinstruction":13478,"ĠSenior":13479,"Ġambitious":13480,"Ġfunctional":13481,"Ġgravity":13482,"eries":13483,"vern":13484,"Ġcontracted":13485,"Ġuprising":13486,"Ġcitizen":13487,"Ġlicensed":13488,"Ġneighbouring":13489,"Ġbarely":13490,"ĠJur":13491,"Ġregist":13492,"ĠSpin":13493,"Ġcreates":13494,"Ġlessons":13495,"Ġopted":13496,"Ġcrowned":13497,"ĠBeautiful":13498,"how":13499,"zac":13500,"ĠSep":13501,"ĠCN":13502,"ĠCrom":13503,"Ġbusy":13504,"Ġprivately":13505,"Ġsymmet":13506,"Ġaccomplish":13507,"ĠGonz":13508,"Ġoak":13509,"ĠMounted":13510,"Ġgamb":13511,"ĠPlaza":13512,"Ġmasses":13513,"Ġdisputes":13514,"ĠMaxim":13515,"Ġdescended":13516,"Ġdelegation":13517,"Ġjumping":13518,"irk":13519,"ĠDh":13520,"ĠFras":13521,"Ġoverh":13522,"Ġplanes":13523,"Ġcorridor":13524,"ĠBear":13525,"Ġcoloured":13526,"Ġgenerals":13527,"Ġnorthwestward":13528,"Ġtotally":13529,"ĠJen":13530,"Ġjoy":13531,"ĠProtection":13532,"ĠCircuit":13533,"Ġvolcano":13534,"Ġcooperation":13535,"Ġdeeper":13536,"Ġconting":13537,"Ġ146":13538,"Ġcaptivity":13539,"Ġhonest":13540,"ĠSenators":13541,"ait":13542,"Ġnam":13543,"ĠHoff":13544,"Ġshadow":13545,"Ġinvented":13546,"onnell":13547,"Ġcoalition":13548,"Ġorient":13549,"ĠBuddhist":13550,"tage":13551,"Ġlux":13552,"Ġquit":13553,"ervers":13554,"atem":13555,"Ġfile":13556,"ĠTiger":13557,"ĠMake":13558,"ĠFM":13559,"ĠChop":13560,"Ġatmospheric":13561,"Ġcollision":13562,"lessly":13563,"Ġsteady":13564,"Ġoutdoor":13565,"Ġsuburb":13566,"rosse":13567,"Ġdelays":13568,"Ġlacks":13569,"ĠMotion":13570,"isphere":13571,"Ġreiss":13572,"ĠHamb":13573,"ĠStore":13574,"ĠLouise":13575,"ĠCaroline":13576,"Ġnecessarily":13577,"ĠJanet":13578,"Pa":13579,"Ġrapper":13580,"ĠShank":13581,"ĠAirborne":13582,"Ġfarming":13583,"Ġroller":13584,"dan":13585,"Ġchess":13586,"ĠCos":13587,"Ġpresum":13588,"Ð°":13589,"aceous":13590,"Ġibn":13591,"50":13592,"ĠSierra":13593,"Ġeject":13594,"Ġnests":13595,"ĠRams":13596,"uchi":13597,"Ġtracking":13598,"ĠGeneration":13599,"Ġmutual":13600,"ĠAdventures":13601,"Ġexcessive":13602,"oning":13603,"ĠRoth":13604,"Ġconve":13605,"Ġdecomp":13606,"Ġcream":13607,"ĠParachute":13608,"Ġfatalities":13609,"ĠObserv":13610,"ĠNashville":13611,"ĠBron":13612,"inae":13613,"ĠMyst":13614,"Ġhur":13615,"ĠCann":13616,"abet":13617,"Ġjokes":13618,"ĠOnline":13619,"ugu":13620,"Ġ149":13621,"Ġelectro":13622,"ĠÃģ":13623,"ĠSpongeB":13624,"ĠBott":13625,"ĠKens":13626,"Ġdeveloper":13627,"Ġkeen":13628,"achelor":13629,"ĠProductions":13630,"entric":13631,"ĠIC":13632,"ĠYet":13633,"Ġcalm":13634,"ĠCommissioner":13635,"ĠHyd":13636,"Ġgreet":13637,"ĠGust":13638,"Ġshops":13639,"ĠConsequently":13640,"Ġsixty":13641,"ĠHarper":13642,"Ġdeclaring":13643,"Ġcopyright":13644,"ĠAllMusic":13645,"ficial":13646,"ĠLynch":13647,"Ġlava":13648,"ovich":13649,"ĠChall":13650,"Ġrelay":13651,"Ġteammates":13652,"ĠChairman":13653,"ĠHM":13654,"ĠPalmer":13655,"mill":13656,"Ã£o":13657,"Ġinject":13658,"Ġgains":13659,"ĠApart":13660,"Ġrecognize":13661,"Ġprohibited":13662,"Ġkitchen":13663,"Ġstruggling":13664,"ĠDrama":13665,"Ġouts":13666,"Ġoperator":13667,"ĠRegard":13668,"ĠEmily":13669,"ĠMaurice":13670,"Ġpine":13671,"lew":13672,"achi":13673,"Ġrealizes":13674,"Ġdivine":13675,"ĠMoz":13676,"ĠBusch":13677,"Ġstreams":13678,"Ġunemploy":13679,"Ġgenerate":13680,"ĠParamount":13681,"ĠTrip":13682,"ĠDamage":13683,"Ġcabin":13684,"Ġdug":13685,"Ġtrophy":13686,"Ġhonours":13687,"graduate":13688,"Ġauction":13689,"isans":13690,"ĠCant":13691,"Ġminim":13692,"Ġedges":13693,"ĠValent":13694,"ĠDevon":13695,"Ġeliminate":13696,"Ġaggregate":13697,"Ġber":13698,"eli":13699,"otus":13700,"ĠHoll":13701,"ĠDid":13702,"ocene":13703,"Ġbackup":13704,"Ġparam":13705,"Ġ210":13706,"Ġdisappear":13707,"Ġattractive":13708,"Ġruins":13709,"Ġpregnancy":13710,"yers":13711,"Ġtum":13712,"ĠNothing":13713,"Ġreserved":13714,"Ġstorylines":13715,"Ġfindings":13716,"ĠGarfield":13717,"Ġremarkable":13718,"DA":13719,"Ġunst":13720,"ĠSpy":13721,"Ġfreed":13722,"Ġriff":13723,"Ġmerchants":13724,"Ġincomplete":13725,"ĠSqu":13726,"ĠSold":13727,"ilia":13728,"ĠHip":13729,"Ġdraws":13730,"Ġphilosoph":13731,"nolds":13732,"ĠAur":13733,"ĠOst":13734,"Ġsoap":13735,"ĠGuatem":13736,"Ġexperts":13737,"Ġ1848":13738,"Ġunusually":13739,"Ġreversed":13740,"Ġmuzzle":13741,"ĠWid":13742,"Ġclay":13743,"elfare":13744,"Ġlyric":13745,"houses":13746,"ĠBast":13747,"ĠChancellor":13748,"Ġsecular":13749,"Ġoperas":13750,"legiate":13751,"Ġspo":13752,"Ġimpress":13753,"Ġtransp":13754,"Ġ1874":13755,"Ġacquisition":13756,"ĠLarge":13757,"Ġproceedings":13758,"ĠRhodesia":13759,"Ġconjunction":13760,"ĠArctic":13761,"letcher":13762,"Ġgrants":13763,"Ġsurfaces":13764,"ĠSoft":13765,"ĠPanama":13766,"Ġadaptations":13767,"holm":13768,"Ġcaution":13769,"Ġscenario":13770,"ĠKiss":13771,"Ġsketch":13772,"Ġmemorable":13773,"Ġtab":13774,"ayette":13775,"ĠJunction":13776,"Ġdecomm":13777,"Ġkeeps":13778,"Ġridic":13779,"Ġlifestyle":13780,"Ġpackage":13781,"Ġloading":13782,"ĠGriffin":13783,"net":13784,"ĠRandy":13785,"Ġsubstance":13786,"ymn":13787,"Ġunpop":13788,"Ġperfectly":13789,"mons":13790,"ĠSed":13791,"ady":13792,"istically":13793,"Ġsufficiently":13794,"Ġrestaurants":13795,"Ġpedest":13796,"pow":13797,"Ġtennis":13798,"Ġdors":13799,"Ġchances":13800,"Ġconsul":13801,"Ġprinc":13802,"Ġtransc":13803,"Ġprogression":13804,"uxili":13805,"ĠSolomon":13806,"rolling":13807,"Ġfloating":13808,"ĠArmenia":13809,"ĠStarting":13810,"hurst":13811,"ĠEU":13812,"Ġresort":13813,"Ġoverth":13814,"ĠÂµ":13815,"ĠBooth":13816,"ĠHolmes":13817,"Ġfabric":13818,"ndum":13819,"ĠDian":13820,"ĠHeat":13821,"ĠReform":13822,"Ġmetropolitan":13823,"Ġerosion":13824,"Ġtunnels":13825,"Ġemphasized":13826,"Ġshed":13827,"Ġoverd":13828,"ĠEdwin":13829,"ĠDoug":13830,"Ġallegedly":13831,"ĠFinnish":13832,"Ġveterans":13833,"Ġlobby":13834,"Ġhiding":13835,"ĠCec":13836,"omes":13837,"ĠHab":13838,"Ġdetached":13839,"anan":13840,"ĠNumber":13841,"Ġassessed":13842,"Ġ144":13843,"Ġmotorway":13844,"ĠMichelle":13845,"Ġworried":13846,"ĠWindsor":13847,"rozen":13848,"Ġmodes":13849,"ĠSerbs":13850,"ĠJacques":13851,"ĠSpongeBob":13852,"Ġdiving":13853,"ĠYok":13854,"Ġmonitor":13855,"ĠPhant":13856,"ĠLindwall":13857,"Ġmicro":13858,"ĠTunnel":13859,"Ġpled":13860,"ipping":13861,"Ġincorporates":13862,"Ġclimbing":13863,"post":13864,"Ġsin":13865,"Ġnights":13866,"Ġmobil":13867,"Ġfestivals":13868,"hero":13869,"ĠNed":13870,"ovo":13871,"ĠSpiel":13872,"Ġtopic":13873,"ĠToo":13874,"Ġdemonstration":13875,"ĠFormula":13876,"ĠAdvance":13877,"ibl":13878,"Ġescal":13879,"Ġmanifest":13880,"Ġcoc":13881,"istle":13882,"ĠArabic":13883,"ushes":13884,"ĠRup":13885,"ĠClaire":13886,"Ġinvestigated":13887,"Ġcounteratt":13888,"ĠLuis":13889,"ĠIllust":13890,"birds":13891,"Ġsupplement":13892,"HA":13893,"Å¾":13894,"ivic":13895,"Ġcentres":13896,"ĠGerald":13897,"Ġspeeches":13898,"Ġputs":13899,"Ġfloods":13900,"Ġappreciated":13901,"ĠMonday":13902,"Ġfox":13903,"imination":13904,"Ġsty":13905,"ĠAugustus":13906,"ĠEls":13907,"Ġflee":13908,"ĠBerkeley":13909,"Ġsynth":13910,"ĠStanford":13911,"Ġtended":13912,"Ġprosecut":13913,"brook":13914,"Ġhamlet":13915,"olades":13916,"Ġplutonium":13917,"rano":13918,"Ġattachment":13919,"Ġcrust":13920,"ĠSuperman":13921,"ĠLegion":13922,"Ġranged":13923,"Ġerrors":13924,"12":13925,"ĠSue":13926,"ĠWake":13927,"opters":13928,"Ġobl":13929,"ĠGuards":13930,"ĠPresley":13931,"ĠPierce":13932,"oline":13933,"Ġstance":13934,"ĠLut":13935,"Ġrays":13936,"Ġamendment":13937,"Ġinternet":13938,"Ġpleasure":13939,"rators":13940,"Ġpist":13941,"Ġhaul":13942,"Ġease":13943,"ĠMartha":13944,"Ġwarrant":13945,"ĠCollect":13946,"Ġmodifications":13947,"Ġqualify":13948,"inguished":13949,"Ġfilter":13950,"Ġdiagnosed":13951,"ĠFac":13952,"Ġupgrade":13953,"Ġimmun":13954,"ĠCuban":13955,"ocaust":13956,"anian":13957,"Ġnotion":13958,"Ġconsent":13959,"Ġmetab":13960,"ĠZh":13961,"ĠRecre":13962,"Ġintroducing":13963,"ĠBulgaria":13964,"Ġinhabited":13965,"Ġnaked":13966,"ĠOber":13967,"Ġincons":13968,"Ġsecuring":13969,"Ġmaintains":13970,"ĠSoundtrack":13971,"Ġstrengthening":13972,"ĠCommercial":13973,"ĠGam":13974,"lesi":13975,"Ġgenerations":13976,"Ġconfined":13977,"official":13978,"Ġpushing":13979,"apa":13980,"Ġnearest":13981,"Ġthoughts":13982,"Ġlineup":13983,"Ġmerger":13984,"ĠAnti":13985,"Ġcameras":13986,"ĠDere":13987,"ĠPrice":13988,"ĠManor":13989,"Ġreads":13990,"ĠBelle":13991,"Ġthrust":13992,"Ġcomfortable":13993,"lies":13994,"Ġbonds":13995,"Ġitem":13996,"Ġenable":13997,"ĠFinals":13998,"ĠJennings":13999,"ĠBroadcasting":14000,"aude":14001,"Ġbutt":14002,"Ġcompat":14003,"ĠWarwick":14004,"ĠIrving":14005,"penter":14006,"Ġ280":14007,"Ġinver":14008,"Ġrevel":14009,"igu":14010,"Ġstripped":14011,"ishi":14012,"overning":14013,"ĠYu":14014,"Ġampl":14015,"Ġorgans":14016,"Ġ1851":14017,"ĠDelhi":14018,"ĠMirror":14019,"ĠChapman":14020,"ĠGabriel":14021,"raid":14022,"quet":14023,"rann":14024,"veloped":14025,"Ġelectoral":14026,"Ġwaterline":14027,"Ġcolleges":14028,"Ġsel":14029,"Ġcere":14030,"ĠGas":14031,"Ġbetray":14032,"Ġmuscle":14033,"ĠGlenn":14034,"canal":14035,"Ġgrandson":14036,"Ġelderly":14037,"Ġfib":14038,"Ġartif":14039,"Ġspeaker":14040,"ĠSword":14041,"ĠTurnpike":14042,"Ġsus":14043,"Ġsoci":14044,"ogical":14045,"ĠBerry":14046,"Ġembarr":14047,"Ġensemble":14048,"ĠSubsequently":14049,"Ġdoubles":14050,"imid":14051,"ĠESP":14052,"ylogen":14053,"Ġdarkness":14054,"ĠHayes":14055,"ĠNab":14056,"ĠPrepar":14057,"ĠHopkins":14058,"isle":14059,"ĠMade":14060,"Ġknock":14061,"DP":14062,"ĠSr":14063,"ĠPun":14064,"Ġcarefully":14065,"Ġgraduating":14066,"Ġsacred":14067,"ĠGlobal":14068,"Ġbrigades":14069,"Ġlegitimate":14070,"Ġenthusiastic":14071,
[...]
